{"[UNK]":0,"[CLS]":1,"[SEP]":2,"[PAD]":3,"[MASK]":4,"!":5,"\"":6,"#":7,"$":8,"%":9,"&":10,"'":11,"(":12,")":13,"*":14,"+":15,",":16,"-":17,".":18,"/":19,"0":20,"1":21,"2":22,"3":23,"4":24,"5":25,"6":26,"7":27,"8":28,"9":29,":":30,";":31,"<":32,"=":33,">":34,"?":35,"@":36,"A":37,"B":38,"C":39,"D":40,"E":41,"F":42,"G":43,"H":44,"I":45,"J":46,"K":47,"L":48,"M":49,"N":50,"O":51,"P":52,"Q":53,"R":54,"S":55,"T":56,"U":57,"V":58,"W":59,"X":60,"Y":61,"Z":62,"[":63,"\\":64,"]":65,"^":66,"_":67,"`":68,"a":69,"b":70,"c":71,"d":72,"e":73,"f":74,"g":75,"h":76,"i":77,"j":78,"k":79,"l":80,"m":81,"n":82,"o":83,"p":84,"q":85,"r":86,"s":87,"t":88,"u":89,"v":90,"w":91,"x":92,"y":93,"z":94,"{":95,"|":96,"}":97,"~":98,"¡":99,"¢":100,"£":101,"¤":102,"¥":103,"¦":104,"§":105,"¨":106,"©":107,"ª":108,"«":109,"¬":110,"®":111,"¯":112,"°":113,"±":114,"²":115,"³":116,"´":117,"µ":118,"¶":119,"·":120,"¸":121,"¹":122,"º":123,"»":124,"¼":125,"½":126,"¾":127,"¿":128,"Â":129,"Ã":130,"Ä":131,"Å":132,"Æ":133,"Ç":134,"È":135,"É":136,"Ê":137,"Ë":138,"Ì":139,"Í":140,"Î":141,"Ï":142,"Ð":143,"Ñ":144,"Ò":145,"Ó":146,"Ô":147,"Õ":148,"Ö":149,"×":150,"Ø":151,"Ù":152,"Ú":153,"Û":154,"Ü":155,"Ý":156,"Þ":157,"ß":158,"à":159,"á":160,"â":161,"ã":162,"ä":163,"å":164,"æ":165,"ç":166,"è":167,"é":168,"ê":169,"ë":170,"ì":171,"í":172,"î":173,"ï":174,"ð":175,"ó":176,"ô":177,"Ā":178,"ā":179,"Ă":180,"ă":181,"Ą":182,"ą":183,"Ć":184,"ć":185,"Ĉ":186,"ĉ":187,"Ċ":188,"ċ":189,"Č":190,"č":191,"Ď":192,"ď":193,"Đ":194,"đ":195,"Ē":196,"ē":197,"Ĕ":198,"ĕ":199,"Ė":200,"ė":201,"Ę":202,"ę":203,"Ě":204,"ě":205,"Ĝ":206,"ĝ":207,"Ğ":208,"Ġ":209,"ġ":210,"Ģ":211,"ģ":212,"Ĥ":213,"ĥ":214,"Ħ":215,"ħ":216,"Ĩ":217,"ĩ":218,"Ī":219,"ī":220,"Ĭ":221,"ĭ":222,"Į":223,"į":224,"İ":225,"ı":226,"Ĳ":227,"ĳ":228,"Ĵ":229,"ĵ":230,"Ķ":231,"ķ":232,"ĸ":233,"Ĺ":234,"ĺ":235,"Ļ":236,"ļ":237,"Ľ":238,"ľ":239,"Ŀ":240,"ŀ":241,"Ł":242,"ł":243,"Ń":244,"ĠĠĠĠĠĠĠĠĠĠĠĠĠĠĠĠĠĠĠĠĠĠĠĠĠĠĠĠĠĠĠĠĠĠĠĠĠĠĠĠĠĠĠĠĠĠĠĠ":245,"ĠĠĠĠĠĠĠĠĠĠ":246,"-------------------------------------------":247,"Ġthe":248,"Ġa":249,"in":250,"ĠĠĠĠ":251,"er":252,"tion":253,"-------------":254,"Ġt":255,"re":256,"Ġof":257,"Ġs":258,"en":259,"Ġand":260,"=============================":261,"at":262,"on":263,"or":264,"Ġc":265,"Ġw":266,"is":267,"es":268,"ed":269,"it":270,"al":271,"an":272,"Ġp":273,"Ġf":274,"Ġb":275,"ou":276,"ing":277,"Ġin":278,"ar":279,"Ġm":280,"Ġd":281,"ic":282,"**************************************":283,"Ġh":284,"Ġto":285,"le":286,"as":287,"ro":288,"Ġth":289,"ent":290,"ĠĠ":291,"et":292,"el":293,"Ġre":294,"Ġn":295,"om":296,"Ġwith":297,"st":298,"il":299,"ac":300,"ec":301,"ĠTh":302,"Ġl":303,"Ġe":304,"ot":305,"id":306,"=========":307,"im":308,"ig":309,"Ġis":310,"Ġg":311,"ve":312,"Ġ(":313,"ol":314,"am":315,"ĠI":316,"Ġyou":317,"ation":318,"us":319,"ly":320,"âĢ":321,"ow":322,"Ġfor":323,"ĠS":324,"Ġthat":325,"ur":326,"Ġon":327,"ad":328,"ver":329,"ĠA":330,"ĠC":331,"un":332,"ut":333,"Ġst":334,"Ġbe":335,"ul":336,"Ġwh":337,"ay":338,"Ġ1":339,"if":340,"ce":341,"ter":342,"ight":343,"Ġcon":344,"Ġfrom":345,"-----":346,"ĠĠĠ":347,"ch":348,"///////////////////////////////////////":349,"os":350,"em":351,"ir":352,"Ġas":353,"Ġan":354,"od":355,"op":356,"Ġhave":357,"th":358,"00":359,"Ġpro":360,"Ġ\"":361,"ab":362,"ould":363,"ag":364,"Ġit":365,"Ġ$":366,"um":367,"ate":368,"ĠM":369,"Ġal":370,"Ġv":371,"ri":372,"ĠP":373,"Ġ2":374,"res":375,"pp":376,"qu":377,"ts":378,"Ġcomp":379,"ain":380,"Ġr":381,"ere":382,"oc":383,"Ġex":384,"ers":385,"Ġwas":386,"ĠB":387,"Ġor":388,"ct":389,"ion":390,"est":391,"Ġ\\":392,"Ġ=":393,"se":394,"Ġare":395,"####################################":396,"Ġat":397,"iv":398,"ĊĠĠĠĠĠĠĠ":399,"ist":400,"ess":401,"Ġsu":402,"ound":403,"ity":404,"Ġ-":405,"ĠH":406,"ĠF":407,"ĠD":408,"Ġby":409,"ill":410,"______________________":411,"ment":412,"Ġwhich":413,"our":414,"ore":415,"and":416,"Ġsh":417,"out":418,"ĠW":419,"ĠThe":420,"ant":421,"ĠT":422,"Ġde":423,"ect":424,"ke":425,"end":426,"Ġnot":427,"her":428,"ĠR":429,"ough":430,"ive":431,"ĠL":432,"The":433,"ap":434,"**":435,"Ġch":436,"ĠN":437,"ew":438,"Ġthis":439,"âĢĻ":440,"clud":441,"Ġwe":442,"ell":443,"Ġus":444,"ĊĠĠĠ":445,"ure":446,"art":447,"ies":448,"ial":449,"Ġhe":450,"Ġbetween":451,"ĠG":452,"ort":453,"Ġse":454,"ype":455,"Ġup":456,"Ġun":457,"ĠE":458,"ated":459,"form":460,"pl":461,"Ġo":462,"ĊĠĠĠĠĠĠĠĠĠĠ":463,"'s":464,"Ġtr":465,"Ġ*":466,"ĠĠĠĠĠ":467,"all":468,"Ġyear":469,"ine":470,"Ġknow":471,"Ġle":472,"ff":473,"{\\":474,"Ġ0":475,"og":476,"Ġbecause":477,"ext":478,"âĶĢâĶĢâĶĢâĶĢâĶĢâĶĢâĶĢâĶĢâĶĢâĶĢâĶĢâĶĢâĶĢâĶĢâĶĢâĶ":479,"ge":480,"ust":481,").":482,"der":483,"ical":484,"Ġdiffer":485,"ue":486,"Ġcan":487,"ome":488,"ĠO":489,"ack":490,"iz":491,"age":492,"math":493,"Ġalso":494,"ame":495,"lass":496,"nt":497,"Ġimp":498,"Ġ3":499,"ction":500,"Ġsp":501,"able":502,"are":503,"ib":504,"ard":505,"Ġother":506,"Ġres":507,"Ġabout":508,"act":509,"ase":510,");":511,"ook":512,"ublic":513,"Ġj":514,"Ġtime":515,"ep":516,"ence":517,"ost":518,"Ġ{":519,"Ġcont":520,"ans":521,"01":522,"Ġpl":523,"ĠâĢľ":524,"av":525,"=\"":526,"Ġad":527,"ast":528,"ĠIn":529,"ud":530,"ĊĠ":531,".\"":532,"ip":533,"Ġwere":534,"Ġwork":535,"ĠJ":536,"ak":537,"Ġall":538,"ign":539,"per":540,"Ġpeople":541,"ĠU":542,"Ġint":543,"Ġ[":544,"Ġacc":545,"ide":546,"ĉĉĉ":547,"Ġcomm":548,"Ġfollow":549,"ition":550,"ire":551,"ind":552,"............................":553,"ach":554,"ens":555,"Ġhas":556,"Ġne":557,"Ġme":558,"ous":559,"ÂłÂłÂłÂłÂłÂłÂłÂłÂłÂłÂłÂłÂłÂłÂłÂłÂłÂłÂłÂłÂłÂłÂłÂł":560,"Ġ+":561,"Ġsystem":562,"ice":563,"Ġdo":564,"ary":565,"one":566,"--":567,"Ġtwo":568,"Ġbut":569,"ult":570,"Ġreturn":571,"Ġapp":572,"Ġsaid":573,"..":574,"Ġdis":575,"Ġlike":576,"_{":577,"ong":578,"du":579,"ress":580,"Ġ4":581,"ations":582,"Ġar":583,"Ġwill":584,"Ġgroup":585,"ents":586,"ru":587,"ile":588,"Ġ<":589,"pt":590,"Ġgo":591,"Ġfirst":592,"),":593,"ber":594,"ose":595,"ance":596,"}}":597,"ef":598,"Ġif":599,"Ġen":600,"Ġper":601,"Ġafter":602,"Ġ5":603,"ally":604,"ace":605,"ely":606,"ph":607,"Ġone":608,"int":609,"Ġhis":610,"Ġpre":611,"ord":612,"//":613,"Ġcl":614,"ia":615,"own":616,"Âł":617,"ra":618,"ory":619,"Ġthey":620,"Ġout":621,"ang":622,"ail":623,"Ġev":624,"Ġso":625,"Ġop":626,"Ġqu":627,"ry":628,"ĠSt":629,"Ġtheir":630,"âĢĿ":631,"ft":632,"ors":633,"Ġmore":634,"Ġdata":635,"ĠK":636,"Ġsignificant":637,"ond":638,"ys":639,"Ġthere":640,"ite":641,"Ġag":642,"Ġinter":643,"Ġdevelop":644,"Ġhigh":645,"ake":646,"Ġ\\[[@":647,"very":648,"Ġpart":649,"ĠĠĠĠĠĠĠĠĠĠĠĠĠĠĠĠĠĠĠĠ":650,"000000000000000000000000000000000000000000000000000000000000000000000000000000000000000000000000":651,"Ġyour":652,"Ġ}":653,"Ġfunction":654,"Ġhad":655,"ield":656,"Ġpatients":657,"Ġk":658,"Ġbeen":659,"bs":660,"ree":661,"ĊĊ":662,"Ġmethod":663,"Ġ$\\":664,"ish":665,"Ġman":666,"Ġthrough":667,"ll":668,"Ġgener":669,"Ġwho":670,"te":671,"erv":672,"ates":673,"erm":674,"ĠV":675,"Ġno":676,"Ġwould":677,"Ġany":678,"ont":679,"Ġconsider":680,"enc":681,"Ġwhen":682,"ath":683,"Ġ'":684,"Ġ&":685,"bject":686,"Ġass":687,"Ġrec":688,"ount":689,"In":690,"ric":691,"Ġmy":692,"Ġproblem":693,"eg":694,"Ġindividual":695,"old":696,"Ġthan":697,"\\]":698,"Ġover":699,"Ċĉ":700,"ater":701,"Ġ6":702,"Ġ19":703,"ild":704,"Ġincre":705,"Ġrep":706,"Ġits":707,"Ġsc":708,"'t":709,"10":710,"</":711,"row":712,"Ġexp":713,"ring":714,"}$":715,"ks":716,"oth":717,"ays":718,"Ġdef":719,"Ġsomething":720,"frac":721,"ub":722,"rib":723,"li":724,"ex":725,"ass":726,"Ġvari":727,"owever":728,"Ġnew":729,"Ġpossib":730,"get":731,"tions":732,"^{":733,"Ġoff":734,"ons":735,"Ġam":736,"ĊĠĠĠĠĠĠĠĠĠĠĠ":737,"lect":738,"Ġsome":739,"]{}":740,"](#":741,"lo":742,"hat":743,"vers":744,"ref":745,"vi":746,"19":747,"ĠâĢ":748,"ample":749,"Ġpr":750,"reat":751,"ĠCh":752,"ĠY":753,"ode":754,"ttp":755,"Ġget":756,"###":757,"Ġbefore":758,"Ġro":759,"Ġnumber":760,"Ġour":761,"Ġunder":762,"====":763,"Ġinto":764,"Ġher":765,"ings":766,"iss":767,"Ġdes":768,"Ġworld":769,"com":770,"ink":771,"ick":772,"12":773,"ified":774,"uc":775,"Ġmay":776,"Ġact":777,"gr":778,"ie":779,"Ġonly":780,"ative":781,"Ġvalue":782,"Ġph":783,"Ġthem":784,"ĠIt":785,"---|---|---|---":786,"nd":787,"Ġprocess":788,"Ġcurrent":789,"Ġsec":790,"aw":791,"Ġmodel":792,"Ġmade":793,"ular":794,"Ġco":795,"Ġstud":796,"Ġemploy":797,"Ġab":798,"Ġ7":799,"ove":800,"Ġwhat":801,"Ġlevel":802,"elf":803,"Ġadd":804,"ark":805,"Ġpresent":806,"Ġdec":807,"ma":808,"ian":809,"Ġtrans":810,"Ġreg":811,"Ġcharacter":812,"Ġhelp":813,"Ġ|":814,"Ġim":815,"Ġinv":816,"ear":817,"Ġmuch":818,"ĠAmeric":819,"sp":820,"ĠThis":821,"ert":822,"Th":823,"ock":824,"itt":825,"tr":826,"Ġ201":827,"ased":828,"Ġ8":829,"Ġind":830,"\",":831,"ov":832,"Ġsuch":833,"Ġeff":834,"Ġjust":835,"ne":836,"Ġcourt":837,"ating":838,"Ġgr":839,"anc":840,"Ġform":841,"Ġduring":842,"app":843,"Ġrel":844,"Ġthese":845,"Ġanalysis":846,"ĠWe":847,"Ġcells":848,"Ġtechn":849,"11":850,"Ġsupport":851,"ility":852,"Ġprovid":853,"up":854,"les":855,"Ġcol":856,"Ġwhere":857,"ific":858,"Ġresp":859,"ss":860,"Ġobtain":861,"he":862,"ty":863,"}\\":864,"lambda":865,"Ġdet":866,"%%%%%%%%%%%%%%%%%%%%%%%%%%%%%%%%%%%%%":867,"Ġpo":868,"ize":869,"ident":870,"ith":871,"Ġ10":872,"Ġclass":873,"ym":874,"olog":875,"Ġpol":876,"ix":877,"Ġneed":878,"Ġset":879,"ĊĠĠĠĠ":880,"ug":881,"Ġuse":882,"Ġcould":883,"ution":884,"Ġthen":885,"right":886,"Ġ9":887,"Ġac":888,"Ġsmall":889,"ĊĠĠĠĠĠĠĠĠĠĠĠĠĠĠĠ":890,"ient":891,"ĊĠĠĠĠĠ":892,"Ġagainst":893,"fer":894,"20":895,"000":896,"________":897,"Ġrequire":898,"type":899,"Ġrem":900,"Ġcom":901,"St":902,".,":903,"()":904,"ev":905,"Ġgovernment":906,"fig":907,"ues":908,"als":909,"Ġsub":910,"Ġperson":911,"ions":912,"Ġcontrol":913,"[@":914,"Ġbl":915,"cl":916,"lement":917,"Ġfe":918,"Ġinformation":919,"Ġsimilar":920,"ER":921,"ange":922,"Ġinclud":923,"ise":924,"ning":925,"Ġy":926,"ob":927,"Ġused":928,"ax":929,"Ġdirect":930,"\">":931,"duc":932,"Ġshe":933,"ime":934,"Ġfl":935,"ual":936,"ĠHe":937,"Ġdid":938,"Ġshow":939,"Ġatt":940,"Ġresults":941,"to":942,"Ġcaus":943,"Ġfurther":944,"red":945,"io":946,"tern":947,"ull":948,"Ġshould":949,"){":950,"Ġsur":951,"ection":952,"Ġcor":953,"Ġerr":954,"Ġspec":955,"Ġpotential":956,"Ġhim":957,"its":958,"ĠUniversity":959,"ĠUnited":960,"ren":961,"Ġdist":962,"Ġschool":963,"Ġresearch":964,"usepackage":965,"Ġestablish":966,"ower":967,"Ġfamily":968,"Ġcondition":969,"Ġavailable":970,"Category":971,"rop":972,"Ġusing":973,"Ġlife":974,"IN":975,"ood":976,"Ġsee":977,"Ġback":978,"inal":979,"15":980,"orm":981,"->":982,"Ġmost":983,"Ġ_":984,"ics":985,"ities":986,"str":987,"ruct":988,"mathcal":989,"Ġmajor":990,"cription":991,"rit":992,"Ġem":993,"ement":994,"Ġhealth":995,"alpha":996,"13":997,"Ġsince":998,"14":999,"Ġi":1000,"Ġend":1001,"Ġ.":1002,"ures":1003,"Ġanother":1004,"16":1005,")$":1006,"ox":1007,"Ġwell":1008,"urn":1009,"Ġfact":1010,"Ġenvironment":1011,"Ġpar":1012,"lic":1013,"oun":1014,"ven":1015,"ected":1016,"atch":1017,"Ġright":1018,"\"}":1019,"Ġenergy":1020,"pos":1021,"arg":1022,"Ġbusiness":1023,"Ġ[@":1024,"put":1025,"Ġalready":1026,"port":1027,"eta":1028,"Ġhow":1029,"Ġocc":1030,"Ġmechanism":1031,"rom":1032,"Ġdiscuss":1033,"]\\].":1034,"Ġcons":1035,"(\\":1036,"Ġassociated":1037,"aintiff":1038,"Ġgiven":1039,"ational":1040,"ograph":1041,"Ġclaim":1042,"Ġstat":1043,"ized":1044,"Ġprogram":1045,"Ġinf":1046,"Ġdifferent":1047,"Ġconst":1048,"Ġinst":1049,"Ġeach":1050,"Ġcase":1051,"Ġent":1052,"ined":1053,"Ġdoes":1054,"ON":1055,"Ġespecially":1056,"Ġ**":1057,"ants":1058,"ength":1059,"ically":1060,"etwork":1061,"ĠWh":1062,"ocument":1063,"par":1064,"Ġ200":1065,"air":1066,"alcul":1067,"Ġauth":1068,"und":1069,"imes":1070,"Ġte":1071,"sh":1072,"Ġdifficult":1073,"],":1074,"ee":1075,"Ġmonth":1076,"Ġdi":1077,"\":":1078,"Ġeven":1079,"ator":1080,"Ġmake":1081,"25":1082,"Ġ$$\\":1083,"Ġsuccess":1084,"Ġmin":1085,"yn":1086,"ata":1087,"Ġsuggest":1088,"Ġtreatment":1089,"ting":1090,"18":1091,"ects":1092,"elta":1093,"ins":1094,"Ġimportant":1095,"Ġ:":1096,"Ġobserv":1097,"Ġ@":1098,"over":1099,"Ġevery":1100,"val":1101,"))":1102,"****************":1103,"Ġwhether":1104,"ret":1105,"ĠĠĠĠĠĠĠĠĠĠĠĠĠĠ":1106,"Ġevidence":1107,"Ġwant":1108,"Ġtest":1109,"con":1110,"Ġke":1111,"Ġpos":1112,"...":1113,"Ġsame":1114,"Ġlimit":1115,"upp":1116,"17":1117,"ash":1118,"Ġway":1119,"_{\\":1120,"Ġcall":1121,"ute":1122,"Ġnow":1123,"rm":1124,"Ġfind":1125,"Ġparticular":1126,"Ġview":1127,"label":1128,"Ġet":1129,"Ġloc":1130,"ature":1131,"Ġdon":1132,"Ġvery":1133,"Ġthose":1134,"ave":1135,"Ġlong":1136,"Ġlook":1137,"Ġyears":1138,"yp":1139,"AT":1140,"Ġboth":1141,"~~~~~~~~~~~~~~~~~~~~~~~~~":1142,"Ġbu":1143,"ward":1144,"Ġtri":1145,"Ġdescrib":1146,"ason":1147,"cent":1148,"Ġ/":1149,"Ġbetter":1150,"ful":1151,"pr":1152,"ense":1153,"Ġhere":1154,"ict":1155,"ases":1156,"oid":1157,"ages":1158,"ines":1159,"Ġstr":1160,"Ġfound":1161,"Ġlarge":1162,"ared":1163,"32":1164,"Ġsimp":1165,"mathbb":1166,"Ġbeing":1167,"Ġbel":1168,"html":1169,"Ġ//":1170,"led":1171,"Ġclear":1172,"Ġmeasure":1173,"Ġcar":1174,"pro":1175,"Ġmultiple":1176,"Ġexper":1177,"cript":1178,"ich":1179,"ved":1180,"ok":1181,"Ġx":1182,"Ġmany":1183,"Ġmed":1184,"Ġcirc":1185,"left":1186,"the":1187,"ale":1188,"Ġplay":1189,"ES":1190,"ĠCom":1191,"Ġser":1192,"ng":1193,"Ġfil":1194,"Ġlittle":1195,"ments":1196,"50":1197,"âĢī":1198,"30":1199,"Ġeconom":1200,"Ġprivate":1201,"AR":1202,"Ġmem":1203,"It":1204,"let":1205,"ĠQ":1206,"?\"":1207,"Ġel":1208,"Ġhuman":1209,"of":1210,"::":1211,"ern":1212,"ole":1213,"Ġrepresent":1214,"aking":1215,"Ġpublic":1216,"ms":1217,"Ġquestion":1218,"yl":1219,"ner":1220,"sqrt":1221,"ik":1222,"igned":1223,"Ġthink":1224,"Ġhaving":1225,"min":1226,"Ġ12":1227,"ression":1228,"ible":1229,"ĊĠĠĠĠĠĠĠĠĠĠĠĠĠĠĠĠĠĠĠ":1230,"not":1231,"line":1232,"begin":1233,"Ġorgan":1234,"Ġext":1235,"set":1236,"Ġcorrespond":1237,"}{":1238,"ĠâĢĵ":1239,"duct":1240,"Ġbehavi":1241,"Ġgood":1242,"Ġins":1243,"Ġdown":1244,"cept":1245,"201":1246,"Ġval":1247,"ody":1248,"ĊĊĠĠĠ":1249,"ĠFor":1250,"ank":1251,"âĪĴ":1252,"Ġorder":1253,"Ġgu":1254,"day":1255,"amp":1256,"Ġbr":1257,"ively":1258,"Ġweek":1259,"ices":1260,"',":1261,"ĠLet":1262,"ually":1263,"We":1264,"Ġprevious":1265,"view":1266,"Ġalways":1267,"Ġgen":1268,"ness":1269,"Ġsol":1270,"Ġprovide":1271,"Ġstudy":1272,"Ġwhile":1273,"OR":1274,"Ġeither":1275,"24":1276,"Ġfr":1277,"ĠJohn":1278,"ĠÂ":1279,"NA":1280,"$,":1281,"Ġdemonstr":1282,"ĠThese":1283,"ld":1284,"Ġsingle":1285,"CR":1286,"Ġuntil":1287,"Ġsecond":1288,"af":1289,"Ġown":1290,"://":1291,"oy":1292,"ception":1293,"ĠCourt":1294,"way":1295,"Ġdep":1296,".âĢĿ":1297,"(\"":1298,"Ġrelationship":1299,",\\":1300,"Ġequ":1301,"ision":1302,"Ġmod":1303,"Ġhand":1304,"Ġchildren":1305,"Ġserv":1306,"Ġstate":1307,"Ġterm":1308,"Ġthree":1309,"man":1310,"Ġread":1311,"Ġseveral":1312,"Ġmet":1313,"Ġhigher":1314,"Ġname":1315,"Ġmaterial":1316,"ĠAl":1317,"ĠIf":1318,"ization":1319,"Ġunderstand":1320,"ality":1321,"Ġant":1322,"Ġwithout":1323,"ps":1324,"br":1325,"ton":1326,"80":1327,"ious":1328,"EN":1329,"Ġtarget":1330,"ency":1331,"ystem":1332,"ead":1333,"Ġnon":1334,"Ġapproach":1335,"Ġstandard":1336,",\"":1337,"any":1338,"ray":1339,"What":1340,"med":1341,"Ġresult":1342,"Ġtotal":1343,"000000":1344,"eck":1345,"Ġreceived":1346,"ĠĠĠĠĠĠĠĠĠĠĠĠĠĠĠĠĠĠĠĠĠĠĠĠĠĠĠĠĠĠĠĠĠĠĠĠĠĠĠĠĠĠĠĠĠĠĠĠĠĠĠĠĠĠĠĠĠĠĠĠĠĠĠĠĠĠĠĠĠĠĠĠĠĠĠĠĠĠĠĠĠĠĠĠĠĠĠĠĠĠĠĠĠĠĠĠĠĠĠĠĠĠĠĠĠĠĠĠĠĠĠĠĠĠĠĠĠĠĠĠĠĠĠĠĠĠĠĠĠĠĠĠĠĠĠĠĠĠĠĠĠĠĠĠĠĠĠĠĠĠĠĠĠĠĠĠĠĠĠĠĠĠĠĠĠĠĠĠĠĠĠĠĠĠĠĠĠĠĠĠĠĠĠĠĠĠĠĠĠĠĠĠĠĠĠĠĠĠĠĠĠĠĠĠĠĠĠĠĠĠĠĠĠĠĠĠĠĠĠĠĠĠĠĠĠĠĠĠĠĠĠĠĠĠĠĠĠĠĠĠĠĠĠĠĠĠĠĠĠĠĠĠĠĠĠĠĠĠĠĠĠĠĠĠĠĠĠĠĠĠĠĠĠĠĠĠĠĠĠĠĠĠĠĠĠĠĠĠĠĠĠĠĠĠĠĠĠĠĠĠĠĠĠĠĠĠĠĠĠĠĠĠĠĠĠĠĠĠĠĠĠĠĠĠĠĠĠĠĠĠĠĠĠĠĠĠĠĠĠĠĠĠĠĠĠĠĠĠĠĠĠĠĠĠĠĠĠĠĠĠĠĠĠĠĠĠĠĠĠĠĠĠĠĠĠĠĠĠĠĠĠĠĠĠ":1347,"$.":1348,"Ċĉĉĉ":1349,"Ġsign":1350,"Ġeffect":1351,"Ġcount":1352,"ences":1353,"ather":1354,"Ġperiod":1355,"IT":1356,"Ġ20":1357,"ains":1358,"ah":1359,"Ġstart":1360,"mathbf":1361,"Ġactiv":1362,"ource":1363,"ĠPro":1364,"Ġcre":1365,"ĠAnd":1366,"mission":1367,"ST":1368,"Ġinvestig":1369,"ists":1370,"Ġsl":1371,"ters":1372,"aining":1373,"22":1374,"ify":1375,"Ġreported":1376,"ump":1377,"Ġline":1378,"ouse":1379,"ĠAs":1380,"Ġwomen":1381,"Ã©":1382,"Ġcertain":1383,"Ġproper":1384,"ability":1385,"ww":1386,"Ex":1387,"ulation":1388,"Ġear":1389,"Ġperform":1390,"Ġpres":1391,"Ġparamet":1392,"Ġresponse":1393,"use":1394,"(-":1395,"ives":1396,"ism":1397,"Ċĉĉ":1398,"ĠTr":1399,"40":1400,"Ġlead":1401,"Ġsay":1402,"alk":1403,"atic":1404,"Ġlast":1405,"iqu":1406,"Ġoften":1407,"ĠBut":1408,"Wh":1409,"selves":1410,"arch":1411,"ention":1412,"Ġissue":1413,"ross":1414,"Ġoper":1415,"sc":1416,"Ġrun":1417,"Ġthough":1418,"ane":1419,"ames":1420,"amples":1421,"99":1422,"Ġmust":1423,"Ġz":1424,"Ġcap":1425,"ery":1426,"ependent":1427,"augh":1428,"Ġtake":1429,"Ġstill":1430,"Ġtype":1431,"ams":1432,"\\[":1433,"Ġbre":1434,"bl":1435,"Ġ,":1436,"Let":1437,"Ġcourse":1438,"Ġlaw":1439,"ron":1440,"Ġpur":1441,"Ġfriend":1442,"Ġwr":1443,"au":1444,"Ġlet":1445,"Ġmain":1446,"Ġpoint":1447,"ĠThere":1448,"ork":1449,"Ġbec":1450,"Ġ15":1451,"itive":1452,"ration":1453,"ann":1454,"por":1455,"Ġconf":1456,"Ġmarket":1457,"23":1458,"ule":1459,"Ġcent":1460,"Ġrisk":1461,"Ġexpl":1462,"eb":1463,"AN":1464,"ources":1465,"action":1466,"Ġnecessary":1467,"ots":1468,"ral":1469,"();":1470,"ech":1471,"Ġday":1472,"wh":1473,"AL":1474,"ade":1475,"ination":1476,"ier":1477,"Ġmicro":1478,"Ch":1479,"ospital":1480,"Ġaccording":1481,"60":1482,"ced":1483,"land":1484,"ĠAn":1485,"âĢľ":1486,"name":1487,"Ġanswer":1488,"64":1489,"be":1490,"Ġprobably":1491,"Ġfin":1492,"ium":1493,"arm":1494,"sigma":1495,"200":1496,"lection":1497,"eth":1498,"Ġpublished":1499,"ouble":1500,"ĠEurope":1501,"Fig":1502,"def":1503,"ology":1504,"Ġpost":1505,"Ġed":1506,"Ġpat":1507,"az":1508,"ccording":1509,"dd":1510,"eral":1511,"33":1512,"Ġmoney":1513,"ained":1514,"Ġprotein":1515,"Ġcr":1516,"Ġtemperature":1517,"co":1518,"agn":1519,"Ġchanges":1520,"Ġident":1521,"].":1522,"Ġstructure":1523,"Ġcell":1524,"ĠYou":1525,"Ġref":1526,"els":1527,"ience":1528,"for":1529,"Ġ18":1530,"lex":1531,"Ġbenef":1532,"Ġtogether":1533,"Ġcontinu":1534,"Ġaff":1535,"Ġelect":1536,"oot":1537,"ĠĠĠĠĠĠ":1538,"hibit":1539,"âĢĵ":1540,"Ġoutside":1541,"This":1542,"ily":1543,"Ġinc":1544,"Ġthird":1545,"Ġprot":1546,"Ġfollowing":1547,"Ġderiv":1548,"duction":1549,"Ġparticip":1550,"ĊĠĠ":1551,"ãģ":1552,"ĠNew":1553,"ately":1554,"ĠSh":1555,")\\":1556,"27":1557,"CT":1558,"Ġallow":1559,"../../":1560,"Ġdeterm":1561,"Ġdisease":1562,"---":1563,"Ġsatisf":1564,"ote":1565,"Ġgoing":1566,"atter":1567,"ets":1568,"Ġsupp":1569,"Ġlanguage":1570,"ID":1571,"text":1572,"ars":1573,"Ġsumm":1574,"Ġestim":1575,"varepsilon":1576,"View":1577,"oup":1578,"}(":1579,"Ġ#":1580,"ural":1581,"ied":1582,"Ġsocial":1583,"Ġwithin":1584,"Ġreal":1585,"28":1586,"Ġ*/":1587,"Ġapproxim":1588,"Ġaround":1589,"Ġcare":1590,"37":1591,"Ġfrequ":1592,"ool":1593,"Ġnormal":1594,"oci":1595,"Ġjudgment":1596,"http":1597,"Ġpoints":1598,"35":1599,"Ġdrug":1600,"Ġself":1601,"Ġdefendant":1602,"Ġprior":1603,"ott":1604,"Ġversion":1605,"Ġothers":1606,"ject":1607,"akes":1608,"$$":1609,"SE":1610,"Ġ</":1611,"bers":1612,"Ġhappen":1613,"oss":1614,"Ġviol":1615,"ĠCalifornia":1616,"Ġrecommend":1617,"Ġ14":1618,"ĠAr":1619,"Ġaddition":1620,"Ġsurface":1621,"'m":1622,"Ġpass":1623,"ĠX":1624,"Ġadv":1625,"âĢĶ":1626,"Pro":1627,"Ġfocus":1628,"Ġmillion":1629,"Ġrest":1630,"less":1631,"su":1632,",âĢĿ":1633,"Ġopen":1634,"Ġgreat":1635,"orth":1636,"Ġlikely":1637,"duced":1638,"Ġarg":1639,"read":1640,"Ġpower":1641,"Ġinitial":1642,"igh":1643,"Ġbas":1644,"LE":1645,"Ġincluding":1646,"Ġfield":1647,"gen":1648,"34":1649,"gamma":1650,"Ġtry":1651,"cont":1652,"Ġexample":1653,"Ġcancer":1654,"ĠSp":1655,"we":1656,"ĠâĢĶ":1657,"rho":1658,"ember":1659,"Ġfalse":1660,"Ġlist":1661,"inc":1662,"son":1663,"ĠZ":1664,"ently":1665,"ush":1666,"Ġcommun":1667,"ury":1668,"Ġevalu":1669,"var":1670,"Ġmight":1671,"Ġmean":1672,"tic":1673,"fficient":1674,"Ġtaken":1675,"Ġtoo":1676,"90":1677,"26":1678,"Ġhead":1679,"Ġdel":1680,"rel":1681,"sec":1682,"lobal":1683,"atrix":1684,"Ġfuture":1685,"RE":1686,"You":1687,"ĠIs":1688,"Ġ16":1689,"ĊĊĠ":1690,"ger":1691,"Ġreally":1692,"Ġapplication":1693,"ĠĠĠĠĠĠĠ":1694,"lease":1695,"ĠThey":1696,"Ġless":1697,"Ġvehic":1698,"eed":1699,"by":1700,"reen":1701,"ĠHowever":1702,"oint":1703,"Ġsoftware":1704,"36":1705,"^{\\":1706,"ĠEx":1707,"Ġlo":1708,"equ":1709,"Ġbelieve":1710,"org":1711,"38":1712,"Ġanaly":1713,"Ġfac":1714,"omega":1715,"75":1716,"att":1717,"rem":1718,"Ġpop":1719,"Ġcontr":1720,"Ġ{#":1721,"ĠAfter":1722,"Ġimmun":1723,"Ġvis":1724,"Ġdisc":1725,"Ġblood":1726,"Ġdev":1727,"Ġbased":1728,"part":1729,"29":1730,"ety":1731,"ĠPh":1732,"Ġrespect":1733,"Ġ\\[":1734,"05":1735,"self":1736,"Ġfile":1737,"div":1738,"vent":1739,"vert":1740,"Ġfew":1741,"Ġrequ":1742,"Ġsitu":1743,"roll":1744,"21":1745,"ests":1746,"Ġlow":1747,"Ġtop":1748,"etic":1749,"Ġaction":1750,"Ġhome":1751,"rap":1752,"IC":1753,"ĠSo":1754,"Ġgrow":1755,"osed":1756,"Ġplace":1757,"rict":1758,"'re":1759,"epsilon":1760,"AS":1761,"ĠChrist":1762,"thing":1763,"('":1764,"Ġhalf":1765,"Ġpath":1766,"reg":1767,"Ġminutes":1768,"Ġleft":1769,"Ġindic":1770,"Ġbest":1771,"lev":1772,"ror":1773,"ĠUn":1774,"ised":1775,"fore":1776,"ĠNo":1777,"leg":1778,"ĠOn":1779,"Ġnext":1780,"Ġfour":1781,"==":1782,"Ġpsych":1783,"Ġchallen":1784,"45":1785,"čĊč":1786,"Ġessential":1787,"ĠApp":1788,"Ġcommon":1789,"add":1790,"ey":1791,"Con":1792,"Ġinterest":1793,"riv":1794,"ĠCon":1795,"oll":1796,"ems":1797,"Ġhistory":1798,"Ġput":1799,"orts":1800,"ope":1801,"Ġchange":1802,"95":1803,"Ġasked":1804,"ited":1805,"iver":1806,"Ġbo":1807,"ification":1808,")/":1809,"Ġleg":1810,"ĠWhat":1811,"ĠDepartment":1812,"},":1813,"Ġcustom":1814,"Ġfail":1815,"Ġconn":1816,"include":1817,"iving":1818,"70":1819,"opy":1820,"Ġ30":1821,"Ġimprove":1822,"lu":1823,"Ġrecord":1824,"Ġhydro":1825,"ĠTHE":1826,"Ġob":1827,"Ġprof":1828,"Ġret":1829,"Ġhours":1830,"eter":1831,"Ġnever":1832,"Ġinvol":1833,"Ġpaper":1834,"Ġcampaign":1835,"ĠAt":1836,"ired":1837,"itch":1838,"Ġbeg":1839,"raw":1840,"Ġ11":1841,"Ġnothing":1842,"AC":1843,"Ġlight":1844,"Ġalmost":1845,"Ġissues":1846,"ession":1847,"Com":1848,"Ġcorrect":1849,"ension":1850,"Cont":1851,"mu":1852,"ault":1853,"Ġabove":1854,"new":1855,"ĠPl":1856,"Ġheld":1857,"ateg":1858,"Ġwater":1859,"Ġeas":1860,"function":1861,"Ġstrength":1862,"infty":1863,"ene":1864,"Ġachie":1865,"To":1866,"eal":1867,"ED":1868,"Ġofficial":1869,"Ġreason":1870,"Ġtrue":1871,"IS":1872,"ĠInd":1873,"Ġu":1874,"ending":1875,"Ġmo":1876,"ream":1877,"uth":1878,"Ġsk":1879,"Ġlocal":1880,"Omega":1881,"cess":1882,"Ġpossible":1883,"Ġidea":1884,"ĠCl":1885,"Ġconcern":1886,"Ġsymptoms":1887,"Ġsm":1888,"Ġleast":1889,"):":1890,"48":1891,"ister":1892,"ymbol":1893,"urs":1894,"arn":1895,"Ġdr":1896,"Ġsize":1897,"Value":1898,"Ġthings":1899,"Ġdivided":1900,"Ġposition":1901,"ĠAll":1902,"aps":1903,"ĠSc":1904,"Ġcy":1905,"ask":1906,"Ġcome":1907,"Ġpay":1908,"Ġrefer":1909,"Ġdue":1910,"Ġnucle":1911,"ats":1912,"Ġdisplay":1913,"ances":1914,"ĠJanuary":1915,"Name":1916,"Ġtyp":1917,"ĠUS":1918,"=\\":1919,"outh":1920,"Ġbi":1921,"urrent":1922,"pi":1923,"erg":1924,"Ġ17":1925,"Ġdistribution":1926,"}^{":1927,"uck":1928,"Ġrecogn":1929,"Ġappropriate":1930,"As":1931,"ĠĠĠĠĠĠĠĠĠĠĠĠĠ":1932,"ules":1933,"}_":1934,"__":1935,"Id":1936,"acy":1937,"Ġaverage":1938,"Ġbig":1939,"Ġpolicy":1940,"Ġclinical":1941,"idth":1942,"Ġmanufact":1943,"Ġfree":1944,"39":1945,"AP":1946,"Ġelse":1947,"Ġgot":1948,"Ġoriginal":1949,"span":1950,"ĠTo":1951,"ological":1952,"Ġ{\\":1953,"ĠFurthermore":1954,"omet":1955,"back":1956,"imal":1957,"Ġdays":1958,"Tr":1959,"Ġgive":1960,"Ġbuild":1961,"Ġmoment":1962,"ina":1963,"though":1964,"}$$":1965,"];":1966,"Ġ25":1967,"clusion":1968,"Ġwords":1969,"col":1970,"Ġshown":1971,"Ġprom":1972,"data":1973,"ĊĠĠĠĠĠĠĠĠĠ":1974,"Ġbro":1975,"Lambda":1976,"RO":1977,"Ġturn":1978,"}_{":1979,"Ġproducts":1980,"mitted":1981,"Ġsw":1982,"Ġexperiment":1983,"Ġkeep":1984,"Ġtrial":1985,"Ġ!=":1986,"ributed":1987,"Ġmon":1988,"!\"":1989,"ecause":1990,"Type":1991,"Ġelement":1992,"Ġproperties":1993,"Ġreplac":1994,"Ġgame":1995,"Ġden":1996,"nal":1997,"atory":1998,"Ġcomplete":1999,"65":2000,"Ġ)":2001,"44":2002,"angle":2003,"bar":2004,"ait":2005,"Ġcost":2006,"ior":2007,"If":2008,"ered":2009,"gg":2010,"Ġexpression":2011,"ĠĠĠĠĠĠĠĠ":2012,"88":2013,"mod":2014,"ides":2015,"Ġsequence":2016,"ector":2017,"Ġfeel":2018,"iddle":2019,"Ġpolitical":2020,"](":2021,"Ġknown":2022,"emocr":2023,"Ġagain":2024,"Ġcalled":2025,"aff":2026,"Ġmilitary":2027,"Ġmolec":2028,"Ġsubstantial":2029,"Ġmot":2030,"Ġ--":2031,"ended":2032,"ĠFr":2033,"Ġcounsel":2034,"Ġpressure":2035,"uss":2036,"uff":2037,"arent":2038,"yle":2039,"sum":2040,"Ġcode":2041,"erc":2042,"100":2043,"Ġ==":2044,"Ġdirection":2045,"aligned":2046,"cle":2047,"ĠState":2048,"ital":2049,"duce":2050,"Ġcur":2051,"Ġcomb":2052,"Ġphysical":2053,"Ġgeneral":2054,"Ġla":2055,"Ġprimary":2056,"itle":2057,"Ġfeatures":2058,"Ġaut":2059,"LL":2060,"ĠGr":2061,"Ġalgorith":2062,"But":2063,"Ġwon":2064,"Ġpred":2065,"Ġincreasing":2066,"Ġrad":2067,"ION":2068,"ĠOctober":2069,"Ġ13":2070,"ĠSeptember":2071,"Ġteam":2072,"ĠRes":2073,"96":2074,"ĠShe":2075,"pm":2076,"ries":2077,"Ġadminist":2078,"Ġcases":2079,"Ġrandom":2080,"Ġparents":2081,"^{-":2082,"Ġvol":2083,"ĊĊĠĠĠĠĠĠĠ":2084,"98":2085,"Ġspecific":2086,"ruction":2087,"hip":2088,"Ġplan":2089,"Ġ100":2090,"Ġmeans":2091,"ison":2092,"oper":2093,"Ġobject":2094,"Ġbeautiful":2095,"ape":2096,"Ġsusp":2097,"Ġable":2098,"Ġpe":2099,"Ġvalues":2100,"ET":2101,"ther":2102,"97":2103,"Ġ%":2104,"For":2105,"And":2106,"essage":2107,"itude":2108,"so":2109,"Ġtimes":2110,"indow":2111,"import":2112,"mon":2113,"Ġweeks":2114,"ĠLicense":2115,"ayer":2116,"Ġstudies":2117,"Ġsuper":2118,"key":2119,"pon":2120,"class":2121,"Ġinj":2122,"String":2123,"ĢâĶĢâĶĢâĶĢâĶĢâĶĢâĶĢâĶĢâĶ":2124,"Ġarea":2125,"ands":2126,"ressed":2127,"phi":2128,"chem":2129,"Ġquestions":2130,"ser":2131,"aring":2132,"Ġrevealed":2133,"ĠNovember":2134,"Ġside":2135,"pone":2136,"ĠThat":2137,"Ġhard":2138,"void":2139,"ured":2140,"Ġkey":2141,"fr":2142,"Ġbody":2143,"widetilde":2144,"Ġabs":2145,"67":2146,"jects":2147,"Ġ24":2148,"this":2149,"lected":2150,"Ġappear":2151,"ites":2152,"Ġcho":2153,"'ve":2154,"He":2155,"ored":2156,"Ġneg":2157,"Ġrate":2158,"Ġfull":2159,"Ġnatural":2160,"Ġmaximum":2161,"Ġmove":2162,"AD":2163,"OU":2164,"Ġimmediately":2165,"ney":2166,"log":2167,"ĠĠĠĠĠĠĠĠĠ":2168,"Ġwhy":2169,"ĠStates":2170,"Ġcontinue":2171,"ĠWashington":2172,"uring":2173,"string":2174,"Ġ>":2175,"Ġgreater":2176,"Ġopportun":2177,"Ġbehind":2178,"Ġjurisdiction":2179,"ising":2180,"Ġknowledge":2181,"Ġvideo":2182,"aces":2183,"Ġlater":2184,"Ġerror":2185,"04":2186,"plic":2187,"Ġnum":2188,"Ġreview":2189,"ince":2190,"Ġexist":2191,"ĠSuppose":2192,"Ġnear":2193,"tilde":2194,"Ġmen":2195,"ici":2196,"ĊĠĠĠĠĠĠĠĠĠĠĠĠĠĠĠĠĠĠĠĠĠĠĠĠĠĠĠĠĠĠ":2197,"})":2198,"Res":2199,"_\\":2200,"68":2201,"Ġcrit":2202,"ling":2203,"Ġapplied":2204,"Ġhold":2205,"ler":2206,"orn":2207,"Ġinteg":2208,"><":2209,"Ġlot":2210,"ables":2211,"Ġfar":2212,"ume":2213,"fl":2214,"enn":2215,"ends":2216,"ĠWhen":2217,"ift":2218,"AM":2219,"time":2220,"31":2221,"Ġsure":2222,"ari":2223,"oph":2224,"mit":2225,"Ġamong":2226,"ering":2227,"94":2228,"Ġaccess":2229,"Ġfinal":2230,"order":2231,"ĠPresident":2232,"77":2233,"Ġattempt":2234,"Ġlevels":2235,"55":2236,"Ġstrong":2237,"Un":2238,"Ġpract":2239,"de":2240,"Ġdidn":2241,"Ġchar":2242,"Ġarticle":2243,"Ġsent":2244,"Ġshort":2245,"Ġfavor":2246,"}^":2247,"Ġ`":2248,"Ġalong":2249,"Ġspace":2250,"Ġcolumn":2251,"Ġpercent":2252,"cdot":2253,"itor":2254,"Ġmass":2255,"ators":2256,"ivity":2257,"Ġtre":2258,"Ġdri":2259,"Ġwritten":2260,"return":2261,"ids":2262,"Ġ=>":2263,"ounds":2264,"{{\\":2265,"ĠObama":2266,"table":2267,"irst":2268,"ĠCol":2269,"Ġfamil":2270,"Ġdone":2271,"Ġlab":2272,"Ġaway":2273,"ĠCounty":2274,"fo":2275,"Ġdom":2276,"Ġsays":2277,"Ġsecurity":2278,"olution":2279,"Ġdatabase":2280,"Ġrequired":2281,"oin":2282,"Ġclean":2283,"Ar":2284,"ique":2285,"Ġmov":2286,"II":2287,"sequ":2288,"Ġlower":2289,"ĠRe":2290,"ĠFebruary":2291,"Ġdevelopment":2292,"Ġdesign":2293,"ĠOr":2294,"Ġid":2295,"Ġage":2296,"------------------":2297,"66":2298,"oogle":2299,"Ġterms":2300,"ley":2301,"'ll":2302,"On":2303,"Ġvir":2304,"osis":2305,"Ġgl":2306,"Ġair":2307,"ĠWorld":2308,"ava":2309,"ING":2310,"Ġactivity":2311,"Ġ${\\":2312,"Ġgraph":2313,"ĠAd":2314,"Ġhowever":2315,"Ġstep":2316,"Ġ50":2317,"load":2318,"List":2319,"Ġargument":2320,"aster":2321,"Ġold":2322,"Ġreport":2323,"Suppose":2324,"âķĲâķĲâķĲâķĲâķĲâķĲâķĲâķĲâķĲâķĲâķĲâķĲâķĲâķĲâķĲâķĲ":2325,"\")":2326,"Ġdynam":2327,"Ġwar":2328,"Ġsens":2329,"iff":2330,"Ġgroups":2331,"ĠCo":2332,"Cl":2333,"Ġmanag":2334,"beta":2335,"]\\]":2336,"Ġlog":2337,"ung":2338,"Ġtell":2339,"CH":2340,"bo":2341,"Ġgirl":2342,"amm":2343,"Ġthing":2344,"Ġproposed":2345,"ought":2346,"eq":2347,"ĠĠĠĠĠĠĠĠĠĠĠ":2348,"Ġagreement":2349,"oddsidemargin":2350,"td":2351,"Ġevent":2352,"Ġenc":2353,"Ġcover":2354,"An":2355,"Ġcheck":2356,"eople":2357,"box":2358,"Ġtold":2359,"Ġpast":2360,"85":2361,"Ġenough":2362,"Ġtem":2363,"stit":2364,"arrow":2365,"Ġfund":2366,"utions":2367,"aint":2368,"ales":2369,"ĠEnglish":2370,"ories":2371,"IG":2372,"Ġcompared":2373,"Ġtestimony":2374,"OT":2375,"Ġfederal":2376,"date":2377,"ably":2378,"Ġexc":2379,"-\\":2380,"Ġkind":2381,"Ġpurpose":2382,"Ġfood":2383,"Ġpiec":2384,"ĠSch":2385,"Is":2386,"Ġeng":2387,"Ġfore":2388,"DE":2389,"Ġinclude":2390,"Sh":2391,"off":2392,"Ġnetworks":2393,"ores":2394,"Ġmaking":2395,"ival":2396,"Ġdensity":2397,"umber":2398,"Ġconditions":2399,"\\_":2400,"AG":2401,"Ġstring":2402,"figuration":2403,"Ġprovided":2404,"ves":2405,"Ġworking":2406,"></":2407,"Ġann":2408,"Ġpretty":2409,"Ġrole":2410,"Ġrece":2411,"ĠRep":2412,"Ġdegree":2413,"Ġauthor":2414,"Ġeffects":2415,"ĠFlorida":2416,"ai":2417,"Ð¾Ð":2418,"Ġvoid":2419,"Error":2420,"Ġfinancial":2421,"âĢ¦":2422,"ĠÃ":2423,"Ġrespons":2424,"Ġsim":2425,"ails":2426,"Ġ([@":2427,"Ġrange":2428,"Ġincrease":2429,"Ġtax":2430,"47":2431,"Ġstop":2432,"ml":2433,"vention":2434,"ĠâĢĺ":2435,"]).":2436,"Ġcomponent":2437,"Ġseen":2438,"Ġsection":2439,"Ġwoman":2440,"ife":2441,"Ġcomput":2442,"Ġupon":2443,"Al":2444,"Ġproteins":2445,"Ġtradition":2446,"ĠMar":2447,"Ġbackground":2448,"Ġdoesn":2449,"ibr":2450,"Ġlarg":2451,"69":2452,"ymmet":2453,"Ġ([":2454,"Gamma":2455,"Ġpack":2456,"mm":2457,"ĠJune":2458,"unch":2459,"Ġtext":2460,"Ġperfect":2461,"Ġopt":2462,"ĠGeneral":2463,"Ġbecome":2464,"Ġbase":2465,"istic":2466,"Ġincreased":2467,"Ġfactors":2468,"Ġbook":2469,"Ġhyper":2470,"ĠJapan":2471,"Ġcannot":2472,"ges":2473,"App":2474,"Ġproperty":2475,"www":2476,"Ġcountry":2477,"Ġsepar":2478,"There":2479,"ĠAss":2480,"Ġmor":2481,"Ġphot":2482,"Ġregard":2483,"Ġcomponents":2484,"Ġcircumstances":2485,"Ġobserved":2486,"02":2487,"cc":2488,"Ġmult":2489,"Ġcomplex":2490,"ĠÎ":2491,"Ġsource":2492,"Ġcult":2493,"At":2494,"head":2495,"Ġtalk":2496,"Ġflu":2497,"Ġcompanies":2498,"Ġacknowled":2499,"Ġuseful":2500,"Col":2501,"Ġrequires":2502,"Ġimage":2503,"Ġservice":2504,"ĠSee":2505,"ental":2506,"\"/>":2507,"Ġlove":2508,"upplementary":2509,"isc":2510,"Ġearly":2511,"ĠHealth":2512,"value":2513,"Ġbit":2514,"Ġred":2515,"Ġproceed":2516,"Ġmiss":2517,"Ph":2518,"%)":2519,"Ġconduct":2520,"Ġfixed":2521,"Ġdeath":2522,"mathrm":2523,"roid":2524,"Ġmonths":2525,"\"}).":2526,"file":2527,"Ġtown":2528,"Ġorigin":2529,"ware":2530,"Ġdoing":2531,"Ġcandid":2532,"rec":2533,"Ġcreate":2534,"Ġthought":2535,"Ġeducation":2536,"Ġspecial":2537,"Ġindustry":2538,"08":2539,"ished":2540,"ĠAN":2541,"esc":2542,"ĠApril":2543,"ensive":2544,"inter":2545,"Ġmeet":2546,"Ġep":2547,"Ġcontent":2548,"Ġprob":2549,"ipp":2550,"Ġratio":2551,"ĠWednesday":2552,"Ġcalcul":2553,"iles":2554,"Ġeyes":2555,"ãĤ":2556,"Ġdescribed":2557,"ij":2558,"78":2559,"mp":2560,"Ġpositive":2561,"known":2562,")*":2563,"Ġregion":2564,"Ġcompletely":2565,"Ġenjoy":2566,"Ġcompany":2567,"Ġtumor":2568,"ĠPr":2569,"No":2570,"ĠJuly":2571,"ĠIN":2572,"Ġseason":2573,"unt":2574,"Ġuser":2575,"Ġq":2576,"Ġactually":2577,"ĠLe":2578,"Ġearlier":2579,"Ġneighb":2580,"Data":2581,"ĠCanad":2582,"Ġacross":2583,"inary":2584,"ĠCircuit":2585,"Ġdeb":2586,"irm":2587,"Ġfootball":2588,"ried":2589,"Ġroom":2590,"Ġbreak":2591,"Ġdefinition":2592,"CC":2593,"Ġspe":2594,"ĠBl":2595,"AB":2596,"Ġpick":2597,"icrosoft":2598,"Ġquant":2599,"Ġchild":2600,"Ġsignal":2601,"Ġrather":2602,"Ġonce":2603,"ĠBr":2604,"iter":2605,"ĠĠĠĠĠĠĠĠĠĠĠĠĠĠĠĠĠĠĠĠĠĠĠĠĠĠĠĠĠĠĠĠĠĠĠĠĠĠĠĠĠĠĠĠĠĠĠĠĠĠĠĠĠĠĠĠĠĠĠĠĠĠĠĠĠĠĠĠĠĠĠĠĠĠĠĠĠĠĠĠĠĠĠĠĠĠĠĠĠĠĠĠĠĠĠĠ":2606,"ese":2607,"Ġhouse":2608,"Ġexecut":2609,"Ġmatter":2610,"Ġsaf":2611,"Ġamount":2612,"Ġreasons":2613,"ĠÐ":2614,"Ġbar":2615,"amework":2616,"lim":2617,"FF":2618,"ĠSec":2619,"ÂłÂłÂłÂłÂłÂł":2620,")(":2621,"Ġfive":2622,"Ġbelow":2623,"Ġcame":2624,"Ġrelevant":2625,"\");":2626,"Ġcut":2627,"Ġdam":2628,"ĠAmerican":2629,"OS":2630,"ache":2631,"Ġopinion":2632,"ĠSupreme":2633,"Ġshowed":2634,"ogen":2635,"ĠMr":2636,"Ġlearning":2637,"86":2638,"Ġart":2639,"MP":2640,"no":2641,"+\\":2642,"bit":2643,"Ġmembers":2644,"ivers":2645,"Ġmar":2646,"ple":2647,"Ġshows":2648,"09":2649,"Ġfactor":2650,"bib":2651,"den":2652,"Ġperformed":2653,"Ġsystems":2654,"Ġbuilt":2655,"Ġreach":2656,"ective":2657,"Ġsite":2658,"Ġadjust":2659,"Ġfelt":2660,"verse":2661,"Ġtook":2662,"Ġwriting":2663,"Ġaccount":2664,".)":2665,"Ġproject":2666,"Ġcoupl":2667,"Ġdem":2668,"001":2669,"ĠĠĠĠĠĠĠĠĠĠĠĠĠĠĠĠĠ":2670,"theta":2671,"$\\":2672,"resh":2673,"ĠGod":2674,"Ġweight":2675,"Ġdoubt":2676,"ĠFig":2677,"Ġmakes":2678,"}{\\":2679,"olic":2680,"year":2681,"Ġexperience":2682,"So":2683,"onal":2684,"Ġproduct":2685,"irect":2686,"Ġvarious":2687,"ĠMay":2688,"Ġobtained":2689,":**":2690,"ino":2691,"Ġmus":2692,"yd":2693,"Ġra":2694,"Ġbeyond":2695,"ones":2696,"Ġchanged":2697,"Ġwhole":2698,"ibility":2699,"Ġcounter":2700,"ĠIsrael":2701,"Ġnecessarily":2702,"Ġdecre":2703,"Ġhom":2704,"ously":2705,"Ġnight":2706,"Ġcause":2707,"Ġcontrib":2708,"anch":2709,"Ġdeal":2710,"test":2711,"Ġdiv":2712,"Ġprincip":2713,"ĠAm":2714,"Ġwebsite":2715,"Ġbirth":2716,"Ġyoung":2717,"exp":2718,"Ġinterpret":2719,"Ġever":2720,"Ġrelated":2721,"Ġ(*":2722,"Ġspect":2723,"ender":2724,"Ġtherapy":2725,"Ġutil":2726,"ving":2727,"ĠBe":2728,"OP":2729,"cy":2730,"84":2731,"Ġtowards":2732,"Ġanalyses":2733,"Ġhttp":2734,"Ġconsidered":2735,"74":2736,"illed":2737,"Ġdoc":2738,"Ġclos":2739,"ĠOne":2740,"ĠAugust":2741,"Ġdecided":2742,"Ġyet":2743,"ero":2744,"Ġadded":2745,"Ġoccur":2746,"Ġloss":2747,"Ġfully":2748,"ĠDistrict":2749,"Ġver":2750,"Ġexperiments":2751,"see":2752,"Ġblock":2753,"ouncil":2754,"CL":2755,"Ġaddress":2756,"Ġtouch":2757,"Ġdefined":2758,"Ġprogress":2759,"03":2760,"ĠSu":2761,"Ġwrote":2762,"Ġconcentrations":2763,"ĠWith":2764,"atus":2765,"me":2766,"delta":2767,"boldsymbol":2768,"Ġstates":2769,"![":2770,"'d":2771,"code":2772,"Ġcouple":2773,"ĠCent":2774,"After":2775,"ĠThen":2776,"Ġbinding":2777,"param":2778,"TH":2779,"Ġsynth":2780,"Ġexactly":2781,"Ġwent":2782,"Ġâ":2783,"Ġsolution":2784,"Ġconsist":2785,"Ġmitochondri":2786,"iation":2787,"ocal":2788,"Ġcross":2789,"Ġconcentration":2790,"Ġmut":2791,"Ġtissue":2792,"Ġillustr":2793,"Ġsex":2794,"US":2795,"top":2796,"Ġland":2797,"Ġ$(":2798,"Figure":2799,"la":2800,"ĠCar":2801,"Ġnull":2802,"rip":2803,"big":2804,"rc":2805,"esis":2806,"reed":2807,"Ġassess":2808,"Ġmix":2809,"07":2810,"Ġseem":2811,"ards":2812,"ulated":2813,"Ġstruct":2814,"iate":2815,"87":2816,"IL":2817,"ĠDecember":2818,"Ġcommunity":2819,"Ġinternational":2820,"Ġ\\\\":2821,"93":2822,"rol":2823,"Ġarrest":2824,"Ġsubject":2825,"ged":2826,"older":2827,"ĠMichael":2828,"Ġdecision":2829,"Ġmaint":2830,"Sp":2831,"54":2832,"raft":2833,"Ġdevice":2834,"Ġexam":2835,"Ġincluded":2836,"TR":2837,"ĠĠĠĠĠĠĠĠĠĠĠĠ":2838,"Ġmind":2839,"')":2840,"iction":2841,"By":2842,"/*":2843,"Ġsearch":2844,"Ġtravel":2845,"IM":2846,"ĠĊ":2847,"57":2848,"emb":2849,"Ġmagn":2850,"Ġpers":2851,"ining":2852,"Ġtrying":2853,"tes":2854,"Ġcity":2855,"body":2856,"Ġrequest":2857,"alt":2858,"face":2859,"Ġapplications":2860,"ternal":2861,"Ġnetwork":2862,"Ġbecomes":2863,"material":2864,"Ġdig":2865,"Ġtoday":2866,"}}\\":2867,"ĠAfric":2868,"Ġmatch":2869,"ener":2870,"92":2871,"ĠPat":2872,"leq":2873,"aging":2874,"bf":2875,"Ġextr":2876,"Ġbill":2877,"ĠAct":2878,"Ġlink":2879,"Ċĉĉĉĉ":2880,"Ġsignificantly":2881,"used":2882,"izing":2883,"size":2884,"CO":2885,"uk":2886,"ike":2887,"rew":2888,"Ġreleased":2889,"ĠMed":2890,"etition":2891,"Ġclose":2892,"ĠSe":2893,"Ġrespectively":2894,"xi":2895,"Ġotherwise":2896,"*,":2897,"Ġsix":2898,"^\\":2899,"Ġdaily":2900,"Ġur":2901,"my":2902,"Ġ},":2903,"Ġadditional":2904,"~~~":2905,"itting":2906,"UR":2907,"lying":2908,"Ġentire":2909,"ĠMore":2910,"Ġalcohol":2911,"mer":2912,"Ġimplement":2913,"oh":2914,"Ġpaid":2915,"Ġinfluence":2916,"ĠFacebook":2917,"Ġanything":2918,"Ġface":2919,"ider":2920,"42":2921,"go":2922,"+-+-+-+-+-+-+-+-+-+-+-+-+-+-+-+-+":2923,"Ġhref":2924,"Ġir":2925,"Ġphosph":2926,"asc":2927,"Ġbring":2928,"Ġhusband":2929,"En":2930,"odes":2931,"ises":2932,"Ġcelebr":2933,"ief":2934,"Ġtable":2935,"Ġlength":2936,"partial":2937,"Ġflow":2938,"Ġrelatively":2939,"ips":2940,"ĠMy":2941,"Ġsleep":2942,"Ġpatient":2943,"Ġtw":2944,"06":2945,"actions":2946,"Ġsometimes":2947,"Ġflo":2948,"Ġhundred":2949,"Refer":2950,"Ġresistance":2951,"Ġensure":2952,"ck":2953,"89":2954,"ĠCommittee":2955,"Ġseries":2956,"Ġneeds":2957,"IV":2958,"PE":2959,"ĠÂ§":2960,"Ġgetting":2961,"aged":2962,"net":2963,"],[@":2964,"$-":2965,"Ġquickly":2966,"Ġbound":2967,"Ġgrowth":2968,"Ġ||":2969,"other":2970,"Ġfigure":2971,"-------------------------------------------------------------------------------------------------------------------------------------------------------------------------------------------------------------------------------------------------------------------------------------------------------------":2972,"IR":2973,"tor":2974,"mathfrak":2975,"struct":2976,"Ġmark":2977,"Manager":2978,"Ġalleged":2979,"Ġsimple":2980,"SS":2981,"Ġvictim":2982,"Ġportion":2983,"operatorname":2984,"Ġ21":2985,"Ġmyself":2986,"Ġvia":2987,"na":2988,"ervice":2989,"ults":2990,"Ġwin":2991,"Ġdifference":2992,"ĠAustral":2993,"ãĥ":2994,"based":2995,"Ġlooking":2996,"46":2997,"Ġmethods":2998,"ops":2999,"Ġsubs":3000,"ram":3001,"ilities":3002,"Ġanti":3003,"Ġattack":3004,"Ġthus":3005,"Ġvar":3006,"nu":3007,"Ġprocedure":3008,"atur":3009,"56":3010,"position":3011,"False":3012,"Ġintro":3013,"])":3014,"ĠBy":3015,"ĠCont":3016,"Ġproblems":3017,"atal":3018,"Ġparty":3019,"Ġbrief":3020,"define":3021,"xy":3022,"Ġtherefore":3023,"43":3024,"ĠInc":3025,"Ġnearest":3026,"Ġinvolved":3027,"ENT":3028,"Get":3029,"+++++++++++++++++++++++":3030,"Ġservices":3031,"IP":3032,"uments":3033,"Ġaccept":3034,"|---|---":3035,"comp":3036,"Table":3037,"document":3038,"91":3039,"ference":3040,"ication":3041,"ĠResearch":3042,"Ġlegisl":3043,"Ã¡":3044,"ging":3045,"Ġinput":3046,"Ġneeded":3047,"Ġdestroy":3048,"Ġblack":3049,"opt":3050,"bu":3051,"olve":3052,"Ġperformance":3053,"path":3054,"Ġbottom":3055,"Ġfilm":3056,"Ġcircuit":3057,"\\\\":3058,"Ġplaintiff":3059,"Ġhapp":3060,"Ġ...":3061,"rown":3062,"dev":3063,"Ġang":3064,"ĠMc":3065,"Ġanimals":3066,"Ġremoved":3067,"rim":3068,"Ġhost":3069,"Ġchannel":3070,"list":3071,"Im":3072,"Ġexpected":3073,"Ġpopulation":3074,"All":3075,"anding":3076,"Ġbacter":3077,"miss":3078,"Ġreli":3079,"with":3080,"do":3081,"ĠGovernment":3082,"ĠNULL":3083,"ĠDef":3084,"ĠRo":3085,"UT":3086,"ĠPaul":3087,"Ġ(-":3088,"ĠCor":3089,"76":3090,"Ġcapacity":3091,"times":3092,"////////////////":3093,"Ġshall":3094,")}":3095,"Ġrecent":3096,"Ġbegin":3097,"Ġproduction":3098,"ption":3099,"Ġseems":3100,"Ġpattern":3101,"Ġnamed":3102,"Ġplaced":3103,"When":3104,"Ġter":3105,"How":3106,"Ġgene":3107,"ived":3108,"));":3109,"dimensional":3110,"Ġcomparison":3111,"Ġexpect":3112,"Ġwitness":3113,"Ġlines":3114,"Gr":3115,"https":3116,"tau":3117,"Set":3118,"sl":3119,"Ġstory":3120,"unc":3121,"With":3122,"anks":3123,"idence":3124,"umb":3125,"ethod":3126,"init":3127,"Ġsyndrome":3128,"Ðµ":3129,"Ġmeasures":3130,"Ġfall":3131,"ux":3132,"Ð°":3133,"Ġmachine":3134,"Ġinstead":3135,"like":3136,"Ġupper":3137,"Ġask":3138,"oud":3139,"ĠNot":3140,"Ġplatform":3141,"urch":3142,"Ġwor":3143,"ĠMin":3144,"field":3145,"Ġcredit":3146,"That":3147,"Ġstudents":3148,"Index":3149,"Ġcivil":3150,"Ġlearn":3151,"anced":3152,"Ġ$$":3153,"cal":3154,"Ġtool":3155,"Ġmotion":3156,"Ġcomes":3157,"Ġpolice":3158,"mathrsfs":3159,"ĠOF":3160,"trans":3161,"Ġ40":3162,"Ġdocument":3163,"word":3164,"normal":3165,"Ġsomeone":3166,"Ġ22":3167,"wo":3168,"Ġsched":3169,"isplay":3170,"ii":3171,"Ġ28":3172,"apt":3173,"Ġconc":3174,"Ġjob":3175,"\";":3176,"Pl":3177,"AAAAAAAAAAAAAAAAAAAAAAAAAAAAAAAAAAAAAAAAAAAAAAAA":3178,"empl":3179,"ĠĠĠĠĠĠĠĠĠĠĠĠĠĠĠ":3180,"Ġquality":3181,"Ġcharacteristics":3182,"Ġtaking":3183,"ĠYork":3184,"Ġmodels":3185,"Ġprovides":3186,"Ġitself":3187,"px":3188,"ĠBoard":3189,"pre":3190,"Ġstarted":3191,"Ġdiagn":3192,"Ġbad":3193,"iting":3194,"light":3195,"Ġcolor":3196,"ony":3197,"ĠThus":3198,"Ġpanel":3199,"Ġload":3200,"erve":3201,"Ġexposure":3202,"Ġstar":3203,"ially":3204,"}$,":3205,"Ġpain":3206,"ĠEn":3207,"come":3208,"Ġstraight":3209,"Ġmedia":3210,"Ġlive":3211,"Ġtherapeutic":3212,"53":3213,"fort":3214,"Override":3215,"Ġ/*":3216,"49":3217,"astic":3218,"41":3219,"Ġprinciples":3220,"down":3221,"ĠMan":3222,"ĊĠĠĠĠĠĠĠĠĠĠĠĠĠĠĠĠĠĠĠĠĠĠĠ":3223,"ulations":3224,"Ġwatch":3225,"Ġpage":3226,"Ġconv":3227,"ester":3228,"Ġindependent":3229,"Ġphenomen":3230,"}$.":3231,"Ġide":3232,"but":3233,"Ġexperienced":3234,"Ġoutput":3235,"eff":3236,"ĠDr":3237,"Ġheart":3238,"width":3239,"Ġrights":3240,"ython":3241,"ĠDavid":3242,"ounts":3243,"Ġcitizens":3244,"Ġcorrel":3245,"Ġjud":3246,"EC":3247,"Ġdim":3248,"ĠNational":3249,"osition":3250,"ĠWilli":3251,"MS":3252,"nbsp":3253,"Ġsimply":3254,"ĠSouth":3255,"Ġcontract":3256,"lin":3257,"Ġcal":3258,"ĠInternational":3259,"Ġwalk":3260,"ĠCongress":3261,"Ġspecifically":3262,"Ġfront":3263,"reate":3264,"ĠDevelopment":3265,"Ġinsurance":3266,"Ġchemical":3267,"Ġexercise":3268,"ĠTrump":3269,"Ġalternative":3270,"Ġneuro":3271,"Ġsurgery":3272,"acc":3273,"ĠCity":3274,"Ġparallel":3275,"Ġprepared":3276,"msg":3277,"Ġfemale":3278,"Ġfunctions":3279,"Ġhypoth":3280,"Ġrapid":3281,"Ġbur":3282,"Ġcoll":3283,"Ġphase":3284,"Ġmentioned":3285,"Ġsample":3286,"vis":3287,"Ġformer":3288,"Ġimport":3289,"Ġ26":3290,"RNA":3291,"Ġstrategy":3292,"Calculate":3293,"çļĦ":3294,"Ġdraw":3295,"Ġpersonal":3296,"Â±":3297,"vel":3298,"Ġdepend":3299,"Ġprec":3300,"|\\":3301,"Ġdespite":3302,"Ġcard":3303,"ĠAg":3304,"Ġpresence":3305,"Ġliquid":3306,"58":3307,"Int":3308,"Delta":3309,"Mod":3310,"Ed":3311,"ying":3312,"state":3313,"Ġcopy":3314,"ĠSimilar":3315,"EL":3316,"oke":3317,"ĊĠĠĠĠĠĠ":3318,"Ġinvest":3319,"ĠNorth":3320,"aving":3321,"aj":3322,"ements":3323,"Ġworks":3324,"ronic":3325,"que":3326,"Ġ27":3327,"Add":3328,"Ġ&&":3329,"Ġ23":3330,"Ġcontact":3331,"ĠGeorge":3332,"reet":3333,"Ġvalid":3334,"Ġremain":3335,"ana":3336,"Ġground":3337,"($":3338,"bed":3339,"File":3340,"Ġlinks":3341,"Ġsemiconductor":3342,"Ġconfirmed":3343,"oes":3344,"dom":3345,"ĠAdd":3346,"Ġgenes":3347,"++":3348,"PS":3349,"ians":3350,"Ġimproved":3351,"where":3352,"iated":3353,"sub":3354,"Ġdanger":3355,"59":3356,"char":3357,"Ġsil":3358,"Ġindex":3359,"ags":3360,"perty":3361,"Ġdetermined":3362,"Ġdecl":3363,"]{},":3364,"Ġproliferation":3365,"circ":3366,"ĠInt":3367,"\\*":3368,"ĠWARRANT":3369,"ĠCD":3370,"Ġmedical":3371,"ĠPennsylvania":3372,"Ġsurvival":3373,"Ġsense":3374,"ĠPar":3375,"Ġlack":3376,"Ġeffective":3377,"Ġdate":3378,"Ġevents":3379,"^*":3380,"OD":3381,"Ġcoordin":3382,"Ġsqu":3383,"--------------------------":3384,"Ġperhaps":3385,"Ġtypes":3386,"My":3387,"Sec":3388,"Ġconstit":3389,"Ġofficer":3390,"čĊĠĠĠ":3391,"Text":3392,"Ġsociety":3393,"ĠLondon":3394,"hibition":3395,"Ġarray":3396,"Ġassociation":3397,"Ġinstall":3398,"83":3399,"Ġwrong":3400,"Ġhistor":3401,"Ġcharg":3402,"Ġminimum":3403,"Ġhuge":3404,"Ġanalyzed":3405,"Ġlonger":3406,"Ġprofessional":3407,"usion":3408,"sim":3409,"52":3410,"aves":3411,"AA":3412,"Request":3413,"EM":3414,"ird":3415,"Ġquite":3416,"Ġemployees":3417,"Ġeverything":3418,"Ġfaith":3419,"Ġstatic":3420,"ĠString":3421,"Ġsamples":3422,"ensuremath":3423,"Object":3424,"Ġeasy":3425,"cm":3426,"Ġinside":3427,"write":3428,"ĠTwitter":3429,"ĠGu":3430,"formation":3431,"Ġidentified":3432,"Ġstorage":3433,"OL":3434,"ocy":3435,"arr":3436,"ean":3437,"Ġcreat":3438,"Ġpresented":3439,"Ġdegrees":3440,"Ġtechniques":3441,"Ġacid":3442,"Re":3443,"Ġsuggests":3444,"Sc":3445,"Ġnews":3446,"Ġdetermine":3447,"aut":3448,"Ġvelocity":3449,"ills":3450,"72":3451,"Ġbasis":3452,"ening":3453,"82":3454,"ients":3455,"Ġcreated":3456,"active":3457,"Ġprevent":3458,"ĊĊĊ":3459,"acts":3460,"array":3461,"Ġefficient":3462,"51":3463,"Ġeye":3464,"ĠÂ±":3465,"roph":3466,"Ġadvantage":3467,"utes":3468,"Ġfire":3469,"ĠComp":3470,"....":3471,"Ġrender":3472,"eat":3473,"Ġstatus":3474,"aven":3475,"Ġparameters":3476,"Ġbiggest":3477,"Ġprotocol":3478,"Ġrunning":3479,"Ġstay":3480,"Ġappellant":3481,"UN":3482,"Ġareas":3483,"fully":3484,"Ġphys":3485,"79":3486,"Ġprint":3487,"ections":3488,"Simplify":3489,"Ġinflamm":3490,"nonumber":3491,"rangle":3492,"ĠĠĠĠĠĠĠĠĠĠĠĠĠĠĠĠĠĠĠĠĠĠĠĠĠĠĠĠĠĠĠĠĠĠĠĠĠĠĠĠ":3493,"Ġmember":3494,"ze":3495,"Ġstatement":3496,"Ġforces":3497,"Ġcontroll":3498,"Ġfollows":3499,"ÃĹÂ":3500,"Ġrespond":3501,"subset":3502,"63":3503,"now":3504,"erson":3505,"Ġwanted":3506,"Ġpicture":3507,"Ġenzym":3508,"Ġisn":3509,"ever":3510,"ĊĠĠĠĠĠĠĠĠ":3511,"const":3512,"llllllllllllllllllllllllllllllllllllllllllllllllllllllllllllllllllllllllllllllllllllllllllllllll":3513,"Ġelements":3514,"ission":3515,"vironment":3516,"ĠBritish":3517,"Ġtheory":3518,"ken":3519,"Ġwhite":3520,"Ġcriminal":3521,"Ġcontext":3522,"Ġcamera":3523,"Ġsurround":3524,"Ġdirectly":3525,"amespace":3526,"Ġdeep":3527,"ades":3528,"Ġ?":3529,"âĢĶâĢĶâĢĶâĢĶâĢĶâĢĶâĢĶâĢĶâĢĶâĢĶâĢĶâĢĶâĢĶ":3530,"imate":3531,"Ġarchitect":3532,"Par":3533,"Ġforce":3534,"OC":3535,"induced":3536,"oma":3537,"Ġ(\\[":3538,"ĠDNA":3539,"Ġpair":3540,"Ġselect":3541,"Ġoil":3542,"otion":3543,"Ġpurposes":3544,"item":3545,"ros":3546,"Ġsmooth":3547,"ĠPart":3548,"ague":3549,"Ġmovie":3550,"Ġsomew":3551,"Ġconstant":3552,"Ġcry":3553,"Not":3554,"ĠIm":3555,"Ġimpact":3556,"ha":3557,"Ġago":3558,"Ġvoice":3559,"Ps":3560,"bi":3561,"Ġgas":3562,"omorph":3563,"ĠChicago":3564,"js":3565,"Ġmembrane":3566,"public":3567,"73":3568,"Ġbuilding":3569,"Key":3570,"term":3571,"Ġdistrict":3572,"Ġmemory":3573,"elling":3574,"Ġsqrt":3575,"ners":3576,"itation":3577,"Ġstyle":3578,"}(\\":3579,"Ġsett":3580,"OM":3581,"Ġunit":3582,"81":3583,"\\])":3584,"github":3585,"apter":3586,"Ġtraining":3587,"Ġdistinct":3588,"Ġtransfer":3589,"from":3590,"gn":3591,"003":3592,"spec":3593,"Ġbuffer":3594,"sw":3595,"ĠHis":3596,"Ġple":3597,"Ġmer":3598,"Â°":3599,"ĠCalculate":3600,"ĠId":3601,"Ġstrugg":3602,"ster":3603,"Ġlimited":3604,"Ġgames":3605,"clus":3606,"ĠĠĠĠĠĠĠĠĠĠĠĠĠĠĠĠ":3607,"Ġ;":3608,"Ġsevere":3609,"Ġmice":3610,"Ġfun":3611,"Ġofficers":3612,"ÑĤ":3613,"version":3614,"Ġrepresents":3615,"place":3616,"SD":3617,"Ġest":3618,"hood":3619,"Ġsuff":3620,"Ġavoid":3621,"Ġbehavior":3622,"ĠVirginia":3623,"Ġnational":3624,"\".":3625,"Ġlatest":3626,"Ġshare":3627,"âĢĲ":3628,"ament":3629,"summary":3630,"Ġreduced":3631,"Ġattorney":3632,"Ġslightly":3633,"ĠHow":3634,"mun":3635,"Ġmap":3636,"71":3637,"Ġexchange":3638,"rows":3639,"ĠSystem":3640,"Ġcontain":3641,"Ġsaw":3642,"ula":3643,"ĠOur":3644,"gl":3645,"ĠTexas":3646,"Ġword":3647,"Ġability":3648,"ĠFoundation":3649,"Ġwait":3650,"Ġmurder":3651,"Ġconventional":3652,"unction":3653,"ĠChinese":3654,"62":3655,"Ġreceptor":3656,"Ġtitle":3657,"ĠEd":3658,"Ġ[*":3659,"Ġrelease":3660,"ĠTherefore":3661,"Ġaccom":3662,"Ġexpress":3663,"Ġdiabetes":3664,"Ġsequ":3665,"Ġpreviously":3666,"Ġforward":3667,"Ġscreen":3668,"Ġmis":3669,"Ġincludes":3670,"Ġdeveloped":3671,"Ġoption":3672,"aaaaaaaaaaaaaaaaa":3673,"Ġmechan":3674,"lege":3675,"des":3676,"Or":3677,"length":3678,"Ġautomatically":3679,"ept":3680,"ML":3681,"ï¼Į":3682,"Ġmobile":3683,"Ġantibodies":3684,")$.":3685,"max":3686,"ĠRuss":3687,"Ġclaims":3688,"Ġarrang":3689,"ayout":3690,"ours":3691,"Ġlayer":3692,".'":3693,"pen":3694,"cell":3695,"]^":3696,"ĠAb":3697,"ĠJust":3698,"Ġimpl":3699,"Ġprimarily":3700,"ĠFriday":3701,"Ġannounced":3702,"Ġque":3703,"link":3704,"requ":3705,"Ġparticularly":3706,"Ġreference":3707,"Ġquarter":3708,"CD":3709,"Ġmessage":3710,"atives":3711,"Ġnegative":3712,"ĠST":3713,"Ġcommercial":3714,"Ġdiseases":3715,"Ġ60":3716,"stance":3717,"oring":3718,")=":3719,"Ġhot":3720,"Ġnumbers":3721,"ĠVal":3722,"otic":3723,"Ġpresident":3724,"Ġrepeated":3725,"SP":3726,"Ġnature":3727,"ĠSmith":3728,"Ġcompleted":3729,"ĠMonday":3730,"Ġ2012":3731,"omic":3732,"Ġheavy":3733,"IF":3734,"Ġwhatever":3735,"Ġcoming":3736,"Ġinvention":3737,"Qu":3738,"Ġgrad":3739,"ribute":3740,"Ġbrain":3741,"Ġparticles":3742,"itted":3743,"\":\"":3744,"Ġer":3745,"().":3746,"Ġplayers":3747,"Ġ-----":3748,"quad":3749,"ĠAP":3750,"Ġdriving":3751,"ä¸":3752,"ãĢĤ":3753,"Ġfollowed":3754,"room":3755,"sk":3756,"Ġalgebra":3757,"Ġ[**":3758,"Ġappeared":3759,"Ġrout":3760,"ocation":3761,"iven":3762,"ĠWhile":3763,"EX":3764,"Ġhar":3765,"eless":3766,"ĠPol":3767,"map":3768,"Ġsurvey":3769,"Ġleave":3770,"Ġrates":3771,"Ġstimul":3772,"Ġactive":3773,"Ġresid":3774,"Ġap":3775,"Ġincorpor":3776,"Ġproportion":3777,"ns":3778,"]{":3779,"pty":3780,"err":3781,"Ġcarbon":3782,"CA":3783,"61":3784,"Ġequivalent":3785,"Ġprop":3786,"ĠWestern":3787,"group":3788,"ĠPhys":3789,"ĠSince":3790,"ĠFrench":3791,"Ġalthough":3792,"Ġwrite":3793,"Ġscript":3794,"osc":3795,"Ġspirit":3796,"Ġwindow":3797,"Ġdifferences":3798,"ential":3799,"Ġillegal":3800,"pped":3801,"Ġinhibit":3802,"ĠOR":3803,"ailed":3804,"Ġonline":3805,"Ð¸":3806,"Ġdouble":3807,"Def":3808,"Ġphilosoph":3809,"Ġusually":3810,"Ġglobal":3811,"ened":3812,"burg":3813,"Ġnote":3814,"...\"":3815,"idge":3816,"Ġwall":3817,"Ġorg":3818,"Ġlymph":3819,"Ġoffice":3820,"Ġ2013":3821,"Ġcorresponding":3822,"Ġequipment":3823,"ĠPer":3824,"Ġlate":3825,"Ġpurch":3826,"Ġ2014":3827,"Ġcommittee":3828,"Ġetc":3829,"Ġinfrastructure":3830,"Ġoffer":3831,"ĠHere":3832,"Ġspectrum":3833,"ĠInstitute":3834,"Ġuncertain":3835,"Ġlost":3836,"Ġcompet":3837,"Ġgenerally":3838,"ils":3839,"ĠAfghanistan":3840,"Ġbox":3841,"Ġthemselves":3842,"ĠReg":3843,"Ġpractice":3844,"Ġwhose":3845,"bert":3846,"Ġpredict":3847,"Ġvot":3848,"Ġtried":3849,"Ġregular":3850,"Ġliving":3851,"čĊ":3852,"Ġinstance":3853,"aries":3854,"Ġbalance":3855,"ĠMarch":3856,"ĠFin":3857,"Ġsal":3858,"Ġdefendants":3859,"ĠDe":3860,"encies":3861,"Ġrule":3862,"anging":3863,"ĠBar":3864,"Ġconclud":3865,"ĠSunday":3866,"Ġappeal":3867,"amssymb":3868,"Ġgrant":3869,"kappa":3870,"Ġ2016":3871,"oo":3872,"Ġdefault":3873,"sm":3874,"Ġjobs":3875,"Ġliterature":3876,"false":3877,"ĠRec":3878,"amsfonts":3879,"ĠOff":3880,"Ġspecies":3881,"Ġlibrary":3882,"Ġaccur":3883,"Ġbroad":3884,"Ġabsolutely":3885,"Ġrecently":3886,"upgreek":3887,"Item":3888,"ĊĠĠĠĠĠĠĠĠĠĠĠĠĠ":3889,"wasysym":3890,"Ġexplicit":3891,"MA":3892,"ĠQu":3893,"alysis":3894,"eline":3895,"lation":3896,"ĠIS":3897,"ĠHouse":3898,"ped":3899,"^[@":3900,"*~":3901,"Ġtakes":3902,"print":3903,"BC":3904,"Ġport":3905,"Ġste":3906,"Ġtrack":3907,"Ġplasma":3908,"ducing":3909,"Ġappro":3910,"oding":3911,"Sigma":3912,"Ġcountries":3913,"0000":3914,"ĠMERCHANTABILITY":3915,"ĠII":3916,"sing":3917,"umer":3918,"ĠSome":3919,"Ġanyone":3920,"ĠTechn":3921,"Ġball":3922,"ĠInter":3923,"Ġhope":3924,"orizontal":3925,"uel":3926,"Ġstatist":3927,"Ġsaying":3928,"Ġ/>":3929,"eng":3930,"Ġrev":3931,"Ġstress":3932,"Ġextremely":3933,"molecules":3934,"Ġthousands":3935,"Ġcenter":3936,"ĠDes":3937,"omy":3938,"ville":3939,"Ġsituation":3940,"Ġissued":3941,"Ġhimself":3942,"Ġenh":3943,"Ġcompl":3944,"Ġbecame":3945,"Ġultimately":3946,"}=":3947,"wide":3948,"Ġles":3949,"oe":3950,"Ġprefer":3951,"Ġ29":3952,"ĠâĪĴ":3953,"Ġcriteria":3954,"user":3955,"Ġdelivery":3956,"Ġdecisions":3957,"Ġ2015":3958,"Ġoutcomes":3959,"psi":3960,"!!!!!!!!!!!!!!!!!!!!!!!!!!!!":3961,"point":3962,"ĠFirst":3963,"Ġtreated":3964,"ball":3965,"\"><":3966,"CE":3967,"Ġlegal":3968,"uses":3969,"ĠCir":3970,"ĠAmerica":3971,"nabla":3972,"Ġways":3973,"((":3974,"Ġguarant":3975,"Ġfib":3976,"ham":3977,"iet":3978,"Ġintegr":3979,"ran":3980,"illing":3981,"cd":3982,"Ġwarrant":3983,"lient":3984,"rep":3985,"âĸĶâĸĶâĸĶâĸĶâĸĶâĸĶâĸĶâĸĶâĸĶâĸĶâĸĶâĸĶâĸĶ":3986,"ĠChina":3987,"EG":3988,"ae":3989,"}}$":3990,"Ġge":3991,"Ġfeed":3992,"One":3993,"Exception":3994,"Builder":3995,"ĠĊĠĠĠĠĠĠĠĠĠĠĠĠĠĠĠ":3996,"stein":3997,"lock":3998,"abor":3999,"Ġteach":4000,"ĠTuesday":4001,"Ġguidelines":4002,"ĠGerm":4003,"Ġasp":4004,"Ġserious":4005,"Ġapparatus":4006,"Ġrestaur":4007,"Ġhighly":4008,"Ġcognitive":4009,"Ġfailed":4010,"Ġvers":4011,"Ġcharge":4012,"Ġfindings":4013,"omb":4014,"Ġgalax":4015,"Ġrelative":4016,"Ad":4017,"Ġderivative":4018,"ĠEm":4019,"Ġconstruct":4020,"Ġsubsequent":4021,"lib":4022,"Ġ!":4023,"Ġcomment":4024,"Ġfreedom":4025,"Ġselected":4026,"ĠAc":4027,"Ġspeed":4028,"Test":4029,"chi":4030,"Ġpoor":4031,"ĠTheorem":4032,"Ġindividuals":4033,"rupt":4034,"Ġson":4035,"Ġsufficient":4036,"Ġcateg":4037,"Ġfast":4038,"Ġenforcement":4039,"rial":4040,"Ġrecovery":4041,"ĠTH":4042,"lor":4043,"ancy":4044,"Ġ2011":4045,"Ġallowed":4046,"Ġprice":4047,"\\].":4048,"Ġ2010":4049,"Ġscheme":4050,"Ġvisit":4051,"Ġcommand":4052,"Ġuniform":4053,"igen":4054,"Ġ);":4055,"Ġmeasured":4056,"break":4057,"Ġill":4058,"Ġassist":4059,"Time":4060,"Ġbudget":4061,"ett":4062,"New":4063,"ĠSer":4064,"Ġmax":4065,"author":4066,"Ġdesigned":4067,"Ġfeature":4068,"čĊĠ":4069,"Ġ\"\"":4070,"plit":4071,"Ġgave":4072,"Ġisol":4073,"ĠĠĠĠĠĠĠĠĠĠĠĠĠĠĠĠĠĠĠ":4074,"izes":4075,"Ġdetails":4076,"Of":4077,"base":4078,"Ġjury":4079,"index":4080,"Ġoperation":4081,"that":4082,"BS":4083,"TP":4084,"Ġlarger":4085,"};":4086,"FL":4087,"Ġstage":4088,"ournal":4089,"Ġeveryone":4090,"NS":4091,"Ġ///":4092,"ĠWar":4093,"rightarrow":4094,"ĠJudge":4095,"Ġsoon":4096,"Ġprocedures":4097,"fil":4098,"['":4099,"Ġslow":4100,"Class":4101,"Ġnode":4102,"Ġround":4103,"Ġroad":4104,"Ġvoltage":4105,"Ġidentify":4106,"ris":4107,"----":4108,"ĠAlthough":4109,"ued":4110,"Ġcurrently":4111,"vec":4112,"Ġtraffic":4113,"iness":4114,"asing":4115,"ublish":4116,"ĠEngland":4117,"Ġbank":4118,"ĠNow":4119,"Ġintelligence":4120,"``":4121,"Ġrot":4122,"Ġfit":4123,"Ġefficiency":4124,"icon":4125,"ĠJesus":4126,"Path":4127,"Fr":4128,"Ġinit":4129,"Ġgives":4130,"Ġmetabol":4131,"^^^^^^^^^^^^^^":4132,"âĢĥ":4133,"Ġimages":4134,"Ġlicense":4135,"ble":4136,"Ġord":4137,"Ġfriends":4138,"Ġapplicable":4139,"Ġscale":4140,"Ġalone":4141,"zz":4142,"Ġaud":4143,"ius":4144,"Ġpolicies":4145,"Ġodd":4146,"UL":4147,"Ġattempts":4148,"Ġcaused":4149,"Ġlocation":4150,"ersion":4151,")$,":4152,"CP":4153,"Ġduty":4154,"aph":4155,"urb":4156,"static":4157,"Ġwasn":4158,"target":4159,"efore":4160,"ocks":4161,"Ġclust":4162,"Ġchosen":4163,"Ġled":4164,"Ġchoice":4165,"inated":4166,"ights":4167,"Ġswitch":4168,"ĠAssociation":4169,"itable":4170,"Ġobvious":4171,"ĠCons":4172,"Ġdaughter":4173,"hold":4174,"ĠTe":4175,"df":4176,"Ġleading":4177,"Ġ:=":4178,"Ġmother":4179,"Ġbegan":4180,"===":4181,"Ġfailure":4182,"Ġmarijuana":4183,"Ġassert":4184,"Ġche":4185,"king":4186,"Ġtechnology":4187,"Ġmatrix":4188,"Ġthreat":4189,"elle":4190,"ether":4191,"ĠHamilton":4192,"Ġthreshold":4193,"(),":4194,"Ġacqu":4195,"Ġwonder":4196,"Ġoptions":4197,"iring":4198,"Ġcrucial":4199,"Ġ2017":4200,"XXXXXXXXXXXXXXXXXX":4201,"ifier":4202,"istry":4203,"Ġfiles":4204,"Ġattention":4205,"Ġknew":4206,"ĠRepublic":4207,"ĠWindows":4208,"Ġentitled":4209,"ĠSen":4210,"ulate":4211,"Ġsem":4212,"Ġcosts":4213,"Ġmanagement":4214,"dis":4215,"abled":4216,"iding":4217,"anguage":4218,"ĠWest":4219,"Ġoxid":4220,"Ġhear":4221,"Ġunique":4222,"oon":4223,"ani":4224,"Exp":4225,"Ġten":4226,"She":4227,"Ġexcellent":4228,"ĠCopyright":4229,"ĠWITHOUT":4230,"Ġnotice":4231,"pack":4232,"ading":4233,"Ġprices":4234,"######":4235,"Ġpull":4236,"ĠThursday":4237,"Ġprime":4238,"Ġpush":4239,"Ġconnection":4240,"Ġneither":4241,"%%%%%%%%%%%%%%":4242,"using":4243,"Ġsubstrate":4244,"Ġbelieved":4245,"*]{}":4246,"Ġcentral":4247,"Ġusers":4248,"ecting":4249,"ilit":4250,"Ġdog":4251,"ica":4252,"Ġvirtual":4253,"');":4254,"Ġassum":4255,"\\/":4256,"ture":4257,"ography":4258,"Ġreligious":4259,"Ġbed":4260,"_\\_\\_\\_\\_\\_\\_\\_\\_\\_\\_\\_\\_\\_\\_\\_\\_\\_\\_\\_\\_\\_\\_\\_\\_\\_\\_\\_\\_\\_\\_\\_\\":4261,"Ġcontains":4262,"mand":4263,"Ġstri":4264,"Ġemerg":4265,"Ġlib":4266,"Ġaim":4267,"encing":4268,"ĠAND":4269,"ĠMexico":4270,"Ġparts":4271,"Ġtrigger":4272,"Ġelection":4273,"Ġ->":4274,"adem":4275,"cast":4276,"igation":4277,"True":4278,"Ġparties":4279,"Ġ31":4280,"Ġconflict":4281,"Form":4282,"Ġatmosphere":4283,"ĠHar":4284,"aker":4285,"HT":4286,"Ġequal":4287,"imer":4288,"Ġintr":4289,"Ġexpressed":4290,"Ġsites":4291,"Ġsort":4292,"call":4293,"Rec":4294,"Ġbaby":4295,"Ġhit":4296,"Ġwidth":4297,"ĠĠĠĠĠĠĠĠĠĠĠĠĠĠĠĠĠĠ":4298,"Ġ($":4299,"Ġfrequency":4300,".\\":4301,"Ġapply":4302,"Now":4303,"ĠEl":4304,"Ġ32":4305,"American":4306,"Ġhousing":4307,".[":4308,"Ġfair":4309,"Ġgovern":4310,"ĠSaturday":4311,"Ġfine":4312,"ground":4313,"Ġcook":4314,"Ġdiss":4315,"Ġpen":4316,"Ġbuy":4317,"Ġgenerated":4318,"OW":4319,"Ġhumans":4320,"Ġmulti":4321,"Ġsupported":4322,"Ġdead":4323,"\",\"":4324,"ellow":4325,"Ġestablished":4326,"âĶģâĶģâĶģâĶģâĶģâĶģâĶģâĶģâĶģâĶģâĶģâĶģâĶģâĶģâĶģâĶģ":4327,"Ġhospitals":4328,"Ġcritical":4329,"Ġfinding":4330,"style":4331,"Ġlinear":4332,"Ġgoal":4333,"Ġoverall":4334,"CS":4335,"From":4336,"ama":4337,"title":4338,"Ġallows":4339,"());":4340,"Ab":4341,"ube":4342,"ĠTrans":4343,"Ġserver":4344,"]--[@":4345,"Ġanalog":4346,"Ġeth":4347,"ĠMon":4348,"}_{\\":4349,"čĊĠĠĠĠĠĠĠ":4350,"Ġfight":4351,"Ġeasily":4352,"rad":4353,"Ġdevices":4354,"Ġpolymer":4355,"Ġremember":4356,")-":4357,"Ġstated":4358,"Ġcontaining":4359,"Ġexpansion":4360,"osing":4361,"Ġactivities":4362,"eph":4363,"Ġguilty":4364,"Ġ\\<":4365,"enses":4366,"._":4367,"They":4368,"Ġdu":4369,"Se":4370,"Ġintensity":4371,"fn":4372,"Ġdistance":4373,"ĠCal":4374,"Ġdiscl":4375,"Ġboard":4376,"Ġworth":4377,"Ġtemperatures":4378,"Ġlocated":4379,"Ġstaff":4380,"Ġparameter":4381,"ĠFederal":4382,"Ġengine":4383,"Ġemphas":4384,"ĠRev":4385,"PR":4386,"Ġhospital":4387,"hand":4388,"Ġsn":4389,"Ġfix":4390,"Ġcontinues":4391,"\\<":4392,"Ġreduction":4393,"otherapy":4394,"Ġ2008":4395,"Ġhop":4396,"unk":4397,"Ġeconomic":4398,"ĠRed":4399,"Ġdatas":4400,"Ġhighest":4401,"ĠLa":4402,"Ġclearly":4403,"Ġlikelihood":4404,"Ġtrust":4405,"Ġmeaning":4406,"Ġmargin":4407,"Ġheat":4408,"umption":4409,"Ġfiled":4410,"Ġactual":4411,"Ġones":4412,"Ġmode":4413,"Ġinform":4414,"ĠIslam":4415,"^+":4416,"Ġ<<":4417,"Ġleaders":4418,"Ġauthors":4419,"ĠStud":4420,"color":4421,"ĠDefendant":4422,"xxxxxxxxxxxxxxxxxxxx":4423,"*.":4424,"Ġreduce":4425,"Ġproduced":4426,"Ġexcept":4427,"Ġtransition":4428,"Ġweb":4429,"Ġsensitivity":4430,"Ġve":4431,"raz":4432,"Ġ35":4433,"Ġnutri":4434,"002":4435,"Ġdistinguish":4436,"Ġscenario":4437,"ffffffffffffffffffffffffffffffffffffff":4438,"Ġax":4439,"State":4440,"Ġplant":4441,"Ġsmaller":4442,"Ġimm":4443,"Ġsound":4444,"ares":4445,"langle":4446,"Ġmid":4447,"ĠMod":4448,"Ġcollection":4449,"attle":4450,"ĊĊĉ":4451,"Ġoppos":4452,"Ġnor":4453,"Ġvariable":4454,"!!":4455,"Ġprov":4456,"related":4457,"PL":4458,"ĠSw":4459,"Ġduration":4460,"Ġbrought":4461,"âĶĢâĶĢ":4462,"athemat":4463,"Ġdepartment":4464,"Ġculture":4465,"Des":4466,"Ġarbitrary":4467,"Ġpress":4468,"umn":4469,"Ġremains":4470,"ĠFurther":4471,"Ġdiscovered":4472,"Ġcourts":4473,"='":4474,"mark":4475,"icle":4476,"PA":4477,"Ġhon":4478,"erved":4479,"py":4480,"Ġantibody":4481,"Ġli":4482,"##":4483,"Ġextra":4484,"node":4485,"Ġinjury":4486,"Ġappears":4487,"Ġstand":4488,"Ġ^":4489,"Ġvs":4490,"ls":4491,"Ġlimits":4492,"ĠAD":4493,"ptions":4494,"ĠChar":4495,"oses":4496,"ĠAngel":4497,"pat":4498,"Ġvector":4499,"SA":4500,"Ġtransport":4501,"Ġproof":4502,"Ġecho":4503,"ĠNe":4504,"here":4505,"Ġadjacent":4506,"Ġnumer":4507,"';":4508,"Ġgoes":4509,")).":4510,"Ġou":4511,"Ġstore":4512,"Ġemb":4513,"------":4514,"Ġshowing":4515,"Ġreceive":4516,"och":4517,"){#":4518,"Ġcarry":4519,"}^{\\":4520,"ulf":4521,"ÂŃ":4522,"Ġhands":4523,"ĠFrom":4524,"Ġassembly":4525,"Ġqual":4526,"Ġcomputer":4527,"Ġlooks":4528,"Ġfat":4529,"Ġmortality":4530,"ponse":4531,"Ġtruly":4532,"Ġuses":4533,"Ġrules":4534,"Ġsucceed":4535,"cap":4536,"ÑĢ":4537,"Ġunderstanding":4538,"icial":4539,"ĠInternet":4540,"enu":4541,"Ġturned":4542,"Ġconstruction":4543,"Size":4544,"Ġdark":4545,"Ġpolynomial":4546,"Ġdoor":4547,".$$":4548,"Ġproduce":4549,"Ġfundamental":4550,"irt":4551,"Ġrob":4552,"Ġheard":4553,"Ġwidely":4554,"input":4555,"Ġdenominator":4556,"Ġ2009":4557,"Ġhearing":4558,"ĠGet":4559,"Ġinstrument":4560,"SC":4561,"Ġhybrid":4562,"ĠCO":4563,"igr":4564,"Ġaw":4565,"Ġinstructions":4566,"fortunately":4567,"Ġworked":4568,"Ġheight":4569,"Ġsurpr":4570,"Ġitems":4571,"Ġroot":4572,"Ġfather":4573,"Ġlov":4574,"Ġinsp":4575,"ĠIraq":4576,"Ġinn":4577,"Ġcoefficients":4578,"Ġregarding":4579,"Ġdedicated":4580,"ĠPublic":4581,"side":4582,"varphi":4583,"Ġlooked":4584,">>":4585,"':":4586,"Ġwrit":4587,"Ġgun":4588,"gu":4589,"raph":4590,"Ġreports":4591,"Ġ__":4592,"Ġpossess":4593,"Context":4594,"Controller":4595,"^{(":4596,"*-":4597,"Ġoccasion":4598,"Ġelectro":4599,"\\,":4600,"Ġdefinitely":4601,"amin":4602,"Ġsudden":4603,"Ġmajority":4604,"rier":4605,"ford":4606,"Ġinternal":4607,"Ġeight":4608,"db":4609,"Ġsolid":4610,"ways":4611,"Ġbecoming":4612,"Ġplease":4613,"ĠDemocr":4614,"half":4615,"Ġvariables":4616,"ĠĠĠĠĠĠĠĠĠĠĠĠĠĠĠĠĠĠĠĠĠĠĠĠĠĠĠĠĠĠĠĠĠĠĠĠĠĠĠĠĠĠĠĠĠĠĠĠĠĠĠĠĠĠĠĠĠĠĠĠĠĠĠĠĠĠĠĠ":4617,"Ġresulting":4618,"ATE":4619,"ĠArizona":4620,"ĠCH":4621,"Ġpolit":4622,"Ġinfection":4623,"iant":4624,"Ġcontrast":4625,"olar":4626,"Ġyield":4627,"ĠSchool":4628,"Ġreading":4629,"Ġtheoretical":4630,"tt":4631,"Ġabsolute":4632,"Ġinteresting":4633,"ĠDo":4634,"Ġinterview":4635,"conn":4636,"ĠThomas":4637,"Ġbenefits":4638,"ios":4639,"ĠAccording":4640,"Ġskin":4641,"ĠMassachusetts":4642,"Ġvitro":4643,"Ġtask":4644,"Ġsetting":4645,"Ġmorning":4646,"Ġsyn":4647,")^":4648,"urity":4649,"upport":4650,"eration":4651,"Ġtim":4652,"Ġconsequ":4653,"Ġmal":4654,"stream":4655,"Ã³":4656,"ming":4657,"Ġunderstood":4658,"java":4659,"Ġpul":4660,"Ġneurons":4661,"Ġindicated":4662,"Ġdest":4663,"\\'":4664,"Ġhol":4665,"Ñģ":4666,"enced":4667,"Ġattached":4668,"Ġplayed":4669,"Ġreasonable":4670,"}}_":4671,"free":4672,"Ġcool":4673,"ql":4674,"DA":4675,"Ġgets":4676,"len":4677,"unn":4678,"EST":4679,"aly":4680,"Ġparticipants":4681,"==================":4682,"Ġexists":4683,"RA":4684,"ĊĊĠĠĠĠĠĠĠĠĠĠĠ":4685,"Event":4686,"Ġ/**":4687,"ĠInstead":4688,"acing":4689,"Ġdrop":4690,"Ġmaterials":4691,"iences":4692,"Ġweak":4693,"Ġprocesses":4694,"lication":4695,"rich":4696,"Ġtoxic":4697,"gy":4698,"Date":4699,"Ġregions":4700,"ecutive":4701,"Ġthroughout":4702,"ĠSyri":4703,"Ġmount":4704,"Ġingredients":4705,"Ġandroid":4706,"alth":4707,"INT":4708,"Ct":4709,"Ġcomprehensive":4710,"ME":4711,"Info":4712,"resent":4713,"icip":4714,"ÃŃ":4715,"Ġdamage":4716,"Ġtreat":4717,"Ġsafety":4718,"Ġvehicle":4719,"perties":4720,"Ġcorrection":4721,"Ġmedium":4722,"Ġmessages":4723,"Ġdrive":4724,"ĠDetermine":4725,"Handler":4726,"Ġnoted":4727,"Ġpoly":4728,"Ġplayer":4729,"Ġgonna":4730,"Ġmat":4731,"Ġsenior":4732,"onic":4733,"Ġfields":4734,"Ġaward":4735,"Ġcop":4736,"book":4737,"pan":4738,"Filter":4739,"VER":4740,"Ġcapital":4741,"true":4742,"Ġseparate":4743,"Ġmethyl":4744,"Ġreaction":4745,"RT":4746,"under":4747,"Ġ(\\":4748,"Ġcardiovascular":4749,"error":4750,"Ġsold":4751,"Ġlives":4752,"Ġstarting":4753,"oad":4754,"Ġagree":4755,"Out":4756,"Ġunivers":4757,"pc":4758,"Ġ2018":4759,"asm":4760,"Ġattr":4761,"Ġdeliver":4762,"aine":4763,"ĠBecause":4764,"bin":4765,"Ġarticles":4766,"Ġparent":4767,"Ġtissues":4768,"Ġzero":4769,"Ġmeeting":4770,"owing":4771,"Ġformation":4772,"Ġscore":4773,"Ġtests":4774,")**":4775,"info":4776,"BA":4777,"ĠSOFTWARE":4778,"Ġstrategies":4779,"Ġsampling":4780,"Ġdefine":4781,"Ġvolume":4782,"eah":4783,"arc":4784,"Ġbasic":4785,"ĠMark":4786,"Ġformed":4787,"which":4788,"Ġconnected":4789,"Ġadministration":4790,"ĠData":4791,"Ġinteraction":4792,"Ġ80":4793,"Ð½":4794,"overline":4795,"Ġtransform":4796,"ding":4797,"Ġsources":4798,"actor":4799,"Ġdiscretion":4800,"}}(":4801,"Ġitem":4802,"Ġphenot":4803,"ĠEarth":4804,"Ġpopular":4805,"inate":4806,"ĊĊĠĠĠĠĠ":4807,"aling":4808,"Ġinstit":4809,"Ġoxygen":4810,"ĠHigh":4811,"duces":4812,"Ġtemplate":4813,"image":4814,"Ġfilter":4815,"ĠLouis":4816,"ponent":4817,"Ġspin":4818,"Ġcollect":4819,"apping":4820,"Ġconfig":4821,"Ġign":4822,"otal":4823,"Ġamazing":4824,"enty":4825,"Ġsimultaneously":4826,"acted":4827,"ĠOf":4828,"RI":4829,"ESS":4830,"Ġtoward":4831,"cons":4832,"Ġequation":4833,"Ġimpossible":4834,"Ġneut":4835,"Ġdomain":4836,"ĠMoreover":4837,"Ġsum":4838,"ĠPM":4839,"ĠCommission":4840,"erate":4841,"Ġtelevision":4842,"ĠSection":4843,"Ġopportunity":4844,"Ġforms":4845,"Ġcombination":4846,"ĠIllinois":4847,"Ġmg":4848,"Ġ]":4849,"geq":4850,"Ġlay":4851,"LA":4852,"url":4853,"bb":4854,"CF":4855,"ĠMe":4856,"Ġlabel":4857,"Ġconstraints":4858,"Ġri":4859,"GF":4860,"Ġgiving":4861,"ĠPark":4862,"Ġconsistent":4863,"case":4864,"Ġactions":4865,"Ġmarriage":4866,"ĠCenter":4867,"Ġclosed":4868,"Ġobs":4869,"run":4870,"md":4871,"Ġperipheral":4872,"airs":4873,"Ġroll":4874,"ui":4875,"Ġspeak":4876,"ploy":4877,"Ġ90":4878,"']":4879,"ĠUSA":4880,"urt":4881,"Ġcrisis":4882,"Ġwide":4883,"Ġfunctional":4884,"ky":4885,"oz":4886,"Ġkn":4887,"oul":4888,"-------------------------------":4889,"ensions":4890,"Ġscientific":4891,"[]":4892,"ĠSoftware":4893,"lete":4894,"Ġgreen":4895,"Ġstd":4896,"Ġblog":4897,"Ġexceed":4898,"Ġsweet":4899,"Ġsegment":4900,"Ġresources":4901,"Ġmonitoring":4902,"Ġdisorders":4903,"Ġconcerning":4904,"Ġaware":4905,"ĠMichigan":4906,"ĠFl":4907,"Ass":4908,"/(-":4909,"Ġchance":4910,"start":4911,"gs":4912,"Ġthinking":4913,"Ġenter":4914,"Ġmiddle":4915,"Ġconducted":4916,"Ġnearly":4917,"Ġdefense":4918,"inn":4919,"nother":4920,"ĠView":4921,"Ġmoved":4922,"ĠAmazon":4923,"Ġequilibrium":4924,"Ġdetected":4925,"Ġselection":4926,"ĠTable":4927,"Ġuns":4928,"Ġplaying":4929,"Ġsugar":4930,"Ġlif":4931,"ampionship":4932,"Ġcrowd":4933,"bm":4934,"Ġmoving":4935,"board":4936,"Ġhor":4937,"Ġunits":4938,"atin":4939,"Ġjoined":4940,"iers":4941,"Ġremove":4942,"Ġstretch":4943,"ĠIL":4944,"Ġphone":4945,"EE":4946,"Ġpromot":4947,"PC":4948,"Ġ~":4949,"met":4950,"Ġexisting":4951,"Ġborder":4952,"Ġobjects":4953,"ĠMuslim":4954,"friend":4955,"},\\":4956,"Ġneglig":4957,"work":4958,"ĠClinton":4959,"ano":4960,"500":4961,"Here":4962,"Ġproviding":4963,"Ġcomposite":4964,"Ġchoose":4965,"Ġachieve":4966,"Ġimag":4967,"Ġfacts":4968,"Ġdemonstrated":4969,"ĠKing":4970,"Ġchannels":4971,"Ġtesting":4972,"Ġbodies":4973,"ĠHuman":4974,"Map":4975,"UM":4976,"Ġfinally":4977,"private":4978,"oto":4979,"float":4980,"block":4981,"PD":4982,"Ġyourself":4983,"Ġstation":4984,"Ġmovement":4985,"Ġhappened":4986,"Ġfruit":4987,"Ġperspective":4988,"Ġindicate":4989,"Ġpot":4990,"ustom":4991,"Ġtra":4992,"Ġfamiliar":4993,"Ġlabor":4994,"jection":4995,"Ġcalculated":4996,"ĠGe":4997,"Ġfabric":4998,"Ġpetition":4999,"Ġcore":5000,"Ċĉĉĉĉĉĉ":5001,"rate":5002,"Ġtrade":5003,"ipe":5004,"Ġready":5005,"Ġsignificance":5006,"ided":5007,"Ġsets":5008,"Ġafraid":5009,"Ġ45":5010,"Ġmanuscript":5011,"count":5012,"ĠID":5013,"Ġfigures":5014,"Ġclient":5015,"crib":5016,"Ġwild":5017,"ping":5018,"check":5019,"Ġmilk":5020,"Ġcarried":5021,"template":5022,"ĠTO":5023,")/(-":5024,"Ġ2007":5025,"Ġwife":5026,"ĠLemma":5027,"]:":5028,"ĠAlso":5029,"Ġcomments":5030,"berg":5031,"ĊĠĠĠĠĠĠĠĠĠĠĠĠĠĠĠĠĠĠĠĠĠĠĠĠĠĠĠ":5032,"Ġdollars":5033,"Ġsteps":5034,"Field":5035,"source":5036,"stitution":5037,"Ġjoin":5038,"enz":5039,"%,":5040,"acellular":5041,"Ġsafe":5042,"ĠSan":5043,"Ġseven":5044,"ires":5045,"inding":5046,"Ġregul":5047,"\\],":5048,"Ġvivo":5049,"approx":5050,"Ġlaunch":5051,"\"},":5052,"SH":5053,"long":5054,"olved":5055,"Ġemotional":5056,"Ġfluorescence":5057,"[^":5058,"Ġpackage":5059,"Ġconversation":5060,"ĠHol":5061,"ause":5062,"ĠIndia":5063,"Ġunlikely":5064,"hydro":5065,"wise":5066,"Ġsend":5067,"Ġprove":5068,"Ġwave":5069,"acter":5070,"ĠSocial":5071,"Ġsupra":5072,"sensors":5073,"Ġprosecut":5074,"Ġharm":5075,"Ġvariety":5076,"Ġwish":5077,"FA":5078,"Ġ37":5079,"*(":5080,"BU":5081,"Ġinjuries":5082,"Ġincome":5083,"ĠMinnesota":5084,"Read":5085,"Ġlaser":5086,"Ġletters":5087,"ara":5088,"hes":5089,"uffer":5090,"Ġfear":5091,"umin":5092,"Ġbenefit":5093,"inger":5094,"())":5095,"Ġband":5096,"Ġpeak":5097,"Ġtasks":5098,"Ġprocessing":5099,"script":5100,"ĠRichard":5101,"ĠAppellant":5102,"dep":5103,"Ġcaught":5104,"čĊčĊčĊčĊčĊčĊčĊčĊčĊčĊčĊčĊčĊčĊčĊčĊčĊčĊčĊčĊčĊčĊčĊčĊčĊčĊčĊčĊčĊčĊčĊčĊčĊčĊčĊčĊčĊčĊčĊčĊčĊčĊčĊčĊčĊčĊčĊčĊ":5105,"Ġfresh":5106,"Ġprevalence":5107,"---|---|---|---|---|---|---":5108,"Ġmanifest":5109,"Ġemail":5110,"Ġplaces":5111,"mediate":5112,"Element":5113,"Color":5114,"Ġmagnetic":5115,"Ġfraud":5116,"Ġworkers":5117,",-":5118,"Ġbus":5119,"itis":5120,"ocket":5121,"ĠLaw":5122,"Ġarrived":5123,"Ġprograms":5124,"Ġstuff":5125,"Ġtour":5126,"orrect":5127,"Ġcamp":5128,"Ġpictures":5129,"Ġprem":5130,"Ġhair":5131,"Ġshape":5132,"Ġsuggested":5133,"Ġfoot":5134,"Inter":5135,"IB":5136,"Ġapparent":5137,"Ġ(**":5138,"ĠPhiladelphia":5139,"Ġdisp":5140,"Ġherself":5141,"Ġbul":5142,"Ġaccordance":5143,"Ġoptim":5144,"ĠList":5145,"inant":5146,"Ġoperator":5147,"ĠEven":5148,"Ġdistributed":5149,"Label":5150,"Ġorganizations":5151,"Ġ\\,":5152,"Oh":5153,"IA":5154,"config":5155,"Node":5156,"Ġresponsible":5157,"iatric":5158,"Ġadopted":5159,"ART":5160,"ĠAM":5161,"Equ":5162,"Ġreplacement":5163,"Ġhealthy":5164,"rick":5165,"Ġblue":5166,"object":5167,"treated":5168,"Ġmaintenance":5169,"CON":5170,"Ser":5171,"Trans":5172,"Ġpicked":5173,"Up":5174,"Ġincreases":5175,"Ġcert":5176,"Ġnation":5177,"Ġ70":5178,"Ġelectrical":5179,"Ġtend":5180,"ĠEuropean":5181,"vest":5182,"Ġthermal":5183,"Ġcorpor":5184,"Ġplus":5185,"Ġtruth":5186,"]\\],":5187,"amsbsy":5188,"Ġonto":5189,"Ġletter":5190,"Ġremoval":5191,"ĠPal":5192,"Ġ95":5193,"Ġneighborhood":5194,"Ġvacuum":5195,"Ġcataly":5196,"well":5197,"cos":5198,"Ġrace":5199,"Act":5200,"Ġdiscussed":5201,"Ġhour":5202,"_.":5203,"Ġmag":5204,"ĠSim":5205,"ĠDi":5206,"Ġcatch":5207,"Ġmanner":5208,"Ġavailability":5209,"amb":5210,"[\\":5211,"Ġsave":5212,"abs":5213,"Ġupdate":5214,"Ġmm":5215,"pper":5216,"*)":5217,"Ġpriv":5218,"post":5219,"Em":5220,"Ġmaybe":5221,"ĠUK":5222,"atively":5223,"Ġframe":5224,"ĠWhite":5225,"Ġpassed":5226,"inf":5227,"Ġmodern":5228,"ĠCON":5229,"Ġapproximately":5230,"Ġ36":5231,"Ġglucose":5232,"php":5233,"ĠHer":5234,"ynamic":5235,"Ġupdated":5236,"tx":5237,"idden":5238,"Ġmusic":5239,"Ġbeginning":5240,"pass":5241,"Ġesc":5242,"Ġpreparation":5243,"actory":5244,"ifferent":5245,"asis":5246,"Ġtumors":5247,"Ġshot":5248,"Ġnorm":5249,"Ġdrugs":5250,"Ġeffort":5251,"/(":5252,"stall":5253,"Ġtotally":5254,"level":5255,"content":5256,"ĠBro":5257,"SIZE":5258,"TYPE":5259,"ALL":5260,"Ġalter":5261,"Ġcontinued":5262,"Ġsorry":5263,"ĠPakistan":5264,"gress":5265,"Ġdie":5266,"PO":5267,"ifying":5268,"une":5269,"Ġwavelength":5270,"Ġspread":5271,"Ġrow":5272,"Ġactivation":5273,"Ġdiscovery":5274,"Ġmale":5275,"Ġsecret":5276,"004":5277,"Ġtalking":5278,"Ġrat":5279,"Ġexplanation":5280,"Ġcoach":5281,"ado":5282,"dot":5283,"opl":5284,"core":5285,"ĠRNA":5286,"ĠFrancisco":5287,"di":5288,"Ġdetection":5289,"Ġthin":5290,"Ġreturned":5291,"Ġ2000":5292,"Ġ48":5293,"ĠServices":5294,"Su":5295,"orter":5296,"Ġstructures":5297,"Ġtree":5298,"Ġforeign":5299,"Ġcomplic":5300,"DS":5301,"Log":5302,"Ġdelay":5303,"Ġfashion":5304,"Ġhappy":5305,"ingly":5306,":\"":5307,"Ġ});":5308,"Ġnorth":5309,"ubuntu":5310,"fe":5311,"Ġ2006":5312,"Ġepisode":5313,"Ġconscious":5314,"Ġcompr":5315,"AV":5316,"host":5317,"Ġcoffee":5318,"Ġtelephone":5319,"Ġkid":5320,"cepts":5321,"inity":5322,"ync":5323,"Ġampl":5324,"''":5325,"Î²":5326,"Ġprovisions":5327,"ĠDis":5328,"De":5329,"Array":5330,"ypes":5331,"Ġadministered":5332,"Ġcolleagues":5333,"Ġthrow":5334,"ĠMartin":5335,"Ġinvestigation":5336,"Ġdescription":5337,"Be":5338,"Pr":5339,"Ġstock":5340,"Ġfish":5341,"Ġ((":5342,"api":5343,"Ġwithdraw":5344,"Ġassume":5345,"Ġfamilies":5346,"Ġsell":5347,"section":5348,"Ġregister":5349,"ows":5350,"ĠCan":5351,"Ġbond":5352,"Ġmac":5353,"Ġrul":5354,"parent":5355,"grad":5356,"ĠBu":5357,"Ġ-->":5358,"Ġbillion":5359,"Ġserve":5360,"Ġdomestic":5361,"Ġdenied":5362,"Ġexception":5363,"Ġspent":5364,"range":5365,"Ġsummary":5366,"Ġcareer":5367,"Ġkids":5368,"Ġinflu":5369,"igration":5370,"Ġnuclear":5371,"Reg":5372,"izer":5373,"ĠSecretary":5374,"ĠFigure":5375,"Ġtested":5376,"Ġplans":5377,"avascript":5378,"Ġult":5379,"Ġobviously":5380,"Ġshoot":5381,"Ġvisual":5382,"going":5383,"lem":5384,"Ġtomorrow":5385,"yr":5386,"dec":5387,"Ġkitchen":5388,"Ġhem":5389,"Ġnice":5390,"Ġpossession":5391,"ĠSpec":5392,"TT":5393,"Code":5394,"Rep":5395,"Ġchallenge":5396,"ĠDirector":5397,"Ġapart":5398,"Ġmill":5399,"ignment":5400,"Ġconcept":5401,"ĠPost":5402,"aper":5403,"Ġedge":5404,"Ġcontrovers":5405,"Ġnil":5406,"Val":5407,"Ġsurgical":5408,"Ġsouth":5409,"Ġcompliance":5410,"Dec":5411,"Ġnames":5412,"Ġaffect":5413,"âĢ¢":5414,"Ġarm":5415,"Ġshift":5416,"Count":5417,"option":5418,"Ġsolutions":5419,"Comp":5420,"pol":5421,"Ġgrowing":5422,"ainer":5423,"bottom":5424,"rest":5425,"iment":5426,"Ġsexual":5427,"Build":5428,"Ġbranch":5429,"cin":5430,"ĠDonald":5431,"Ġofficials":5432,"Ġdemand":5433,"Ġstudent":5434,"Ġlip":5435,"Ġthick":5436,"Ġexperimental":5437,"doc":5438,"Ġunnecessary":5439,"Cs":5440,"Ġexplain":5441,"Ġentry":5442,"Ġplate":5443,"icians":5444,"ethyl":5445,"Ġut":5446,"Ã£o":5447,"Ġpark":5448,"Fl":5449,"Group":5450,"ager":5451,"olean":5452,"TS":5453,"Ġleads":5454,"Style":5455,"Ġunless":5456,"aud":5457,"ĠIndian":5458,"ĠDon":5459,"Ġcup":5460,"Ġweapons":5461,"Ġmodule":5462,"Ġaggreg":5463,"Ġnone":5464,"Ġkill":5465,"Ġautom":5466,"src":5467,"QL":5468,"Ġraised":5469,"Ġmetal":5470,"Ġpowers":5471,"Ġtaste":5472,"Ġrare":5473,"hy":5474,"Ġwants":5475,"Ġmotor":5476,"mar":5477,"ĠTV":5478,"Ġcouldn":5479,"Big":5480,"Ġkilled":5481,"Ġconstitutional":5482,"Ġsuccessful":5483,"Ġcycle":5484,"Ob":5485,"Ġencounter":5486,"ĠAdditionally":5487,"Ġclick":5488,"Ġkin":5489,"iled":5490,"Image":5491,"../":5492,"sch":5493,"Ð¾":5494,"pping":5495,"Ġcompar":5496,"Ġstudied":5497,"Ġwa":5498,"Ġmolecular":5499,"Ġtypically":5500,"agement":5501,"Ġspatial":5502,"Ġclasses":5503,"Ġdiet":5504,"Ġ(\"":5505,"Ġ33":5506,"Ġchrom":5507,"ĠYour":5508,"Ġagreed":5509,"Ġchurch":5510,"Model":5511,"Ġwhereas":5512,"det":5513,"KE":5514,"ĠOther":5515,"ĠAdminist":5516,"Ġagent":5517,"Ġprobability":5518,"ĠÎ¼":5519,"Ġmedicine":5520,"ĠEr":5521,"Ġ(!":5522,"Ġchem":5523,"asts":5524,"Ġinterface":5525,"ĠMost":5526,"???????????????????????????":5527,"Â»Â":5528,"kay":5529,"Ġnoticed":5530,"ĠAnt":5531,"Ġdiameter":5532,"ĠNevertheless":5533,"\"></":5534,"Ġcombined":5535,"open":5536,"MO":5537,"eps":5538,"arp":5539,"Ġcrystal":5540,"Ġdismiss":5541,"Ġvertical":5542,"Ġaffected":5543,"dir":5544,"space":5545,"Ġtools":5546,"Ġrelation":5547,"Yes":5548,"ĠBank":5549,"Ġseed":5550,"Ġvote":5551,"ĠmiR":5552,"uted":5553,"Ġoperations":5554,"gram":5555,"cer":5556,"Ġ34":5557,"Ġdro":5558,"ĠDivision":5559,"Ġsugges":5560,"Î±":5561,"PT":5562,"Ġcommit":5563,"({\\":5564,"ĠSociety":5565,"create":5566,"kg":5567,"/**":5568,"Ġ2005":5569,"Ent":5570,"lear":5571,"Ġdiagnosis":5572,"anned":5573,"Ġdiff":5574,"Ġpan":5575,"earch":5576,"Ġminor":5577,"itz":5578,"&\\":5579,"ĠArm":5580,"Ġreached":5581,"Ġcontrols":5582,"Ġmental":5583,"Ġinduced":5584,"ka":5585,"Ġefforts":5586,"ĠSub":5587,"Ġencour":5588,"ĠAttorney":5589,"Ġsustain":5590,"Ġguy":5591,"RS":5592,"Ġcauses":5593,"Ġimpro":5594,"Ġcommunication":5595,"ĠEducation":5596,"ialog":5597,"Ġtransl":5598,"Ġcholesterol":5599,"abil":5600,"Ġdrink":5601,"Ġsentence":5602,"Ġdiscipl":5603,"ĠPlaintiff":5604,"ĠGroup":5605,"ĠRel":5606,"Ġconver":5607,"ymptom":5608,"Ġdiscussion":5609,"Ġhandle":5610,"Ġimplic":5611,"ectors":5612,"ĠNS":5613,"ĠTest":5614,"AND":5615,"Ġdied":5616,"orks":5617,"Well":5618,"Ġlock":5619,"mathsf":5620,"Att":5621,"xx":5622,"Ġbrowser":5623,"hibits":5624,"Ġcorrelation":5625,"ench":5626,"Token":5627,"CM":5628,"more":5629,"Ġcalls":5630,"Ġalpha":5631,"Ġes":5632,"after":5633,"Why":5634,"Ġjudge":5635,"ĠOklahoma":5636,".*":5637,"Message":5638,"ĠKorea":5639,"arb":5640,"Ġreligion":5641,"Ġtraditional":5642,"ilt":5643,"types":5644,"Ġkept":5645,"Ġcollected":5646,"ĠAir":5647,"ĠÃĹ":5648,"wards":5649,"ĠNote":5650,"Ġmist":5651,"asp":5652,"CI":5653,"Ġestimated":5654,"Ġanswers":5655,"Ġsurveillance":5656,"ldots":5657,"Ġdisadvant":5658,")?":5659,"Ġcast":5660,"Ġintroduced":5661,"Ġrisks":5662,"atabase":5663,"Ġwouldn":5664,"Ġquantum":5665,"Ġcertainly":5666,"evel":5667,"ographic":5668,"ĠGreen":5669,"ĠRef":5670,"build":5671,"aved":5672,"ometry":5673,"Ġexplained":5674,"Ġtheorem":5675,"ĠGNU":5676,"}-":5677,"aren":5678,"Do":5679,"inflammatory":5680,"local":5681,"Ġevolution":5682,"Ġ38":5683,"Ġstatute":5684,"Ġbattery":5685,"Ġnovel":5686,"opic":5687,"assert":5688,"Per":5689,"Ġgone":5690,"ĠAS":5691,"Ġolder":5692,"Ġfarm":5693,"Ġfeet":5694,"itional":5695,"BI":5696,"OG":5697,"ĠSuper":5698,"Ġadapt":5699,"mic":5700,"Ġprotection":5701,"Ġprotect":5702,"Ġprejud":5703,"can":5704,"Ġtal":5705,"ĠDec":5706,"Ãĥ":5707,"Ġoccurred":5708,"mbox":5709,"ship":5710,"Ġsun":5711,"Ġguess":5712,"Ġformat":5713,"inner":5714,"ĠGen":5715,"Ġresponses":5716,"prop":5717,"oub":5718,"ications":5719,"Ġprotected":5720,"ĠNOT":5721,"Ġoscill":5722,"agon":5723,"Ġwhom":5724,"iot":5725,"Our":5726,"DR":5727,"BL":5728,"ebug":5729,"resp":5730,"}}_{":5731,"!\\!\\!\\!\\!\\!\\!":5732,"While":5733,"model":5734,"ĠNews":5735,".](":5736,"ĠSet":5737,"Ġrequirements":5738,"Ġapoptosis":5739,"Ġabsence":5740,"Ġoffers":5741,"Ġrecords":5742,"lects":5743,"ptr":5744,"page":5745,"Ġpiece":5746,"Ġfamous":5747,"stract":5748,"See":5749,"ĠCode":5750,"Ġoccup":5751,"isation":5752,"ston":5753,"ĠReturn":5754,"Ġsrc":5755,"hel":5756,"Ġ42":5757,"Conn":5758,"Ġremaining":5759,"Ac":5760,"-------":5761,"Ġpursuant":5762,"Ġserved":5763,"Ġglass":5764,"Ġelectric":5765,"GL":5766,"amed":5767,"Ġderived":5768,"Service":5769,"sequently":5770,"Ġgeneration":5771,"icks":5772,"Ġeconomy":5773,"pe":5774,"ny":5775,"Ġlaws":5776,"organ":5777,"čĊĉ":5778,"cel":5779,"Ġsummer":5780,"Ã¨":5781,"Ġsurv":5782,"ĠPre":5783,"Ġgrand":5784,"ĠEast":5785,"uate":5786,"Ġhttps":5787,"Ġrepro":5788,"flow":5789,"icensed":5790,"ĠBlack":5791,"Ġlit":5792,"Ġcreating":5793,"Ġvillage":5794,"Ġsubjects":5795,"PP":5796,"rence":5797,"Ġembedded":5798,"Ġreceptors":5799,"mathscr":5800,"Ġpool":5801,"**]{},":5802,"Ġexternal":5803,"User":5804,"Ġsymmet":5805,"Ġlanguages":5806,"**)":5807,"Ġeat":5808,"ĠAppeals":5809,"ĠSur":5810,"ATION":5811,"^âĪĴ":5812,"wood":5813,"Ġorganization":5814,"Ġtempor":5815,"Ġdimension":5816,"Ġheterogene":5817,"Ġproposal":5818,"(&":5819,"ologies":5820,"ĠSte":5821,"Ġchain":5822,"ca":5823,"Ġextent":5824,"âĢĬ":5825,"kin":5826,"eters":5827,"Ġideas":5828,"Ġintended":5829,"Ġsat":5830,"Ġscience":5831,"Ġstream":5832,"Ġmechanisms":5833,"anged":5834,"ĠURL":5835,"ds":5836,"Ġindustrial":5837,"mem":5838,"rough":5839,"Ġuniverse":5840,"NT":5841,"prime":5842,"Method":5843,"imb":5844,"Ġsing":5845,"prot":5846,"ini":5847,"Ġexec":5848,"Ġsmoking":5849,"ĠEach":5850,"Ġanimal":5851,"Ġbelong":5852,"Ġthank":5853,"Target":5854,"Ġturning":5855,"Ġcomfortable":5856,"Ġsoft":5857,"Ġvirus":5858,"Ġpunish":5859,"}}{":5860,"005":5861,"struction":5862,"Ġadding":5863,"Ġdecreased":5864,"âĢ²":5865,"Ġsurfaces":5866,"Ġchamber":5867,"Ġdischarge":5868,"à¤":5869,"John":5870,"ĠAL":5871,"Ġreflect":5872,"}}}":5873,"Ġinterests":5874,"Ġschools":5875,"onymous":5876,"Ġdisapp":5877,"ĠJewish":5878,"otimes":5879,"Ġdirector":5880,"Ġcompensation":5881,"aim":5882,"Ġlargest":5883,"Ġefficacy":5884,"**,":5885,"Ġvulner":5886,"Box":5887,"ĠRE":5888,"ĠLeg":5889,"First":5890,"Ġcharacters":5891,"Ġmissing":5892,"ĠOver":5893,"ĠBitcoin":5894,"Ġteacher":5895,"Ġjava":5896,"ĠOrgan":5897,"Ġproperly":5898,"jpg":5899,"Ġvan":5900,"ĠFOR":5901,"Ġcoefficient":5902,"CG":5903,"Ġcapt":5904,"ĠOhio":5905,"ato":5906,"iscussion":5907,"Ġdiversity":5908,"Can":5909,"Ġ()":5910,"Ġpregnancy":5911,"Ġloop":5912,"force":5913,"Ġholding":5914,"specific":5915,"Ġextreme":5916,"Property":5917,"System":5918,"ĠCarolina":5919,"Ġdiagnostic":5920,"Ġvent":5921,"Ġinvolvement":5922,"0001":5923,"ĠEq":5924,"Ġfeeling":5925,"Ġoptical":5926,"Ġtechnique":5927,"ĠAny":5928,"ĠWH":5929,"hi":5930,"Ġalgorithm":5931,"lob":5932,"Ġshared":5933,"Ġstimulation":5934,"Ġconsumers":5935,"Ġpermanent":5936,"Ġdry":5937,"ĠJackson":5938,".[@":5939,"Header":5940,"rite":5941,"ĠGoogle":5942,"Phi":5943,"Ġcred":5944,"čĊĠĠĠĠĠĠĠĠĠĠĠ":5945,"\\|":5946,"Ġauthority":5947,"ĠDE":5948,"while":5949,"Ġprepare":5950,"Ġ2004":5951,"iny":5952,"func":5953,"Ġadequate":5954,"Rev":5955,"lt":5956,"Ġprogression":5957,"Ġnet":5958,"Ġmoments":5959,"FI":5960,"main":5961,"Ġteams":5962,"iling":5963,"Ġviews":5964,"Ġrise":5965,"Ġcytok":5966,"ĠMo":5967,"tex":5968,"Ġgold":5969,"Ġcrime":5970,"However":5971,"Ġradio":5972,"({":5973,"Ġthread":5974,"Ġpor":5975,"Ġfirm":5976,"TO":5977,"aced":5978,"Ġalleg":5979,"Ġvolunte":5980,"Ġexcluded":5981,"Ġapplies":5982,"Ġdescribe":5983,"Ġdriver":5984,"Ġgain":5985,"ĠRem":5986,"Ġopening":5987,"orb":5988,"Ġprojects":5989,"ĠFROM":5990,"Ġwind":5991,"ĠEv":5992,"ugin":5993,"Ġfloor":5994,"else":5995,"Ġanxiety":5996,"2015":5997,"Ġvictory":5998,"ĠTwo":5999,"lands":6000,"Ġsales":6001,"TA":6002,"ĠJames":6003,"ĠStreet":6004,"Ġerrors":6005,"Ġec":6006,"edge":6007,"Ġresolution":6008,"aid":6009,"Ġcharged":6010,"ouch":6011,"\").":6012,"Ġconspiracy":6013,"Ġ-------------":6014,"Ġ${":6015,"arian":6016,"ĠBoston":6017,"ĠAuthor":6018,"Ġdecrease":6019,"Ġoperating":6020,"rey":6021,"Ġreve":6022,"ĠCA":6023,"Ġoutcome":6024,"Ġmel":6025,"rete":6026,"amer":6027,"Ġoffered":6028,"Ġsymbol":6029,"$(":6030,"Ġelim":6031,"ned":6032,"PI":6033,"valid":6034,"including":6035,"armaceutical":6036,"Ġauto":6037,"Ġexpert":6038,"Ġagents":6039,"ells":6040,"Ġthousand":6041,"Ġacademic":6042,"SU":6043,"Ġfrag":6044,"Ġcoverage":6045,"Ġcontained":6046,"Ġsupply":6047,"how":6048,"inder":6049,"Ġreturns":6050,"Ġelectron":6051,"Ġentered":6052,"Ġspokes":6053,"âĢĿ.":6054,"Ġsequences":6055,"ada":6056,"message":6057,"result":6058,"oman":6059,"ĠStat":6060,"ĠPeople":6061,"Ġplants":6062,"points":6063,"aterials":6064,"Ġremainder":6065,"ancing":6066,"Call":6067,"Ġexistence":6068,"amily":6069,"ĠCommun":6070,"Ġgenetic":6071,"etween":6072,"Ġhyp":6073,"Ġsuscept":6074,"bor":6075,"Ġdigit":6076,".</":6077,"just":6078,"ename":6079,"Ġoblig":6080,"ĠDespite":6081,"Ġagency":6082,"Ġimportance":6083,"ĠMor":6084,"Ġowners":6085,"care":6086,"Ġinteractions":6087,"Ġguys":6088,"Ġoverride":6089,"Ġspeech":6090,"Ġcold":6091,"Ġpossibility":6092,"web":6093,"Ġconserv":6094,"ady":6095,"Ġmortgage":6096,"ĠBritain":6097,"Ġcardiac":6098,"mail":6099,"Ġbool":6100,"ĠCanada":6101,"oted":6102,"Ġrank":6103,"Ġepithelial":6104,"Ġhabit":6105,"ĠSuch":6106,"ears":6107,"omething":6108,"Param":6109,"Click":6110,"ĠAmendment":6111,"Ġannounce":6112,"ĠCouncil":6113,"query":6114,"ĠHenry":6115,"ĠĊĠ":6116,"Ġsy":6117,"apped":6118,"Line":6119,"Ġmetabolic":6120,"pers":6121,"Ġconclusion":6122,"Ġinterested":6123,"Ġprofile":6124,"Ġinteger":6125,"Ġstars":6126,"Ġpolymorph":6127,"}+":6128,"ĠClass":6129,"default":6130,"ocol":6131,"TER":6132,"idget":6133,"ports":6134,"Ġpatterns":6135,"ORD":6136,"Ġmeant":6137,"PH":6138,"Ġvaluable":6139,"Ġaren":6140,"Ref":6141,"NE":6142,"ĉĉ":6143,"abilities":6144,"Ġshop":6145,"amine":6146,"dots":6147,"anges":6148,"Ġrecover":6149,"Ġtrend":6150,"Ġrevenue":6151,"Ġconfirm":6152,"Ġ};":6153,"Ġidentity":6154,"Ġdebt":6155,"last":6156,"Ġdiscrimination":6157,"Ġinsulin":6158,"ĠCa":6159,"ĠPARTICULAR":6160,"Ġprison":6161,"--------------------------------------------------------------------------------------":6162,"ĠBoth":6163,"ĠService":6164,"ĠUnder":6165,"ested":6166,"Ġdiagram":6167,"Ġruns":6168,"select":6169,"iveness":6170,"Ġbutton":6171,"Ġrecon":6172,"][":6173,"Ġabandon":6174,"Ġcontrolled":6175,"Ġconvert":6176,"rs":6177,"omes":6178,"ili":6179,"ĠÂ£":6180,"eful":6181,"Ġreferred":6182,"illa":6183,"Ġstatements":6184,"ĠCommonwealth":6185,"!--":6186,"Ġreality":6187,"refer":6188,"ĠWomen":6189,"Äģ":6190,"Some":6191,"Ġsignals":6192,"Ġpseud":6193,"Ġcomposition":6194,"Ġ+=":6195,"ĠBrazil":6196,"Ġens":6197,"othing":6198,"Ġ2019":6199,"QU":6200,"^,":6201,"ĠCompany":6202,"ello":6203,"Ġdistributions":6204,"Ġmouse":6205,"ensor":6206,"eger":6207,"Ġindicates":6208,"ĠDel":6209,"Ġstable":6210,"Ġgenerate":6211,"ĠHT":6212,"Ġafternoon":6213,"Ġlattice":6214,"Ġgarden":6215,"Ġdose":6216,"cles":6217,"Ġjourney":6218,"cs":6219,"han":6220,"Ġwelcome":6221,"Ġverdict":6222,"Ġstatutory":6223,"istent":6224,"Ġholds":6225,"Ġhel":6226,"ĠNone":6227,"Ġeduc":6228,"Ġbreath":6229,"dist":6230,"current":6231,"elled":6232,"osp":6233,"Ġcontinuous":6234,"Ġclin":6235,"otype":6236,"Ġom":6237,"Any":6238,"Ġseemed":6239,"event":6240,"Ġsecondary":6241,"ĠPD":6242,"Ġapprec":6243,"Ġring":6244,"Ġgauge":6245,"Ġinquiry":6246,")/(":6247,"Ġdeveloping":6248,"font":6249,"Ġfinish":6250,"Ġyesterday":6251,"Ġ\"[":6252,"Ġendothelial":6253,"ĠOlymp":6254,"iable":6255,"Ġsupplement":6256,"ĠER":6257,"ĠOut":6258,"stant":6259,"Ġfinite":6260,"ĠProfessor":6261,"})$":6262,"ĠSecond":6263,"win":6264,"olf":6265,"Ġrestric":6266,"ien":6267,"null":6268,"CTION":6269,"]),":6270,"Ġquick":6271,"Ġmaintain":6272,"Ġexpand":6273,"Ġsquare":6274,"Ġmeasurements":6275,"Ġchronic":6276,"Ġ500":6277,"ĠDet":6278,"MT":6279,"Ġquery":6280,"look":6281,"Ġstroke":6282,"Ġhappens":6283,"yg":6284,"aa":6285,"uation":6286,"Ġbelieves":6287,"Ġexcess":6288,"Source":6289,"Ġpenalty":6290,"Ġnanoparticles":6291,"Ġabuse":6292,"Ġnoise":6293,"Ġpure":6294,"Ġempty":6295,"ĠMac":6296,"Ġlatter":6297,"ĠDay":6298,"Ġfem":6299,"isms":6300,"Us":6301,"ĠWil":6302,"Finally":6303,"itrogen":6304,"ĠUkraine":6305,"ĠAT":6306,"xml":6307,"ND":6308,"Ġconfiguration":6309,"Ġtransmission":6310,"Ġhouses":6311,"Ġrejected":6312,"Ġboy":6313,"cp":6314,"ya":6315,"andard":6316,"Ġleader":6317,"Ġenvironmental":6318,"anes":6319,"ads":6320,"Url":6321,"Ġdownload":6322,"/\\":6323,"Ġhighlight":6324,"128":6325,"child":6326,"Ġcharges":6327,"101":6328,"aneous":6329,"Ġpartners":6330,"Ġimmune":6331,"Ġflex":6332,"Ġspot":6333,"Ġrepresentation":6334,"Ġextension":6335,"ĠGaussian":6336,"Ġcovered":6337,"util":6338,"inations":6339,"play":6340,"ĠEvery":6341,"UD":6342,"Ġpowder":6343,"Ġfavour":6344,"fs":6345,"Ġliver":6346,"ĠToronto":6347,"height":6348,"Ġkernel":6349,"ker":6350,"Ġbasketball":6351,"Ġestimate":6352,"ban":6353,"Ġ_{":6354,")[":6355,"Ġknows":6356,"Ġwheel":6357,"itions":6358,"Ġdigital":6359,"Ġborn":6360,"ba":6361,"ĠPress":6362,"rated":6363,"Ġ2003":6364,"Ġchicken":6365,"IST":6366,"ĠAtlant":6367,"2014":6368,"Ġexamples":6369,"dependent":6370,"Ġsession":6371,"ĠToday":6372,"ĠKe":6373,"night":6374,"ĠBusiness":6375,"Ġapproved":6376,"ette":6377,"SM":6378,"Ġcohort":6379,"ln":6380,"Ġ------------------":6381,"Ġadult":6382,"ĠCambridge":6383,"Ġoccurs":6384,"Ġrich":6385,"vey":6386,"Off":6387,"}.":6388,"Ġcollege":6389,"Ġlung":6390,"Ġwarm":6391,"ummary":6392,"Ġahead":6393,"da":6394,"Ġdoctors":6395,"ĠCR":6396,"napshot":6397,"ĊĊĠĠĠĠĠĠ":6398,"apache":6399,"Ġprecisely":6400,"clude":6401,"Ġclub":6402,"Ġpapers":6403,"Ġpharmac":6404,"property":6405,"ĠMA":6406,"Bl":6407,"ĠBre":6408,"ository":6409,"Ġrestricted":6410,"Ġcentury":6411,"icate":6412,"**]{}":6413,"******":6414,"house":6415,"Ġmeasuring":6416,"fold":6417,"ĠAre":6418,"oney":6419,"Ġadministrative":6420,"Ġfifth":6421,"aped":6422,"Ð°Ð":6423,"MI":6424,"etch":6425,"ĠAmericans":6426,"ki":6427,"Ġopened":6428,"Ġincubated":6429,"Ġhelped":6430,"po":6431,"ĠMiss":6432,"Ġscene":6433,"icted":6434,"Don":6435,"ĠChurch":6436,"Ġarguments":6437,"Ġsale":6438,"rd":6439,"ĠJerusalem":6440,"Ġevaluated":6441,"Query":6442,"Ġelevated":6443,"Ġbreast":6444,"Ġserum":6445,"ĠCorporation":6446,"ĠWhy":6447,"ĠChristmas":6448,"Ġ75":6449,"ĠRead":6450,"Ġnamely":6451,"sur":6452,"ĠMet":6453,"Ġformula":6454,"Ġpercentage":6455,"ĠChristian":6456,"Ġextended":6457,"Ġindependence":6458,"Ġ39":6459,"ĠUnion":6460,"ĠSm":6461,"Ġnaturally":6462,"ĠBo":6463,"ĠDep":6464,"ÃĹ":6465,"Ġappoint":6466,"'.":6467,"eek":6468,"Ġcalling":6469,"2013":6470,"Config":6471,"ICENSE":6472,"Dis":6473,"num":6474,"Ġwood":6475,"Ġleaving":6476,"zeta":6477,"Ġregulation":6478,"Ġinner":6479,"ĠMal":6480,"Ġfrozen":6481,"According":6482,"Ġimplementation":6483,"ĠBel":6484,"Î¼":6485,"ĠSH":6486,"Ġassay":6487,"Sub":6488,"ORT":6489,"åı":6490,"Ġfluid":6491,"End":6492,"Ġallowing":6493,"Ġhist":6494,"ĠBay":6495,"Ġrecorded":6496,"MR":6497,"Ġexhibit":6498,"ĠCivil":6499,"Ġsigned":6500,"Ġmostly":6501,"ĠFinally":6502,"Ġund":6503,"operative":6504,"Ġprim":6505,"format":6506,"Ġstre":6507,"Ġvideos":6508,"avity":6509,"Ġowner":6510,"Ġterror":6511,"Ġfuel":6512,"Ġconcerns":6513,"Ġspecified":6514,"ĠCatholic":6515,"oms":6516,"Ġreceiving":6517,"Ċĉĉĉĉĉ":6518,"cr":6519,"dim":6520,"Ġassessment":6521,"erry":6522,"Ġraise":6523,"Ġder":6524,"ĠLeague":6525,"Ġmachines":6526,"Ġleaves":6527,"ĠEnergy":6528,"ĠÃł":6529,"Window":6530,"ulating":6531,"ĠPort":6532,"mt":6533,"ĠGermany":6534,"iÃ³n":6535,"ĠâĤ¬":6536,"ella":6537,"Button":6538,"Ġwidespread":6539,"ifications":6540,"Ġlearned":6541,"ï¼":6542,"Co":6543,"Ġintellectual":6544,"ĠâĢ¦":6545,"Ġwire":6546,"Ġcustomers":6547,"ĠDuring":6548,"Ġrepresented":6549,"Ġinequality":6550,"match":6551,"?âĢĿ":6552,"ĠWisconsin":6553,"Ġunderlying":6554,"Ġhaven":6555,"endif":6556,"dt":6557,"Ġexamined":6558,"Ġcurve":6559,"ĠGold":6560,"Ġtaught":6561,"Ġsuit":6562,"utor":6563,"ude":6564,"Ġbooks":6565,"ĠUp":6566,"Ġexact":6567,"Ġgreatest":6568,"Ġtrain":6569,"Ġmaster":6570,"Ġtestified":6571,"gt":6572,"you":6573,"standing":6574,"Ġgastrointestinal":6575,"$$\\":6576,"ĠBrown":6577,"ĠMany":6578,"Ġpowerful":6579,"icity":6580,"Ġgoals":6581,"json":6582,"supplementary":6583,"ĠCr":6584,"Ġjoint":6585,"Ġ{{\\":6586,")*(":6587,"nav":6588,"ripts":6589,"itative":6590,"Ġscheduled":6591,"Ġconnect":6592,"Le":6593,"has":6594,"Ġarch":6595,"Ġdetail":6596,"arily":6597,"men":6598,"Ġdepends":6599,"Ġdetect":6600,"ASS":6601,"ĠIran":6602,"Ġscientists":6603,"Ġbow":6604,"Ġopinions":6605,"Ġfilms":6606,"Ġcandidate":6607,"weight":6608,"Ġwww":6609,"Ġpositions":6610,"Ġwash":6611,"oded":6612,"edu":6613,"Ġgly":6614,"Ġcat":6615,"letion":6616,"Ġmixed":6617,"Ġpurchase":6618,"FS":6619,"udd":6620,"esh":6621,"ĠExp":6622,"ek":6623,")=\\":6624,"Ġinvestigated":6625,"Ġstandards":6626,"Ġaircraft":6627,"Ġplane":6628,"first":6629,"world":6630,"Ġpert":6631,"Ġbio":6632,"oprotein":6633,"Ġviolence":6634,"Ġeventually":6635,"Ġ2001":6636,"lang":6637,"Ġachieved":6638,"coming":6639,"Ġ64":6640,"Ġvary":6641,"ĠSal":6642,"Ġlimitations":6643,"ĠForm":6644,"lets":6645,"Ġwestern":6646,"ERT":6647,"ĠCEO":6648,"even":6649,"Ġdesc":6650,"Ġchanging":6651,"istant":6652,"ĠArt":6653,"ĠScience":6654,"Ġtypical":6655,"cur":6656,"Ġincident":6657,"Ġ44":6658,"ributes":6659,"Ġspring":6660,"Ġearth":6661,"ĠUsing":6662,"Ġshut":6663,"{{":6664,"Ġpolar":6665,"Ġvacc":6666,"Ġcontemporary":6667,"Ġrac":6668,"Ġtransplant":6669,"Ġsupposed":6670,"Ġathlet":6671,"ãĢģ":6672,"Stream":6673,"Ġcompounds":6674,"XX":6675,"status":6676,"bal":6677,"emp":6678,"FP":6679,"ĠCollege":6680,"Are":6681,"}=\\":6682,"Ġattorneys":6683,"ĠYoung":6684,"Return":6685,"ico":6686,"asure":6687,"ERS":6688,"ĠWeb":6689,"Ġjournal":6690,"Ġupdates":6691,"Ġgranted":6692,"button":6693,"ilateral":6694,"Ġmuscle":6695,"Ġbelief":6696,"std":6697,"Ġevaluation":6698,"ĠHIV":6699,"annel":6700,"ĠIII":6701,"Ġfraction":6702,"Ġenthusi":6703,"Ġinvestment":6704,"MM":6705,"Ġexhaust":6706,"ĠTR":6707,"Ġbleeding":6708,"Ġantioxid":6709,"300":6710,"ĠWhich":6711,"Ġfourth":6712,"Br":6713,"These":6714,"ancer":6715,"Ġancient":6716,"2017":6717,"Ġpathway":6718,"Ġplurality":6719,"ĠDavis":6720,"ĠEngine":6721,"Device":6722,"inite":6723,"iller":6724,"Ġweapon":6725,"sin":6726,"2012":6727,"akers":6728,"Ġisolated":6729,"Ġcrazy":6730,"FC":6731,"FR":6732,"Ġassoci":6733,"ĠCONDITIONS":6734,"Ġsch":6735,"ĊĠĠĠĠĠĠĠĠĠĠĠĠĠĠĠĠĠ":6736,"isher":6737,"Ġvascular":6738,"Ġfunds":6739,"ĠProposition":6740,"Ġinvalid":6741,"ĠSpanish":6742,"Mintage":6743,"ĠPhil":6744,"Ġ55":6745,"Ġdesired":6746,"msgid":6747,"olicy":6748,"Ġlawyer":6749,"ĠPsych":6750,"Ġreplic":6751,"Ġeasier":6752,"ĠMiami":6753,"Ġrespiratory":6754,"ĠSN":6755,"ĠPe":6756,"ias":6757,"Ġpersonnel":6758,"ĠMatthew":6759,"Ġrelief":6760,"Number":6761,"Ġabsorption":6762,"Ġspend":6763,"\\{":6764,"ocytes":6765,"ĠEgypt":6766,"2016":6767,"aming":6768,"ĠItalian":6769,"Input":6770,"Ġsections":6771,"Ġindeed":6772,"Just":6773,"Ġskills":6774,"Ġconclude":6775,"Action":6776,"rot":6777,"Ġfans":6778,"ĠLib":6779,"Ġstrongly":6780,"Ġmorph":6781,"Ġorientation":6782,"Ġfluctuations":6783,"ĠOpen":6784,"Ġ2002":6785,"Ġdetailed":6786,",'":6787,"ao":6788,"ĊĠĠĠĠĠĠĠĠĠĠĠĠĠĠĠĠĠĠĠĠĠĠĠĠĠĠĠĠĠĠĠĠĠĠĠĠĠĠĠĠĠĠĠĠĠĠĠĠ":6789,"Ġcash":6790,"ĠRoyal":6791,"msgstr":6792,"Then":6793,"ura":6794,"Ġweren":6795,"Ġdysfunction":6796,"Ġnodes":6797,"Ġacts":6798,"law":6799,"Ġ65":6800,"ĠParty":6801,"Ġgoverning":6802,"Ġseeing":6803,"ĠYes":6804,"Ġcoronavirus":6805,"ĠSE":6806,"Ġsodium":6807,"nutrients":6808,"Ġrock":6809,"ĠMem":6810,"Ġroughly":6811,"Ġfol":6812,"Ġrevers":6813,"osh":6814,"Ġafford":6815,"rog":6816,"ertain":6817,"cor":6818,"Ġflat":6819,"ih":6820,"Ġdeviation":6821,"Ġcigaret":6822,"most":6823,"Ġcond":6824,"Ġmeasurement":6825,"ĠTom":6826,"Ġcluster":6827,"Ġconsidering":6828,"Ġconven":6829,"change":6830,"Ġequations":6831,"Ġintervention":6832,"Ġcommitted":6833,"Ġsimpl":6834,"otes":6835,"Ġnav":6836,"Ġseasons":6837,"ĠAR":6838,"Ġstories":6839,"ipped":6840,"war":6841,"ĠHill":6842,"ĠBen":6843,"closure":6844,"Ġplays":6845,"LS":6846,"uint":6847,"Ġconsult":6848,"ĠRussia":6849,"Ġflav":6850,"ĠVictor":6851,"ĠCI":6852,"mid":6853,"Ġdirected":6854,"Ġconclusions":6855,"Ã¶":6856,"ĊĊĊĊ":6857,"${":6858,"olt":6859,"sg":6860,"small":6861,"čĊĠĠĠĠĠ":6862,"ometric":6863,"ERROR":6864,"00000":6865,"Ġcategory":6866,"Ġwaiting":6867,"Ġdispute":6868,"UE":6869,"Note":6870,"Ġpossibly":6871,"adding":6872,";\\":6873,"2011":6874,"Ġcyt":6875,"Ġchecks":6876,"Ġforced":6877,"Ġpayment":6878,"Ġship":6879,"AGE":6880,"Ġsanctions":6881,"Left":6882,"Ġce":6883,"Bar":6884,"Ã¡Âº":6885,"ĠNor":6886,"Ġdocuments":6887,"Ġtobacco":6888,"Ġstreet":6889,"Ġdivisor":6890,"Ġlisted":6891,"ces":6892,"Ġagricult":6893,"ĠAp":6894,"2010":6895,"Ġcomplaint":6896,"bound":6897,"itudes":6898,"Ġinterventions":6899,"_{{\\":6900,"Ġmanager":6901,"BD":6902,"ä»":6903,"Ġangle":6904,"dr":6905,"ĠLord":6906,"NO":6907,"ĠWell":6908,"Ġminim":6909,"Ġfocused":6910,"Ġlose":6911,"android":6912,"mut":6913,"Ġthanks":6914,"istory":6915,"ĠĠĠĠĠĠĠĠĠĠĠĠĠĠĠĠĠĠĠĠĠ":6916,"Ġcryptocurren":6917,"Ġadvantages":6918,"Ġlongitudinal":6919,")\"":6920,"Ġyes":6921,"uls":6922,"ĊĠĠĠĠĠĠĠĠĠĠĠĠ":6923,"Ġversus":6924,"ĠGo":6925,"Ġdepending":6926,"TE":6927,"uf":6928,"process":6929,"Ġresulted":6930,"Ġmanifold":6931,"Ġlik":6932,"PRO":6933,"iance":6934,"Ġforth":6935,"Ġaccident":6936,"Ġstanding":6937,"ĠFree":6938,"Ġthorough":6939,"clusive":6940,"Client":6941,"ĠSam":6942,"Ġrefuge":6943,"star":6944,"Ġpal":6945,"omer":6946,"Ġpneumonia":6947,"ander":6948,"INE":6949,"006":6950,"rive":6951,"ashed":6952,"Ġuint":6953,"çĶ¨":6954,"iral":6955,"vubuntor":6956,"Ġaccum":6957,"Ġapproaches":6958,"ortion":6959,"Ġ41":6960,"Ġplanning":6961,"AY":6962,"Ġinvasion":6963,"Ġstored":6964,"}}^":6965,"Ġscan":6966,"Ġfunding":6967,"Content":6968,"Ã¼":6969,"000000000000000000000000":6970,"ĠSD":6971,"ĠGl":6972,"ĠPC":6973,"Ġburden":6974,"Back":6975,"Ġdamages":6976,"edy":6977,"Ġmanufacturer":6978,"Ġadults":6979,"associated":6980,"Ġobservations":6981,"Ġtwice":6982,"Ġshock":6983,"ĠBur":6984,"springframework":6985,"Ġrats":6986,"Ġdetermination":6987,"Ġsignaling":6988,"Provider":6989,"oles":6990,"GE":6991,"Ġremoving":6992,"ĠJavaScript":6993,"ĠmiRNA":6994,"Ġfees":6995,"ĠAlex":6996,"Ġmodified":6997,"Ġinstant":6998,"ĠFe":6999,"Ġcalcium":7000,"Ġinvestigate":7001,"Ġinher":7002,"Am":7003,"ĠFile":7004,"za":7005,"ĠMary":7006,"uns":7007,"Which":7008,"negative":7009,"Result":7010,"END":7011,"\"),":7012,"Ġrelationships":7013,"Gen":7014,"Ġoffense":7015,"Ġresource":7016,"Ġemployed":7017,"ÂłÂłÂł":7018,"Ġhelps":7019,"empt":7020,"Ġtrip":7021,"layout":7022,"undle":7023,"**(-":7024,"Ġeggs":7025,"Start":7026,"Ġdraft":7027,"gent":7028,"ĠJersey":7029,"Ġparagraph":7030,"appropriate":7031,"ĠJoseph":7032,"Ġplot":7033,"Ġenhance":7034,"rian":7035,"itter":7036,"Ġexposed":7037,"#:":7038,"Ġ120":7039,"Ġcommunities":7040,"non":7041,"More":7042,"%.":7043,"Settings":7044,"Ġasking":7045,"ĠTime":7046,">(":7047,"Ġseek":7048,"FT":7049,"Solve":7050,"OK":7051,"ĠUN":7052,"Ġscores":7053,"ĠOfficer":7054,"uro":7055,"Ġprofessor":7056,"Ġbug":7057,"ĠAustralia":7058,"Ġ${{\\":7059,"Ġ46":7060,"Ġextends":7061,"Ġol":7062,"Ġbath":7063,"sd":7064,"âĢĿ,":7065,"Ġtag":7066,"output":7067,"Ġconcerned":7068,"only":7069,"ĠCL":7070,"Ġaccuracy":7071,"Ġfinished":7072,"120":7073,"Ġpartner":7074,"ĠLinux":7075,"Ġbeauty":7076,"Ġcompare":7077,"Ġvitamin":7078,"\"}.":7079,"Ġevaluate":7080,"ĠHall":7081,"Ġinsert":7082,"rypt":7083,"cf":7084,";;;;;;;;;;;;;;;;;;;;;;;;;;;":7085,"ĠTur":7086,"Ñĥ":7087,"ĠEX":7088,"fix":7089,"Ġordered":7090,"Ġantimicrobial":7091,"Ġsustained":7092,"Ġprofessionals":7093,"Ġinvolving":7094,"ĠÃ©":7095,"Ġpeptide":7096,"Since":7097,"Ġmainly":7098,"cut":7099,"MD":7100,"Ġcitizen":7101,"Ġsacr":7102,"Ġinsufficient":7103,"Ġadvanced":7104,"Ġassessed":7105,"rior":7106,"Ġconfidence":7107,"Ġbrother":7108,"^-":7109,"Ġdepth":7110,"á¹Ľá¹£á¹ĩ":7111,"acting":7112,"Ġinterval":7113,"display":7114,"Ġrecru":7115,"Ġnegoti":7116,"ĠDefendants":7117,"uous":7118,"ĠOffice":7119,"ĠRussian":7120,"Ġsynchron":7121,"ĠEnd":7122,"Ġtranscription":7123,"Ġadvice":7124,"ala":7125,"Ġ47":7126,"âĤ¬âĤ¬âĤ¬âĤ¬âĤ¬âĤ¬âĤ¬âĤ¬âĤ¬âĤ¬âĤ¬âĤ¬âĤ¬âĤ¬âĤ¬âĤ¬":7127,"Ġwilling":7128,"ena":7129,"ĠJapanese":7130,"Run":7131,"Ġheavily":7132,"Ġdil":7133,"Ġbiological":7134,"Over":7135,"vo":7136,"chema":7137,"GB":7138,"Ġworse":7139,"Ġnecess":7140,"Ġelectronic":7141,"etime":7142,"ĠType":7143,"iger":7144,"Ġrecip":7145,"Ġindividually":7146,"Ġcontribution":7147,")^{":7148,"Version":7149,"ece":7150,"2000":7151,"Ġcritic":7152,"ĠVietnam":7153,"Ġ00":7154,"ĠMedicine":7155,"Ġprosp":7156,"Ġscenarios":7157,"HE":7158,"Ġ300":7159,"ĠIP":7160,"Ġfill":7161,"arks":7162,"ĠBi":7163,"IE":7164,"{\"":7165,"ideo":7166,"ĠSolve":7167,"ĠRob":7168,"acle":7169,"Ġchallenges":7170,"cdots":7171,"ĠMath":7172,"cup":7173,"Ġcolon":7174,"Ġsolely":7175,"SL":7176,"Ġscattering":7177,"Ġanalysed":7178,"Ġcapable":7179,"context":7180,"Ġconsent":7181,".**":7182,"ĠAnn":7183,"ictions":7184,"real":7185,"Ġrelates":7186,"Ġdemonstrate":7187,"Ġnervous":7188,"Ġmarked":7189,"module":7190,"Ġappeals":7191,"Part":7192,"dagger":7193,"Ġreverse":7194,"asy":7195,"Ġconjug":7196,"Ġaforementioned":7197,"/-":7198,"Auth":7199,"Ġemployee":7200,"Ġpersons":7201,"Ġsettings":7202,"Ġ43":7203,"Ġguide":7204,"del":7205,"Ġaccomplish":7206,"Me":7207,"osph":7208,"Ġban":7209,"Ġsuitable":7210,"rie":7211,"oster":7212,"Ġideal":7213,"ste":7214,"Ġ&=":7215,"2018":7216,"Ġcompetition":7217,"Ġacquisition":7218,"TC":7219,"Ġcos":7220,"Ġdisorder":7221,"Ġframework":7222,"Ġintervals":7223,"=======":7224,"Ġadvance":7225,"Ġrelations":7226,"Ġfrequently":7227,"ĠField":7228,"ultiple":7229,"complete":7230,"ĠPR":7231,"Ġchief":7232,"Ġseverity":7233,"Ġfloat":7234,"Base":7235,"Ġcle":7236,"ifer":7237,"activ":7238,"ĠCP":7239,"Ġtrials":7240,"ritten":7241,"ĠSingapore":7242,"ĠGeorgia":7243,"tag":7244,"Ġpotentially":7245,"args":7246,"Ġdecide":7247,"omal":7248,"ician":7249,"Ġ49":7250,"ABLE":7251,"conf":7252,"Ġscope":7253,"Ġtick":7254,":\\":7255,"ĠCap":7256,"Ġion":7257,"Ġargues":7258,"ĠANY":7259,"urthermore":7260,"ĠNO":7261,"Ġremained":7262,"Ġcycl":7263,"Ġassuming":7264,"Ġtit":7265,"ibrary":7266,"Last":7267,"Ġarms":7268,"ignificant":7269,"Ġrecall":7270,"ĠBer":7271,"Ġimaging":7272,"Ġstatistical":7273,"Rem":7274,"Ġclaimed":7275,"Ġstability":7276,"Ġboundary":7277,"Ġadvert":7278,"Ġmotiv":7279,"next":7280,"377":7281,"[\"":7282,"Ġbag":7283,"SELECT":7284,"ĠGood":7285,"Ġton":7286,"ĠFrance":7287,"Ġstopped":7288,"Ġformal":7289,"scale":7290,"setminus":7291,"Pre":7292,"SON":7293,"ais":7294,"Ġsalt":7295,"Ġnom":7296,"entry":7297,"\\^":7298,"Spec":7299,"ĠMS":7300,"Ġstrict":7301,"Ġcort":7302,"ERE":7303,"Ġsides":7304,"*/":7305,"ĠRyan":7306,"Ġsupplied":7307,"NF":7308,"mo":7309,"owed":7310,"Ġjump":7311,"img":7312,"bling":7313,"ĠIll":7314,"Ġunknown":7315,"Ġcannabis":7316,"Ġdegradation":7317,"Ġsuggesting":7318,"ĠGerman":7319,"Ġrid":7320,"ĠJustice":7321,"search":7322,"ĠTaylor":7323,"gers":7324,"ument":7325,"Ġtight":7326,"groups":7327,"Ġbal":7328,"Status":7329,"ĠUse":7330,"Ġaxis":7331,"Ġmention":7332,"Ġunusual":7333,"ĠPlease":7334,"Ġnine":7335,"Ġincredibly":7336,"ĠBill":7337,"Sch":7338,"Ġplaintiffs":7339,"tw":7340,"Ġran":7341,"Ġpractices":7342,"Ġimprovement":7343,"client":7344,"Ġannual":7345,"Ġconference":7346,"ifies":7347,"Ġstupid":7348,"Ġdoctrine":7349,"clear":7350,"Ġended":7351,"Ġintent":7352,"Ġtuberculosis":7353,"iler":7354,"Ġaspects":7355,"uting":7356,"Ġvariation":7357,"Ġ56":7358,"ĠUbuntu":7359,"ted":7360,"ublished":7361,"ĠPRO":7362,"Ġhence":7363,"Sim":7364,"Man":7365,"Ġarter":7366,"Ġvessel":7367,"ĠFollowing":7368,"BO":7369,"Ġreplace":7370,"Ġlaugh":7371,"Page":7372,"Ġbright":7373,"ĠSand":7374,"Ġcytoplasm":7375,"Ġmand":7376,"Ġtroops":7377,"Â·":7378,"ikipedia":7379,"method":7380,"Create":7381,"BP":7382,"graph":7383,"tab":7384,"Ġtables":7385,"(\\[":7386,"Ġasthma":7387,"Ut":7388,"Ġthereby":7389,"Ġaccepted":7390,"Ġinterpretation":7391,"NN":7392,"IO":7393,"ola":7394,"emia":7395,"Ġstick":7396,"roduction":7397,"uch":7398,"Ġhole":7399,"ĠWork":7400,"Ġpitch":7401,"Ġdoctor":7402,"aired":7403,"Med":7404,"Ġpilot":7405,"ĠGive":7406,"Ġlinked":7407,"ita":7408,"Ġsmart":7409,"rist":7410,"Ġradiation":7411,")}\\":7412,"Ġhomogeneous":7413,"ipping":7414,"aled":7415,"Ġends":7416,"equiv":7417,"artifactId":7418,"Ġcellular":7419,"ĠColorado":7420,"ĠGovernor":7421,"Ġmetric":7422,"HS":7423,"Ġsauce":7424,"Ġguidance":7425,"month":7426,"ĠMinister":7427,"ogn":7428,"Ġroute":7429,"mg":7430,"ITY":7431,"Ġfacilitate":7432,"Ġmatrices":7433,"Char":7434,"fit":7435,"FO":7436,"Ġprovision":7437,"iciency":7438,"Ġstruck":7439,"ĠGO":7440,"References":7441,"ĠAcademy":7442,"Ġstack":7443,"May":7444,"Ġseconds":7445,"Ġ150":7446,"Ġclothes":7447,"Ġconfront":7448,"Ġsit":7449,"ĠJohnson":7450,"Ġnarrow":7451,"Ġnumerous":7452,"lines":7453,"Ġkeeping":7454,"anda":7455,"deg":7456,"Ġcontribute":7457,"ĠĠĠĠĠĠĠĠĠĠĠĠĠĠĠĠĠĠĠĠĠĠ":7458,"ĠOnly":7459,"ĠIreland":7460,"Ġpreliminary":7461,"ĠRule":7462,"Ġmiles":7463,"Ġrecognized":7464,"Ġfre":7465,"ĠDaniel":7466,"Ġacute":7467,"Ġindicating":7468,"Ġgather":7469,"Ġpeace":7470,"Ġunable":7471,"ĠON":7472,"ĠHence":7473,"fa":7474,"icious":7475,"Ġmission":7476,"control":7477,"Ġhum":7478,"ĠLike":7479,"aded":7480,"ĠWITH":7481,"ressive":7482,"Ġâī¥":7483,"Ġdispl":7484,"Ġhierarch":7485,"Ġstrain":7486,"Ġopposite":7487,"110":7488,"ĠOnce":7489,"Ġentirely":7490,"Ġcarcinoma":7491,"Ġpartial":7492,"Ġimplies":7493,"ĠJews":7494,"Ġresponsibility":7495,"Ġemployment":7496,"Ġdramatically":7497,"Ġsupporting":7498,"ivariate":7499,"ĠSun":7500,"ĠRepublican":7501,"strong":7502,"\\[[@":7503,"Ġbankruptcy":7504,"ĠElizabeth":7505,"Ġ[[":7506,"ĠTennessee":7507,"Ġabundance":7508,"Check":7509,"ĠPURPOSE":7510,"Ġattacks":7511,"Ġstarts":7512,"]]":7513,"Ġidentification":7514,"Ġeligible":7515,"opath":7516,"Ġmolecules":7517,"Ġestate":7518,"Ġmixture":7519,"oration":7520,"Psi":7521,"Ġpopulations":7522,"Ġnotes":7523,"Ġaccompanied":7524,"007":7525,"Ġdesirable":7526,"æķ°":7527,"Ġ51":7528,"GG":7529,"ĠMajor":7530,"find":7531,"ĠSeveral":7532,"ĠSenate":7533,"afe":7534,"Ġice":7535,"Ġoverwhelming":7536,"ĠSil":7537,"Ext":7538,"Ġgirls":7539,"MOESM":7540,"Ġconsideration":7541,"Ġpoll":7542,"Ġbattle":7543,"ĠNa":7544,"ĠFIG":7545,"Ġamounts":7546,"ĠTheir":7547,"Ġcentrifug":7548,"Ġbinary":7549,"Ġacceler":7550,"ĠmRNA":7551,"Ġsupporters":7552,"Ġmir":7553,"Ġcourses":7554,"sup":7555,"media":7556,"Ð»":7557,"oder":7558,"ĠSP":7559,"Ġattend":7560,"ua":7561,"ĠGL":7562,"Ġperceived":7563,"ci":7564,"Ġmicrosc":7565,"Ġil":7566,"unit":7567,"ĊĠĠĠĠĠĠĠĠĠĠĠĠĠĠĠĠĠĠĠĠĠĠĠĠĠĠĠĠĠĠĠ":7568,"Ġsessions":7569,"aked":7570,"sts":7571,"Ġsigns":7572,"outs":7573,"Ġoffset":7574,"Ġdisk":7575,"ĠPA":7576,"Ġphoto":7577,"Ġtechnical":7578,"cing":7579,"Ġrent":7580,"Template":7581,"human":7582,"ĠEastern":7583,"Ġnan":7584,"ols":7585,"linear":7586,"Ġdynamics":7587,"Ġcurrency":7588,"ees":7589,"Ġbone":7590,"ĠJud":7591,"Ind":7592,"Ġaltern":7593,"append":7594,"\\]).":7595,"åĪ":7596,"vas":7597,"Ġdependent":7598,"thers":7599,"widehat":7600,"xe":7601,"posed":7602,"Ġgap":7603,"ACK":7604,"Ġaccurate":7605,"Ġsteady":7606,"Ġappearance":7607,"obile":7608,"aus":7609,"\"})":7610,"Ġconcluded":7611,"ĠStr":7612,"DB":7613,"Ġpregnant":7614,"Ġspl":7615,"osa":7616,"uster":7617,"Ġeffectively":7618,"Ġbeat":7619,"Ġdream":7620,"Ġestimates":7621,"Ġcommonly":7622,"Ġepidem":7623,"ĠIT":7624,"Ġpixel":7625,"ither":7626,"ĠLog":7627,"DL":7628,")]":7629,"ICE":7630,"Ġ52":7631,"Ġmassive":7632,"Ġobesity":7633,"âĤ¬":7634,"Ġjustice":7635,"ĠPalestin":7636,"Ġinvariant":7637,"').":7638,"enter":7639,"Ġsought":7640,"Ġgender":7641,"aints":7642,"\\!":7643,"Ġenable":7644,"Ġsmallest":7645,"Ġresidents":7646,"missions":7647,"Ġmouth":7648,"Ġpet":7649,"Ġvac":7650,"kins":7651,"Ġrelax":7652,"number":7653,"Ġphosphorylation":7654,"obs":7655,"Ġcm":7656,"ĠWARRANTIES":7657,"Point":7658,"Ġmanaged":7659,"Â¶":7660,"Ġsin":7661,"Ġcommission":7662,"ĠMethods":7663,"Ġsuicide":7664,"ĠPCR":7665,"defined":7666,"irty":7667,"Ġenemy":7668,"power":7669,"Ġassigned":7670,"Ġspending":7671,"bre":7672,"Ġoral":7673,"ĠFITNESS":7674,"Ġminute":7675,"Ġviolation":7676,"$)":7677,"Ġspaces":7678,"Ġpancreatic":7679,"})\\":7680,"oral":7681,"Ġhippocamp":7682,"ĠĊĠĠĠ":7683,"ĠEU":7684,"gener":7685,"ĠAgreement":7686,"Ġrequirement":7687,"Ġnewspaper":7688,"stat":7689,"istor":7690,"Ġpulmonary":7691,"####":7692,"apse":7693,"grade":7694,"Ġcharacterized":7695,"Ġprominent":7696,"andom":7697,"ĠIF":7698,"Ġduties":7699,"Ġamendment":7700,"æľ":7701,"hr":7702,"Ġfilled":7703,"Ġsplit":7704,"Instance":7705,"2009":7706,"Ġoxide":7707,"road":7708,"VA":7709,"quot":7710,"Ġseeking":7711,"Ge":7712,"ĠRiver":7713,"}}{\\":7714,"obj":7715,"Cons":7716,"ĠBig":7717,"à¬":7718,"Ġcerebral":7719,"request":7720,"Your":7721,"Ġsecure":7722,"Ġ72":7723,"Ġusual":7724,"Ġinfo":7725,"Ġ*)":7726,"Two":7727,"ĠCT":7728,"FIG":7729,"ĠRobert":7730,"ĠPH":7731,"ijerph":7732,"UC":7733,"unct":7734,"Ġdynamic":7735,"([":7736,"Ġuncertainties":7737,"Ġdecades":7738,"mL":7739,"Ġbottle":7740,"was":7741,"Post":7742,"element":7743,"Ġ54":7744,"png":7745,"2008":7746,"Ġorders":7747,"Ġcorner":7748,"life":7749,"ez":7750,"Ġscalar":7751,"ords":7752,"ĠGreek":7753,"Ġemission":7754,"Ġempirical":7755,"ĠHospital":7756,"Ġdistinction":7757,"ĠYOU":7758,"Ġpages":7759,"Rel":7760,"stylesheet":7761,"ĠChildren":7762,"gorithm":7763,"Ġfavorite":7764,"ĠTimes":7765,"ysis":7766,"imation":7767,"Ġgenuine":7768,"olid":7769,"aver":7770,"fast":7771,"riter":7772,"Ġcompound":7773,"Ġfan":7774,"Ġtransf":7775,"Ġdowntown":7776,"ogenic":7777,"Response":7778,"Ġmunicipal":7779,"ĠCentral":7780,"aul":7781,"Ġbroken":7782,"Layout":7783,"mat":7784,"category":7785,"La":7786,"Ġregistration":7787,"Ġsensitive":7788,"Ġ1999":7789,"frame":7790,"Ġprinciple":7791,"Ġju":7792,"Ġrecommended":7793,"itors":7794,"Ġassumptions":7795,"Please":7796,"ĠConn":7797,"Ġobjective":7798,"Ġauthorities":7799,"Ġtargets":7800,"Ġepisodes":7801,"^+^":7802,"Ġpredicted":7803,"ĠTokyo":7804,"Ġpp":7805,"ums":7806,"Ġliterally":7807,"expected":7808,"ĠFrank":7809,"ĠRad":7810,"GA":7811,"ĠInformation":7812,"Ġprosecution":7813,"ĠFalse":7814,"Ġexpensive":7815,"Ġalt":7816,"Ġassistance":7817,"Ġstructural":7818,"ĠMedical":7819,"Ġinfer":7820,"Ġped":7821,"ora":7822,"ĠIndeed":7823,"ye":7824,"Ġadmitted":7825,"400":7826,"Ġtoler":7827,"uccess":7828,"ĠAfrica":7829,"=\"../../../../":7830,"ĠScott":7831,"Ġ2020":7832,"Ġborrow":7833,"olecular":7834,"vail":7835,"Ġamb":7836,"Ġfell":7837,"Ġsuccessfully":7838,"Ġunion":7839,"Ġpoverty":7840,"214":7841,"Ġresonance":7842,"Ġplastic":7843,"LC":7844,"++)":7845,"\"]":7846,"Ġwatching":7847,"Ġveget":7848,"aken":7849,"ĠObject":7850,"ogenesis":7851,"ĠIV":7852,"Gu":7853,"Ġgar":7854,"Ġconsumption":7855,"ĠIts":7856,"Ġlargely":7857,"ĠPerhaps":7858,"acement":7859,"GR":7860,"ĠGreat":7861,"Ġinhibition":7862,"Ġunemployment":7863,"ĠPacific":7864,"2019":7865,"Ġreducing":7866,"-+-+-+-+-+-+-+-+":7867,"ĠDen":7868,"Ġsand":7869,"Stat":7870,"Mr":7871,"options":7872,"ĠWill":7873,"Ġdistinguished":7874,"Ġexamination":7875,"Ġsupports":7876,"Ġbirds":7877,"ãģĹãģ":7878,"values":7879,"ĠSl":7880,"Ġsensor":7881,"Ġunderwent":7882,"ĠMag":7883,"Ġintention":7884,"///":7885,"MC":7886,"rr":7887,"Ġking":7888,"Ġbrand":7889,"Ġ[]":7890,"Ġfurniture":7891,"high":7892,"Ġdatabases":7893,"Ġpieces":7894,"Ġentreprene":7895,"UI":7896,"Ġbaseline":7897,"Ġinformed":7898,"ĠPittsburgh":7899,"Ġorganic":7900,"Ġforg":7901,"Det":7902,"iological":7903,"ootstrap":7904,"Ġfold":7905,"Ġcausing":7906,"root":7907,"ĠZealand":7908,"ĠĠĠĠĠĠĠĠĠĠĠĠĠĠĠĠĠĠĠĠĠĠĠ":7909,"Ġwarn":7910,"Ġpromote":7911,"ĠSpecifically":7912,"Ġchair":7913,"floor":7914,"ĠBack":7915,"ĠMad":7916,"ĠHel":7917,"ĠpH":7918,"Ġfacilities":7919,"Ġretriev":7920,"rid":7921,"Ġmarried":7922,"Ġparticle":7923,"ĠAPI":7924,"Ġresearchers":7925,"tn":7926,"Ġembarrass":7927,"150":7928,"Ġhundreds":7929,"CIT":7930,"Cell":7931,"ĠGal":7932,"straint":7933,"Ġiron":7934,"ĠUs":7935,"bel":7936,"adata":7937,"Ġsitting":7938,"Where":7939,"documentclass":7940,"ĠQue":7941,"Ġexperiences":7942,"Ġhomes":7943,"Ġpip":7944,"Ġoverl":7945,"Ġlie":7946,"Ġburn":7947,"Ġsubstit":7948,"Ġwear":7949,"Ã¤":7950,"Ġgotten":7951,"Ġ1990":7952,"ĠFore":7953,"æĺ¯":7954,"Ġren":7955,"ĠWhere":7956,"Ġputting":7957,"minimal":7958,"isted":7959,"Ġprincipal":7960,"thm":7961,"Ġattach":7962,"Ġhypertension":7963,"Ġseat":7964,"ursor":7965,"Ġpropag":7966,"Ġadm":7967,"anger":7968,"ĠArab":7969,"Ġweekend":7970,"Ġvisible":7971,"lar":7972,"energy":7973,"Ã§":7974,"Ġacting":7975,"Ġcabin":7976,"Ġzone":7977,"ÂłĠÂłĠÂłĠÂłĠÂłĠÂłĠÂłĠÂłĠÂłĠÂłĠÂłĠÂłĠÂłĠÂłĠÂłĠÂł":7978,"split":7979,"otted":7980,"Ġouter":7981,"Ġlived":7982,"Ġpredetermined":7983,"ĠCounsel":7984,"google":7985,"Ġmess":7986,"Ġreplaced":7987,"Ġcandidates":7988,"}|":7989,"margin":7990,"ffffff":7991,"Ġflag":7992,"}},":7993,"car":7994,"Ġassumed":7995,"Ġdepression":7996,"Ġpri":7997,"Ġmerely":7998,"Ġbehaviour":7999,"Ġsegments":8000,"ĠOntario":8001,"rief":8002,"Select":8003,"Ġsea":8004,"Ġobservation":8005,"ĠThompson":8006,"Ġluminosity":8007,"ĠMont":8008,"Ġtrail":8009,"160":8010,"Ġantibiotics":8011,"ĠFour":8012,"uto":8013,"Ġturns":8014,"Ġinvolves":8015,"-_-_-_-_-_-_-_-_-_-_-_-_-_-_-_-_-_-_-_":8016,"ta":8017,"==========":8018,">,":8019,"ĠLab":8020,"Web":8021,"Ġxmlns":8022,"Ġknock":8023,"Ġretirement":8024,"Ġsolve":8025,"Another":8026,"ras":8027,"Ġ101":8028,"ĠSecurity":8029,"cat":8030,"ĠIowa":8031,"STR":8032,"Ġdangerous":8033,"NULL":8034,"Ġcompatible":8035,"âĦ¢":8036,"ĠFed":8037,"Right":8038,"Ġemergency":8039,"Ġmit":8040,"Ġpassing":8041,"Yeah":8042,"Ġterritory":8043,"Ġrepair":8044,"Although":8045,"uh":8046,"Ġsector":8047,"Ġstrains":8048,"ract":8049,"ijms":8050,"acks":8051,"Ġlowest":8052,"Thanks":8053,"ĠPet":8054,"Ġmagazine":8055,"Handle":8056,"Ġappropri":8057,"lectric":8058,"Control":8059,"Ġhtml":8060,"ĠMcC":8061,"Ġinstalled":8062,"Ġconsensus":8063,"&=":8064,"??":8065,"}/":8066,"Ġfaster":8067,"Ġdebate":8068,"Ġclar":8069,"ĠAfrican":8070,"ĠAnother":8071,"Ġmatters":8072,"Ġawesome":8073,"romagnetic":8074,"ĠJordan":8075,"Ġwalking":8076,"Ġguard":8077,"uma":8078,"Ġdirectory":8079,"ĠMexican":8080,"Ġ53":8081,"abb":8082,"agen":8083,"Ġeditor":8084,"SR":8085,"OH":8086,"Ġclosely":8087,"ented":8088,"ĠNE":8089,"Ġrepresentative":8090,"Ġvertices":8091,"ĠSk":8092,"Ġdetermining":8093,"Ġworry":8094,"Ġknee":8095,"Ø§Ù":8096,"UP":8097,"ĠMicro":8098,"Ġforget":8099,"ishing":8100,"Ġdemocracy":8101,"Ġcart":8102,"Ġpairs":8103,"âĸĪâĸĪâĸĪâĸĪ":8104,"ader":8105,"ĠPlan":8106,"OB":8107,"Ġreform":8108,"Vert":8109,"Ġdisagree":8110,"Ġluck":8111,"Ġbigger":8112,"ATA":8113,"earing":8114,"Ġstellar":8115,"ups":8116,"ĠAng":8117,"Ġargue":8118,")|":8119,"Ġvirt":8120,"Ġcities":8121,"ota":8122,"Output":8123,"atform":8124,"born":8125,"Hz":8126,"ĊĠĠĠĠĠĠĠĠĠĠĠĠĠĠ":8127,"weet":8128,"Ġinnov":8129,"ĠLong":8130,"ĠControl":8131,"Ġpump":8132,"va":8133,"Phys":8134,"Ġgravitational":8135,".-":8136,"Ġdifferential":8137,"Ġliability":8138,"Ġ-------------------------------------------":8139,"Dep":8140,"Ġenhanced":8141,"Ġyeast":8142,"Ġaid":8143,"exec":8144,"Dr":8145,"css":8146,"Ġaffidavit":8147,"URL":8148,"iki":8149,"simeq":8150,"Ġaspect":8151,"eness":8152,"Despite":8153,"Ġinitially":8154,"ĠPan":8155,"ohistochem":8156,"erts":8157,"Ġtrees":8158,"ondition":8159,"Ġ1998":8160,"Ġdeclared":8161,"adow":8162,"inating":8163,"Ġremark":8164,"Ġcustomer":8165,"***":8166,"ĠDev":8167,"Ġembodiment":8168,"erves":8169,"zer":8170,"Ġdeploy":8171,"Ġmenu":8172,"ycl":8173,"ĠTre":8174,"ollow":8175,"Ġpolitics":8176,"ĠMil":8177,"Ġrational":8178,"Ġvision":8179,"Ġsupplies":8180,"apes":8181,"\\*\\*":8182,"called":8183,"Ġterrible":8184,"ached":8185,"Ġposted":8186,"ĠProject":8187,"Ġmic":8188,"Mode":8189,"Ġcloser":8190,"Ġurl":8191,"Ġvessels":8192,"Ġgenome":8193,"Ġeating":8194,"]^.":8195,"Ġholiday":8196,"ĊĊĠĠ":8197,"Ġoptimal":8198,"DNA":8199,"Ġ---":8200,"Ġdepos":8201,"Look":8202,"ĠSanta":8203,"Ġagreements":8204,"ĠEqu":8205,"ĠDaily":8206,"Ġaggressive":8207,"2006":8208,"description":8209,"ĠValue":8210,"Ġrig":8211,"Ġceremony":8212,"Ġconsists":8213,"jo":8214,"raf":8215,"Ġloved":8216,"Ġunf":8217,"Ġcloud":8218,"Ġfingers":8219,"Ġcontainer":8220,"Ġrail":8221,"IND":8222,"Ġmyocardial":8223,"NAME":8224,"Ġblocks":8225,"Ġexecutive":8226,"Ġimplemented":8227,"WH":8228,"TD":8229,"Ġperpendicular":8230,"Ġphrase":8231,"Mar":8232,"imp":8233,"Ġproved":8234,"Ġnative":8235,"band":8236,"Ġgrown":8237,"acket":8238,"Ġdelivered":8239,"show":8240,"Ne":8241,"ressing":8242,"Ġ99":8243,"Ġ1997":8244,"}{-":8245,"Ġlots":8246,"ema":8247,"common":8248,"Ġconsequences":8249,"Ġsoil":8250,"ĠPut":8251,"Ġfont":8252,"Ġcontributions":8253,"leted":8254,"Ġdisclosure":8255,"Ġhonest":8256,"\\\"":8257,"Ġlawsuit":8258,"Ġpig":8259,"Ġinstruction":8260,"ĠVol":8261,"ä½":8262,"Next":8263,"Ġmaps":8264,"attr":8265,"]$":8266,"Ġtelling":8267,"Ġlibraries":8268,"Ġsports":8269,"ques":8270,"reatment":8271,"ĠJones":8272,"Ġwaste":8273,"Ġmutations":8274,"ĠCamp":8275,"filter":8276,"Ġdollar":8277,"urd":8278,"Ġinstitution":8279,"ĠLittle":8280,"Ġuptake":8281,"setlength":8282,"1000":8283,"Ġbias":8284,"Ġtor":8285,"Ġthoughts":8286,"Ġ\"\"\"":8287,"ubs":8288,"CV":8289,"ĠArticle":8290,"foot":8291,"ĠColumbia":8292,"232":8293,"Ġoperators":8294,"Ġpathways":8295,"Ġorth":8296,"Ġaccounts":8297,"ĠParliament":8298,"ĠFil":8299,"Ġdogs":8300,"DP":8301,"Ġdual":8302,"ĠHE":8303,"125":8304,"Ġobligation":8305,"ĠLife":8306,"]);":8307,"ĠSaudi":8308,"Max":8309,"Ġelderly":8310,"urop":8311,"Ġleadership":8312,"ĠDO":8313,"BR":8314,"Ġcoupling":8315,"Ġproximity":8316,"Ġfacility":8317,"Ġextract":8318,"Default":8319,"ĠAssembly":8320,"äº":8321,"Ġinternet":8322,"contin":8323,"\\]),":8324,"ĠÎ²":8325,"Ġpointed":8326,"ĠSoviet":8327,"Ġven":8328,"Vis":8329,"Ġgate":8330,"amsmath":8331,"Ġpractical":8332,"Hel":8333,"isting":8334,"EF":8335,"Ġlocations":8336,"ĠBas":8337,"/>":8338,"Ġmetast":8339,"ĠCOPYRIGHT":8340,"Ġwrt":8341,"Ġalign":8342,"Fe":8343,"Ġalle":8344,"Ġbusinesses":8345,"Ġcompact":8346,"Ġcorrectly":8347,"Ã©s":8348,"ko":8349,"ĠSpring":8350,"Ġextend":8351,"Te":8352,"Ġminimal":8353,"Ġchocolate":8354,"Ġsubmitted":8355,"Ġmedian":8356,"Ġapparently":8357,"Ġcoc":8358,"Supp":8359,"ĠArch":8360,"ĠOS":8361,"ĠInterestingly":8362,"Ġrein":8363,"oly":8364,"Ġleague":8365,"Ġregression":8366,"Ġintegrated":8367,"Ġantibiotic":8368,"ruption":8369,"pet":8370,"Ġpronounced":8371,"ĠSpirit":8372,"Ġopportunities":8373,"Ġtrouble":8374,"Ġstages":8375,"Ġwedding":8376,"Ġobj":8377,"III":8378,"Ġbind":8379,"Today":8380,"Ġlayers":8381,"server":8382,"*^":8383,"Ġflux":8384,"Format":8385,"si":8386,"Ġphotos":8387,"dat":8388,"```":8389,"Pat":8390,"Ġtub":8391,"Mon":8392,"2007":8393,"loc":8394,"Ġquadr":8395,"Ġ57":8396,"pose":8397,"Panel":8398,"Ġinadequate":8399,"Ġasc":8400,"250":8401,"Ġargued":8402,"Ġcumulative":8403,"Ġconviction":8404,"-(":8405,"DD":8406,"ĠNov":8407,"develop":8408,"ceptions":8409,"Ġsurrounding":8410,"Ġquestionnaire":8411,"Ġlifestyle":8412,"ayers":8413,"217":8414,"Ġhousehold":8415,"Ġinjection":8416,"ĠHarris":8417,"ĠĠĠĠĠĠĠĠĠĠĠĠĠĠĠĠĠĠĠĠĠĠĠĠ":8418,"Ġubiquit":8419,"Ġ58":8420,"ĠTaiwan":8421,"Ġdescribes":8422,"istribution":8423,"Ġcopyright":8424,"Ġreservoir":8425,"Ġposterior":8426,"Ġpicking":8427,"ĠMuseum":8428,"iana":8429,")+":8430,"Ġessentially":8431,"Ġ1996":8432,"Ġcentre":8433,"ulture":8434,"Before":8435,"pdf":8436,"ĠVer":8437,"ĠWal":8438,"Ġtaxes":8439,"Ġcertificate":8440,"Ġelectrons":8441,"Ġcas":8442,"Ġscreening":8443,"ona":8444,"Ġconstructed":8445,"Net":8446,"Ġpredominantly":8447,"rin":8448,"Ġdeemed":8449,"Ġdisplayed":8450,"Ġevening":8451,"hyd":8452,"ĠCS":8453,"idents":8454,"Ġ1000":8455,"oked":8456,"ifts":8457,"align":8458,"Arg":8459,"ĠIsland":8460,"Ġirrelevant":8461,"Load":8462,"ĠLo":8463,"008":8464,"idential":8465,"bool":8466,"Ġcreation":8467,"ertion":8468,"=\"#":8469,"eller":8470,"ĠDemocratic":8471,"Ġmothers":8472,"});":8473,"ĠStar":8474,"Ġearn":8475,"ĠCup":8476,"Ġquiet":8477,"ĠReview":8478,"Ġsheet":8479,"Ġclassical":8480,"Ġenergies":8481,"Str":8482,"ĠLi":8483,"Ġemissions":8484,"odd":8485,"Ġpaint":8486,"Ġhelping":8487,"Ġclosest":8488,"Function":8489,"Ġlen":8490,"BM":8491,"Ġcounts":8492,"Ġartificial":8493,"Ġimprisonment":8494,"Ġclients":8495,"Ġmine":8496,"ĠNav":8497,"Ġcharacteristic":8498,"ORE":8499,"ãģ®":8500,"Ġimplied":8501,"AF":8502,"Ġlig":8503,"Ġaffirmed":8504,"={":8505,"Ġng":8506,"ourse":8507,"Ġ\\{":8508,"}\\,":8509,"ĠKentucky":8510,"Ġpreced":8511,"License":8512,"ynth":8513,"ĠEth":8514,"uing":8515,"åĲ":8516,"Ġoffering":8517,"å®":8518,"Ġyouth":8519,"LD":8520,"Ġimpairment":8521,"Ġcollabor":8522,"Ġbacteria":8523,"ĠWall":8524,"Ġtells":8525,"Ġcoronary":8526,"Ġpin":8527,"EXT":8528,"ĠCall":8529,"onds":8530,"Ġloan":8531,"Ġrect":8532,"Ġdenote":8533,"Acknowledg":8534,"}^\\":8535,"Ġ\"(":8536,"ĠCorp":8537,"ĠPeter":8538,"Ġdepart":8539,"English":8540,"Ġrecording":8541,"Ġpreparing":8542,"Ġfeedback":8543,"Ġconsole":8544,"ĠLewis":8545,"áĢ":8546,"Ġspeaking":8547,"oggle":8548,"2001":8549,"GC":8550,"Ġsophisticated":8551,"ĠIgG":8552,"Ġpeculiar":8553,"Ġmaintained":8554,"Ġremote":8555,"Ġinstruments":8556,"rolled":8557,"Ġ&\\":8558,"Ġrecognition":8559,"Ġ96":8560,"Ġapproval":8561,"Ġaccompanying":8562,"Ġbiom":8563,"Ġ85":8564,"LR":8565,"Ġclassification":8566,"ĠVis":8567,"ĠMax":8568,"Ġwaters":8569,"ione":8570,"center":8571,"aria":8572,"ĠNon":8573,"Ġcomparisons":8574,"Ġidentical":8575,"ĠAff":8576,"ĠMississippi":8577,"ĠPolice":8578,"ĠĠĠĠĠĠĠĠĠĠĠĠĠĠĠĠĠĠĠĠĠĠĠĠĠ":8579,"desc":8580,"ĠKelly":8581,"Ġneutral":8582,"ria":8583,"Ġwealth":8584,"Ġsynthesis":8585,"Ġtail":8586,"ĠJan":8587,"Ġrub":8588,"chain":8589,"Ġ59":8590,"Ġdramatic":8591,"avel":8592,"Ġterminal":8593,"$_":8594,"âĢ¦âĢ¦âĢ¦âĢ¦âĢ¦âĢ¦âĢ¦âĢ¦âĢ¦âĢ¦âĢ¦":8595,"2004":8596,"Gener":8597,"ĠMicrosoft":8598,"Ġamino":8599,"DC":8600,"before":8601,"ĠFire":8602,"riers":8603,"Current":8604,"Ġsong":8605,"Ġ\\>":8606,"Ġexplore":8607,"Ġbars":8608,"Ġimmediate":8609,"parallel":8610,"Ġ400":8611,"Ġanisotrop":8612,"Ġiniti":8613,"Ġraw":8614,"package":8615,"ĠKorean":8616,"Component":8617,"Ġske":8618,"Resource":8619,"Ġregime":8620,"Ġmaternal":8621,"010":8622,"Ġhelpful":8623,"atural":8624,"Ġhypothesis":8625,"Operation":8626,"Ġwelfare":8627,"equal":8628,"Identifier":8629,"Every":8630,"ĠChief":8631,"Ġneck":8632,"txt":8633,"ĠHouston":8634,"ĠWilliams":8635,"Ġsym":8636,"Ġmarkets":8637,"uri":8638,"Ġfiscal":8639,"åħ":8640,"Ġadvoc":8641,"Ġrequested":8642,"Ġregulations":8643,"ĠApple":8644,"Ġcategories":8645,"Ġretro":8646,"Ġdesire":8647,"Ġstomach":8648,"Ġmanage":8649,"Ġrespective":8650,"reasonable":8651,"ĠName":8652,"Ġreporting":8653,"Ġsituations":8654,"ĠOb":8655,"oxy":8656,"ĠIMPLIED":8657,"Ġteaching":8658,"have":8659,"Ġlies":8660,"push":8661,"ACE":8662,"Buffer":8663,"Ġancest":8664,"DI":8665,"Ġmeat":8666,"Ġsounds":8667,"Ġfinds":8668,"Ġtransformation":8669,"Ġspectra":8670,"Factory":8671,"Ġexclusively":8672,"quare":8673,"PCR":8674,"Ġtunnel":8675,"iner":8676,"Options":8677,"ĠPower":8678,"Ġrescue":8679,"Ġassign":8680,"áĥ":8681,"Open":8682,"uts":8683,"Ġ110":8684,"ĠRT":8685,"Ġaffirm":8686,"esth":8687,"Ġ\"âĻª":8688,"Ġconvergence":8689,"Block":8690,"Ġspoke":8691,"Ġscenes":8692,"Ġhidden":8693,"Ġpour":8694,"teen":8695,"ĠKevin":8696,"BB":8697,"ĠMount":8698,"mode":8699,"Ġcancers":8700,"ĠIR":8701,"Ġintelligent":8702,"Ġcustody":8703,"Ġkick":8704,"Listener":8705,"low":8706,"Ġpatent":8707,"MENT":8708,"available":8709,"Ġmembranes":8710,"ĠText":8711,"Ġtopic":8712,"Ġtreatments":8713,"ĠCount":8714,"Ġexamine":8715,"ĠScotland":8716,"ĠWilliam":8717,"iary":8718,"Ġreputation":8719,"2005":8720,"water":8721,"Ġfaculty":8722,"Ġrh":8723,"Command":8724,"Ġcircuits":8725,"Ġlob":8726,"Ġplain":8727,"Ke":8728,"Ġshooting":8729,"Ġsatellite":8730,"Ġrealize":8731,"dx":8732,"Michael":8733,"Ġspectrosc":8734,"mann":8735,"isters":8736,"Ġillness":8737,"header":8738,"Ġposts":8739,"ponents":8740,"Ġlandscape":8741,"conscious":8742,"Ġencoding":8743,"Results":8744,"ĠFre":8745,"Ġmanip":8746,"Ġhall":8747,"Ġmodify":8748,"Ġbarely":8749,"Ġdrawn":8750,"rh":8751,"Ġfellow":8752,"vector":8753,"Link":8754,"ĠCare":8755,"ĠBal":8756,"Ag":8757,"buf":8758,"Ġradi":8759,"ĠIr":8760,"Ġinfections":8761,"&&":8762,"ĠÎ±":8763,"ĠFund":8764,"FFFFFF":8765,"Ġassets":8766,"erman":8767,"Ġclimate":8768,"Ġtrivial":8769,"Ġprescribed":8770,"Ġos":8771,"DM":8772,"Ġlegitimate":8773,"Ġmigr":8774,"Ġanterior":8775,"Ġlisten":8776,"Ġguests":8777,"Find":8778,"Supplementary":8779,"flu":8780,"Ġserving":8781,"Ġsubstantially":8782,"pa":8783,"Ġsi":8784,"Ġdeaths":8785,"Ġbeam":8786,"ĠMel":8787,":(":8788,"Ġincidence":8789,"istics":8790,"0002":8791,"Ġcultural":8792,"Ġmail":8793,"rug":8794,"Ġemotions":8795,"Ġlat":8796,"Ġcru":8797,"Ġcooperation":8798,"ulti":8799,"zing":8800,"Ġbought":8801,"auth":8802,"fessional":8803,"à¸":8804,"Ġviral":8805,"Ġfighting":8806,"WS":8807,"Length":8808,"Ġworst":8809,"**(":8810,"pop":8811,".âĢĻ":8812,"pace":8813,"ĠHome":8814,"ĠCheck":8815,"Ġasympt":8816,"ĠLegislature":8817,"ĠTim":8818,"Ġdreams":8819,"ĠSometimes":8820,"ĠClinical":8821,"utch":8822,"Ġpaying":8823,"Ġpatch":8824,"Ġdecomposition":8825,"roc":8826,"Ġrain":8827,"ilder":8828,"Ġsomewhat":8829,"ococcus":8830,"}+\\":8831,"ĠInsurance":8832,"Ġagenda":8833,"Ġstem":8834,"Ġtow":8835,"ĠBaltimore":8836,"ĠThose":8837,"Ġgrade":8838,"Ġdriven":8839,"sign":8840,"ĠLee":8841,"Equal":8842,"Ġincredible":8843,"mi":8844,"Ġthr":8845,"\"\"":8846,"Ġhate":8847,"Ġrequests":8848,"Ġnm":8849,"Ġcarrying":8850,"Met":8851,"Because":8852,"ĠLabor":8853,"Ġpulled":8854,"Ġchapter":8855,"Ġalloc":8856,"iod":8857,"Ġsick":8858,"%),":8859,"Ġswe":8860,"][@":8861,"256":8862,"ĠDC":8863,"EA":8864,"Ġ],":8865,"Ġarrested":8866,"iser":8867,"Ġstyles":8868,"Ġruling":8869,"Ġaccomplished":8870,"Direct":8871,"Ġinches":8872,"settings":8873,"home":8874,"Ġpermit":8875,"ĠDeb":8876,"Width":8877,"Ġnurs":8878,"Ġbet":8879,"Ġsubstance":8880,"Ġweather":8881,"Ġconversion":8882,"MB":8883,"Configuration":8884,"Ġfiber":8885,"ructs":8886,"Ġsolar":8887,"sv":8888,"etics":8889,")))":8890,"Child":8891,"Ġcurves":8892,"]\\":8893,"orage":8894,"Ġourselves":8895,"Ġsavings":8896,"Ġdiplom":8897,"čĊĉĉ":8898,"Ġparliament":8899,"ĠGre":8900,"}}^{":8901,"VD":8902,"Ġrotation":8903,"Ġeigen":8904,"vents":8905,"Min":8906,"Ġ66":8907,"Ġwine":8908,"Ġbeach":8909,"Ġav":8910,"click":8911,"}^{(":8912,"âĢĺ":8913,"uzz":8914,"Other":8915,"Ġadolescents":8916,"Ġvoters":8917,"Ġcontents":8918,"Ġmask":8919,"Ġhurt":8920,"Ġgastric":8921,"Ġcounty":8922,"Ġess":8923,"SO":8924,"Ġtherm":8925,"ĠProt":8926,"Ġreads":8927,"Ġlogic":8928,"==========================================================":8929,"aks":8930,"Ġprivilege":8931,"ĠAcc":8932,"Ġfle":8933,"è¿":8934,"Ġapplying":8935,"Ġseparated":8936,"Ġ\"\\":8937,"Ġassault":8938,"Ġroles":8939,"Ġfelony":8940,"Ġprognostic":8941,"Ġ62":8942,"Ġpermits":8943,"Ġreplied":8944,"Ġrealized":8945,"response":8946,"retion":8947,"Ġfranchise":8948,"Ðº":8949,"Ġdefic":8950,"idity":8951,"Ġstrategic":8952,"(*":8953,"ĠHaw":8954,"Work":8955,"Definition":8956,"offset":8957,"FD":8958,"Tex":8959,"Ġimagine":8960,"Ġfant":8961,"Ġacids":8962,"enth":8963,"draw":8964,"Ġ63":8965,"Ġmes":8966,"Ġgrid":8967,"Ġenzyme":8968,"Ġassumption":8969,"ĠDemocrats":8970,"Ġsubstances":8971,"ĠWho":8972,"ĠThanks":8973,"Ġhappening":8974,"rt":8975,")*(-":8976,"Ġnormally":8977,"Go":8978,"Flo":8979,"Ġtough":8980,"Ġdivision":8981,"notation":8982,"Ġfer":8983,"ĠSum":8984,"Ġchromosome":8985,"emon":8986,"Ġmillions":8987,"ĠHotel":8988,"ĠNet":8989,"card":8990,"close":8991,"antic":8992,"ologic":8993,"neq":8994,"stack":8995,"Ġaccused":8996,"vm":8997,"ĠDate":8998,"Ġexperts":8999,"World":9000,"Ġcorrelated":9001,"Init":9002,"ĠJournal":9003,"Ġpositively":9004,"Ġpublish":9005,"oids":9006,"Ġrecurrence":9007,"mapsto":9008,"Ġintrinsic":9009,"Ġpermission":9010,"Update":9011,"Ġschizophrenia":9012,"ĠSwitzerland":9013,"æĸ":9014,"ĠGener":9015,"cpp":9016,";&":9017,"ĠîĬ¦":9018,"GS":9019,"esides":9020,"Ġ68":9021,"Ġreactions":9022,"Ġintestinal":9023,"âĪ":9024,"Ġaggrav":9025,"ilar":9026,"government":9027,"Ġhydraulic":9028,"Sm":9029,"Ġplanned":9030,"Ġadj":9031,"zen":9032,"Ġdropped":9033,"ĠReal":9034,"El":9035,"Ġuniversity":9036,"qquad":9037,"Ġatheroscler":9038,"Ġinfected":9039,"=============":9040,"Ġmapping":9041,"Ġsuperior":9042,"Ġmacrophages":9043,"Ġboolean":9044,"ĠProgram":9045,"ULT":9046,"iration":9047,"Ġpursue":9048,"ĠKey":9049,"Ġpreferred":9050,"hab":9051,"Ġpurchased":9052,"ĠImmun":9053,"Ġrehabilitation":9054,"Ġplanet":9055,"ĠLincoln":9056,"VID":9057,"Ġintegral":9058,"Ġexcited":9059,"Ġopposition":9060,"Ġextensive":9061,"direct":9062,"ĠDouglas":9063,"west":9064,"lie":9065,"Ġdischarged":9066,"atisf":9067,"Ġpeptides":9068,"Ġ$-":9069,"Ġsister":9070,"Ġarrival":9071,"Ġconvinced":9072,"update":9073,"Ġconflicts":9074,"buffer":9075,"Ġfo":9076,"Ġsharp":9077,"Ġknowing":9078,"Ġrestaurant":9079,"Ġreliable":9080,"Ġstolen":9081,"ĠPo":9082,"None":9083,"Ġgam":9084,"ĠGrand":9085,"Ġrapidly":9086,"Evaluate":9087,"Ġ\\*":9088,"actic":9089,"Ġmechanical":9090,"Ġacquired":9091,"NC":9092,"Ġkinds":9093,"VE":9094,"Ġiter":9095,"Ġsyntax":9096,"Ġentrance":9097,"Ġforming":9098,"Ġgrateful":9099,"Ġhazard":9100,"ĠModel":9101,"Attribute":9102,"ori":9103,"Ġcomplement":9104,"uming":9105,"Ġcomplicated":9106,"ĠDu":9107,"eclipse":9108,"inson":9109,"./":9110,"ho":9111,"Ġincreasingly":9112,"Ġoriginally":9113,"Ġcontroller":9114,"Ġpayments":9115,"system":9116,"ĠRoad":9117,"kt":9118,"Ġ$(\\":9119,"Ġdistricts":9120,"Ġtransaction":9121,"bro":9122,"Ġhal":9123,"Ġfeels":9124,"ĠMa":9125,"bscribe":9126,"ĠWood":9127,"column":9128,"Ġsharing":9129,"Frame":9130,"'$":9131,"NOT":9132,"ampl":9133,"ATH":9134,"Ġreviewed":9135,"amination":9136,"ĠExper":9137,"umes":9138,"Ġwebsites":9139,"People":9140,"Ġpixels":9141,"Ġoc":9142,"ĠMean":9143,"ĠFind":9144,"ictionary":9145,"Who":9146,"Ġstatistics":9147,"Ġridiculous":9148,"ĠBE":9149,"ĠâĨĴ":9150,"Ġlegislation":9151,"LO":9152,"Ġslowly":9153,"Ġschemes":9154,"Ġshaft":9155,"Ġscreens":9156,"conduct":9157,"Ġ1995":9158,"ublisher":9159,"Ġintegration":9160,"ja":9161,"Ġcorporate":9162,"Ġfirms":9163,"Ġpromise":9164,"Ġtransferred":9165,"Ġyounger":9166,"Null":9167,"Ġspecimens":9168,"ĠRodriguez":9169,"Ġwalls":9170,"ĠLIABILITY":9171,"ucle":9172,"Ġ>=":9173,";</":9174,"ETHOD":9175,"ida":9176,"Ġowned":9177,"Ġflight":9178,"Ġsettlement":9179,"ĠProv":9180,"Ġregistered":9181,"Ġregulatory":9182,"ĠStephen":9183,"||":9184,"ĠFA":9185,"acking":9186,"Ġcars":9187,"orig":9188,"Ġdiagrams":9189,"Mem":9190,"Ġha":9191,"Ġevident":9192,"Ġinstitutions":9193,"Ġvictims":9194,"~,":9195,"Ġje":9196,"Ġtip":9197,"Ġhotel":9198,"ĠAtt":9199,"rome":9200,"front":9201,"ĠOregon":9202,"Thank":9203,"VF":9204,"axis":9205,"Ġbeta":9206,"ĠBook":9207,"Ġprompt":9208,"Ġengaged":9209,"Tab":9210,"Ġanyway":9211,"reated":9212,"600":9213,"Ġclock":9214,"nic":9215,"FORM":9216,"Ġaddressed":9217,"Ġfacing":9218,"Ġintroduce":9219,"anted":9220,"Ġradius":9221,"ĠIC":9222,"bell":9223,"Ġconce":9224,"Ġrecognize":9225,"Ġaudience":9226,"iber":9227,"ĠSol":9228,"Ġheadquarters":9229,"Ġretail":9230,"Also":9231,"About":9232,"ĠAvenue":9233,"product":9234,"prefix":9235,"pool":9236,"Ġtube":9237,"ĠFort":9238,"Ġlawyers":9239,"ĠKansas":9240,"Ġinflammatory":9241,"eting":9242,"Ġfort":9243,"Ġwinning":9244,"service":9245,"Ġsetup":9246,"Ġbear":9247,"Appellant":9248,"Ġinduction":9249,"Ġconsumer":9250,"Ġserial":9251,"Ġneuronal":9252,"chemical":9253,"luorescence":9254,"HA":9255,"Ġsizes":9256,"Bo":9257,"Ġadverse":9258,"Ġtwenty":9259,"URE":9260,"Ġfails":9261,"step":9262,"ga":9263,"GET":9264,"Ġ61":9265,"Ġ1980":9266,"105":9267,"ĠLine":9268,"Ġisland":9269,"ĠFootball":9270,"VERSION":9271,"ĠMrs":9272,"Ġquasi":9273,"Ġ67":9274,"Ġfee":9275,"Ġcanonical":9276,"Ġradical":9277,"ĠMur":9278,"jango":9279,"Ġentertainment":9280,"RES":9281,"{-":9282,"API":9283,"ĠPT":9284,"Ġcoal":9285,"ĠFood":9286,"Ġreporters":9287,"activity":9288,"Ġparticipate":9289,"court":9290,"Ġexpon":9291,"cb":9292,"Ġrenew":9293,"ĠTrust":9294,"eld":9295,"OCK":9296,"ĠLos":9297,"Ġgift":9298,"Ġfairly":9299,"Ġwound":9300,"Ġcolumns":9301,"Ġinfiltr":9302,"Ġprobe":9303,"Ġmomentum":9304,"Top":9305,"Ġwindows":9306,"=(":9307,"OST":9308,"Process":9309,"Ġsimulation":9310,"oute":9311,"Ġgoods":9312,"Ġaver":9313,"015":9314,"ropolitan":9315,"irection":9316,"Ġentity":9317,"fin":9318,"Ġscratch":9319,"window":9320,"rays":9321,"iders":9322,"ĠUkrainian":9323,"Ġstores":9324,"Ġwonderful":9325,")}{":9326,"Ġdrives":9327,"Ġoperate":9328,"ĠTop":9329,"Ġdecade":9330,"\"}),":9331,"Ãª":9332,"Ġfuck":9333,"Ġtremendous":9334,"ĠCard":9335,"Ġdocumentation":9336,"ĠmM":9337,"Ġing":9338,"Ġseparation":9339,"ĠCell":9340,"Ġpresentation":9341,"638719":9342,"aching":9343,"Ġlap":9344,"Ġkilling":9345,"%;":9346,"Ġnarrative":9347,"che":9348,"ĠĠĠĠĠĠĠĠĠĠĠĠĠĠĠĠĠĠĠĠĠĠĠĠĠĠĠĠĠĠĠĠĠĠĠĠĠĠĠĠĠĠĠĠĠĠĠĠĠĠĠĠĠĠĠĠĠĠĠĠĠĠĠĠĠĠĠĠĠĠĠĠĠĠĠĠĠĠĠĠĠĠĠĠĠĠĠĠĠĠĠĠĠĠĠĠĠĠĠĠĠĠĠĠĠĠĠĠĠĠĠĠĠĠĠĠĠĠĠĠĠĠĠĠĠĠĠĠĠĠĠĠĠĠĠĠĠĠĠĠĠĠĠĠĠĠĠĠĠĠĠĠĠĠĠĠĠĠĠĠĠĠĠĠĠĠĠĠĠĠĠĠĠĠĠĠĠĠĠĠĠĠĠĠĠĠĠĠĠĠĠĠ":9349,"Ġpassword":9350,"Ġremind":9351,"Ġdiscover":9352,"Ġdependence":9353,"ĠConstitution":9354,"Ġok":9355,">&":9356,"Ġbuildings":9357,"Ġproducing":9358,"Ġcircum":9359,"Ġaside":9360,"Ġregardless":9361,"YS":9362,"Ġsad":9363,"Reference":9364,"Ġclusters":9365,"Ġtab":9366,"ĠDiego":9367,"Ġrooms":9368,"Ġcorresponds":9369,"Ġsuffered":9370,"ĠMer":9371,"ĠThree":9372,"Ġvast":9373,"Ġveter":9374,"ĠVersion":9375,"Donald":9376,"endar":9377,"Ġpy":9378,"Ġsocioeconomic":9379,"Ġcrash":9380,"Ġheader":9381,"ĠScientific":9382,"env":9383,"Ġincubation":9384,"Ġster":9385,"lot":9386,"ĠOper":9387,"Ġtournament":9388,"Ġgrounds":9389,"Ġtrafficking":9390,"ĠMaybe":9391,"Ġvehicles":9392,"Ġlift":9393,"ĠEff":9394,"Â®":9395,"ĠJonathan":9396,"Ġsuffering":9397,"Ġmathematical":9398,"Ġbureaucr":9399,"iology":9400,"Ġaccommod":9401,"Ġgalaxies":9402,"Ġdust":9403,"etal":9404,"ĠIns":9405,"Ġsa":9406,"Ġcoupled":9407,"Ġcalculate":9408,"ĠMs":9409,"Ġinconsistent":9410,"Ġpublication":9411,"Ġsubsequently":9412,"copy":9413,"cho":9414,"Ġ}}":9415,"Ġlaboratory":9416,"ĠIntelligence":9417,"Ġequally":9418,"Ġarthritis":9419,"Ġchoices":9420,"ername":9421,"Ġstraightforward":9422,"à®":9423,"Ġdimensions":9424,"============":9425,"Ġattempted":9426,"owski":9427,"Ġvo":9428,"ervation":9429,"Ġsen":9430,"Ġrefused":9431,"GT":9432,"textbf":9433,"ĠĠĠĠĠĠĠĠĠĠĠĠĠĠĠĠĠĠĠĠĠĠĠĠĠĠ":9434,"Many":9435,"blog":9436,"Ġstood":9437,"THE":9438,"ynchron":9439,"Ġspoken":9440,"Ġrecruitment":9441,"Ġ1994":9442,"Ġcontributed":9443,"Ġcurvature":9444,"Ġescape":9445,"internal":9446,"she":9447,"uture":9448,"Ġcoast":9449,"ĠHollywood":9450,"Ġ250":9451,"ĠAmong":9452,"vin":9453,"example":9454,"gathered":9455,"ĠRoberts":9456,"icated":9457,"Ġboost":9458,"files":9459,"ĠSupp":9460,"Ġrounded":9461,"Ġmob":9462,"ĠLake":9463,"sy":9464,"them":9465,"Ġindictment":9466,"Ġnecrosis":9467,"Ġokay":9468,"Change":9469,"Ġwarning":9470,"(_":9471,"isk":9472,"idel":9473,"Ġentropy":9474,"Cal":9475,"ĠBureau":9476,"Ġplenty":9477,"Ġdinner":9478,"Ġmoral":9479,"Ġauthent":9480,"gebra":9481,"Even":9482,"imum":9483,"Ġbasically":9484,"ĠReport":9485,"Ġ77":9486,"Ġdecline":9487,"Ġproceedings":9488,"ĠJeff":9489,"}\\\\":9490,"Ġcatalog":9491,"ĠAlabama":9492,"Ġinflammation":9493,"2003":9494,"project":9495,"Ġspectral":9496,"Good":9497,"Ġboys":9498,")}$":9499,"omas":9500,"ĠTw":9501,"ECK":9502,"Ġcomplications":9503,"Ġwriter":9504,"Ġcalculation":9505,"Ġloyal":9506,"ĠDoes":9507,"Ñı":9508,"eds":9509,"HL":9510,"Ġsuprem":9511,"âĢ©":9512,"ĠArmy":9513,"ARD":9514,"tree":9515,"Ġcolors":9516,"Ġstrike":9517,"getElementById":9518,"å¤":9519,"Ġrepresenting":9520,"Ġemployer":9521,"ĠYet":9522,"ĠMus":9523,"ĠTown":9524,"ĊĊĠĠĠĠĠĠĠĠĠĠĠĠĠĠĠ":9525,"Ġversions":9526,"Ġappell":9527,"Â§":9528,"ĠAlzheimer":9529,"Ġhydrogen":9530,"Ġsymmetry":9531,"Ġlesions":9532,"1999":9533,"Ġsatisfied":9534,"ĠLeft":9535,"Ver":9536,"river":9537,"then":9538,"regulated":9539,"ctx":9540,"ĠOxford":9541,"Ġwal":9542,"ĠDoc":9543,"Ġbrown":9544,"zero":9545,"ĠSU":9546,"Ġthickness":9547,"Ġ{}":9548,"Ġmagnitude":9549,"Ġrefr":9550,"Ġbench":9551,"Ġstronger":9552,"ĠRespond":9553,"two":9554,"Ġschedule":9555,"ĠÂµ":9556,"aze":9557,"Ġtranscripts":9558,"Ġatmospheric":9559,"pin":9560,"Ġagencies":9561,"VAL":9562,"Ġinstruct":9563,"Ġcontrary":9564,"mes":9565,"ĠSC":9566,"Ġongoing":9567,"nn":9568,"umed":9569,"havior":9570,"Ġcapture":9571,"Server":9572,"Ġsight":9573,"Ġmonitored":9574,"Ġconcent":9575,"Description":9576,"180":9577,"HD":9578,"753":9579,"Ġenrich":9580,"Ġheter":9581,"ĠLast":9582,"XF":9583,"Ġteachers":9584,"JECT":9585,"Ġfoods":9586,"FLAGS":9587,"Ġexplo":9588,"Ġbegins":9589,"Ġbanks":9590,"tra":9591,"Ġlens":9592,"FE":9593,"Ð¼":9594,"Ġelectrode":9595,"Ġopposed":9596,".$":9597,"hen":9598,"Ġnewly":9599,"ima":9600,"thread":9601,"Ġ84":9602,"ĠAccordingly":9603,"Ġflash":9604,"ĠMissouri":9605,"Ġcreates":9606,"Ġdecreasing":9607,"Ġstands":9608,"Ġenemies":9609,"support":9610,"location":9611,"kes":9612,"Ġmigration":9613,"Ġcircle":9614,"NP":9615,"ĊČ":9616,"Ġcrew":9617,"Ġfly":9618,"Ġobserve":9619,"Most":9620,"double":9621,"make":9622,"Ġmoves":9623,"positive":9624,"Ġregional":9625,"ĠYouTube":9626,"isa":9627,"Ġcylindrical":9628,"Ġsaved":9629,"lier":9630,"Ġmanufacturing":9631,"ĠNetwork":9632,"ĠMAP":9633,"Ġcongressional":9634,"Ġhistorical":9635,"---------------------------------------":9636,"command":9637,"ĠÐ¿":9638,"Hey":9639,"Use":9640,"Ġcards":9641,"Ġminister":9642,"Local":9643,"Row":9644,"Ġtort":9645,"utable":9646,"ĠCast":9647,"Ġconform":9648,"iced":9649,"aws":9650,"ĠParis":9651,"Ġinstances":9652,"Ġcath":9653,"HC":9654,"Ġwinter":9655,"ĠSing":9656,".^[@":9657,"fi":9658,"009":9659,"Ġmoderate":9660,"Ġmarkers":9661,"Ġarbit":9662,"Ġbacterial":9663,"Ġdeclaration":9664,"ÑĮ":9665,"foo":9666,"åľ¨":9667,"Ġbin":9668,"2002":9669,"bul":9670,"leep":9671,"ĠCanadian":9672,"Ġperforming":9673,"Ġ-\\":9674,"Ġ69":9675,"Ġrenal":9676,"illion":9677,"ĠTrue":9678,"Ġmachinery":9679,"iro":9680,"Ġyellow":9681,"Ġexit":9682,"112":9683,"Ġdealing":9684,"Ġbringing":9685,"Ġadenocarcinoma":9686,"irus":9687,"Ġrequiring":9688,"ĠEntertainment":9689,"Ġtechnologies":9690,"cover":9691,"Ġsan":9692,"Ġconsequence":9693,"Ġmissed":9694,"ĠOh":9695,"Ġuncomfortable":9696,"Ġwalked":9697,"ĠGiven":9698,"Ġmodes":9699,"Ġintermediate":9700,"Ġtargeted":9701,"alloc":9702,"especially":9703,"Engine":9704,"yes":9705,"ĠSimilarly":9706,"Ġstatistically":9707,"ĠFinancial":9708,"Ġperiods":9709,"Ġordinary":9710,"BE":9711,"ĠArray":9712,"Ġoutdoor":9713,"Ġ===":9714,"ĠBush":9715,"Ġglut":9716,"emic":9717,"vision":9718,"Ġtransparency":9719,"person":9720,"rat":9721,"Ġbeer":9722,"ĠRam":9723,"Ġselling":9724,"Ġclassified":9725,"ĠOrder":9726,"ANT":9727,"Ġaged":9728,"there":9729,"Ġ$|":9730,"ĠBlue":9731,"Ġexecution":9732,"Ġpret":9733,"ucks":9734,"Ġthrows":9735,"ito":9736,"vol":9737,"ĠAnalysis":9738,"Project":9739,"103":9740,"Ġusage":9741,"Ġsemi":9742,"Ġinjured":9743,"Ġsimulations":9744,"Ġsubset":9745,"ĠLand":9746,"Ġportfolio":9747,"Ġparadigm":9748,"800":9749,"Ġherein":9750,"Ġcalculations":9751,"Ġwest":9752,"čĊĠĠĠĠĠĠĠĠĠĠĠĠĠĠĠ":9753,"Ġshouldn":9754,"Ġwisdom":9755,"Ġtens":9756,"ĠĠĠĠĠĠĠĠĠĠĠĠĠĠĠĠĠĠĠĠĠĠĠĠĠĠĠ":9757,"ynamics":9758,"tein":9759,"ĠBlo":9760,"Ġhell":9761,"some":9762,"âķĲâķĲâķĲâķĲâķ":9763,"ilation":9764,"Ġdifferentiation":9765,"Expand":9766,"Ġsurprising":9767,"Ġanalytical":9768,"Ġmutation":9769,"Ġedges":9770,"Ġtoken":9771,"Ġintake":9772,"Ġimmigrants":9773,"Ġinnocent":9774,"access":9775,"{(":9776,"oped":9777,"Ġextracted":9778,"endant":9779,"Ġfragment":9780,"Ġbrings":9781,"ht":9782,"Ġ\\-":9783,"Ġshell":9784,"Ġfaces":9785,"ĠSi":9786,"ĠRepublicans":9787,"ĠUt":9788,"ĊĠĠĠĠĠĠĠĠĠĠĠĠĠĠĠĠ":9789,"render":9790,"Ġlosing":9791,"esteem":9792,"ĠJim":9793,"Thread":9794,"ĠNY":9795,"ĠCredit":9796,"ĠMike":9797,"Ġrows":9798,"Ġhormone":9799,"Ġshares":9800,"dl":9801,"Ġgall":9802,"Ġethanol":9803,"PM":9804,"Ġchose":9805,"Ġwearing":9806,"uler":9807,"Ġdelete":9808,"Address":9809,"ĠGame":9810,"Ġrely":9811,"Ġindustries":9812,"menu":9813,"ormal":9814,"arXiv":9815,"Ġproducer":9816,"Ġmammalian":9817,"disc":9818,"Ġconversations":9819,"site":9820,"Ġconfigurations":9821,"van":9822,"Ġreserved":9823,"David":9824,"Ġconnections":9825,"Ġchecked":9826,"ĠWater":9827,"\"}](":9828,"}_\\":9829,"ila":9830,"Ġspan":9831,"Ġprojected":9832,"020":9833,"Ġreader":9834,"Ġ97":9835,"report":9836,"Down":9837,"DEBUG":9838,"Ġprediction":9839,"bas":9840,"anth":9841,"Ġ180":9842,"Ġ1993":9843,"ARY":9844,"Ġdiagonal":9845,"phone":9846,"ĠInit":9847,"Ġmutant":9848,"dy":9849,"255":9850,"Ġsummar":9851,"Ġinvolve":9852,"uality":9853,"HR":9854,"His":9855,"Tool":9856,"ighter":9857,"Pol":9858,"Did":9859,"full":9860,"when":9861,"ĠDallas":9862,"Ġactivated":9863,"Ġrobust":9864,"Ġtranslation":9865,"Like":9866,"ĠImage":9867,"Ġelected":9868,"ĠMake":9869,"Ġsurprise":9870,"Ġrobbery":9871,"ĠCOU":9872,"Ġanywhere":9873,"remove":9874,"Ġprognosis":9875,"Ġinclusion":9876,"Ġtrained":9877,"lections":9878,"Ġseriously":9879,"ĠAngeles":9880,"Ġ::":9881,"ellee":9882,"each":9883,"Ġcomputed":9884,"stop":9885,"ĠBuild":9886,"Ġtherapies":9887,"claim":9888,"Ġcarefully":9889,"ĠConnecticut":9890,"Ġeast":9891,"),\\":9892,"Ġinhibitor":9893,"echn":9894,"PAR":9895,"Ġrepeat":9896,"Ġmatches":9897,"ĠCharles":9898,"Ġcomparable":9899,"Ġtrav":9900,"External":9901,"establ":9902,"Ġdecay":9903,"expression":9904,"ĠUser":9905,"ĠDM":9906,"Ġevil":9907,"tmp":9908,"Ġdiagnosed":9909,"Write":9910,"Ġapproximation":9911,"Ġkeys":9912,"gment":9913,"Ġexpendit":9914,"cit":9915,"Ġlunch":9916,"Ġca":9917,"Ġcontends":9918,"Ġattribute":9919,"Ġcomfort":9920,"inance":9921,"Ġprofiles":9922,"ĠNext":9923,"ĠRun":9924,"======================":9925,"Ġsovereignty":9926,"Ġinvasive":9927,"Ġdeterior":9928,"Ġpeaceful":9929,"Ġdomains":9930,"limits":9931,"Ġembry":9932,"ille":9933,"Ġbytes":9934,"ifndef":9935,"Ġintroduction":9936,"EV":9937,"Ġspac":9938,"Ġthereof":9939,"hal":9940,"Ġsatisfy":9941,"Ġabundant":9942,"ĊĠĠĠĠĠĠĠĠĠĠĠĠĠĠĠĠĠĠĠĠĠ":9943,"ocyte":9944,"Ġnurse":9945,"Ġsuspect":9946,"EP":9947,"Ġperfectly":9948,"Ġsubstrates":9949,"Ġ98":9950,"Search":9951,"Ġreviews":9952,"Ġfluorescent":9953,"ducts":9954,"ĠRom":9955,"Ġalk":9956,"Ġoccasions":9957,"Ġapartment":9958,"ĠJul":9959,"Case":9960,"namespace":9961,"Ġbits":9962,"ĠBased":9963,"Ġ<=":9964,"virtual":9965,"Ġtele":9966,"ĠLu":9967,"Ġunw":9968,"Ġsnow":9969,"Ġdisclosed":9970,"Ġ88":9971,"ĠPlay":9972,"ĠTarget":9973,"Ġadhesion":9974,"Ġfruits":9975,"Ġ74":9976,"Ġstaining":9977,"Ġune":9978,"FONT":9979,"UST":9980,"address":9981,"PV":9982,"Ġlaunched":9983,"TV":9984,"acity":9985,"Ġ78":9986,"ĠClub":9987,"ILL":9988,"Ġdans":9989,"ĠBob":9990,"ĠMediterranean":9991,"Ġfault":9992,"Ġenormous":9993,"Ġbra":9994,"sn":9995,"should":9996,"ĠRet":9997,"è¯":9998,"orted":9999,"inks":10000,"Ġâī¤":10001,"enger":10002,"ĠColl":10003,"device":10004,"Ñĭ":10005,"ĠAgain":10006,"ĠError":10007,"102":10008,"ONE":10009,"Ġresolve":10010,"hol":10011,"Ġreferences":10012,"ĠGR":10013,"Ġwherein":10014,"ãģĦãģ":10015,"empty":10016,"Account":10017,"Ġau":10018,"Ġtheme":10019,"Ġimposed":10020,"Ġocean":10021,"Car":10022,"Ġcontrolling":10023,"Ġnumerical":10024,"dest":10025,"Ġallegations":10026,"Ġcylinder":10027,"Ġeducational":10028,"Ġprote":10029,"orship":10030,"ĠBefore":10031,"Ġtruck":10032,"Ġfed":10033,"Ġfa":10034,"Ġtom":10035,"Ġserves":10036,"idal":10037,"ĠRock":10038,"Ġthromb":10039,"Ġbreaking":10040,"Entity":10041,"á»":10042,"Ġpulse":10043,"eman":10044,"Location":10045,"Ġalgebras":10046,"ĠBow":10047,"ĠPhoenix":10048,"WR":10049,"Column":10050,"jwatson":10051,"Cor":10052,"Ġyields":10053,"erver":10054,"ĠNC":10055,"NR":10056,"}-\\":10057,"addr":10058,"otox":10059,"Ġconvex":10060,"mediated":10061,"Ġpresents":10062,"uan":10063,"During":10064,"ounter":10065,"Ġmales":10066,"asty":10067,"Ġroutine":10068,"Ġpartially":10069,"Ġchallenging":10070,"adium":10071,"Lo":10072,"Ġexacerb":10073,"Will":10074,"sa":10075,"Ġdialog":10076,"ogether":10077,"prod":10078,"Ġamplitudes":10079,"ints":10080,"ĠAction":10081,"Ġacet":10082,"nm":10083,"Ġhun":10084,"Ġreveal":10085,"Ġcenturies":10086,"Ġsocieties":10087,"ĠSign":10088,"ĠPS":10089,"ĠLook":10090,"Ġabnormal":10091,"ĠVALUES":10092,"Mark":10093,"Ġpursu":10094,"Ġdifficulty":10095,"verage":10096,"Ġdensities":10097,"Ġbrilliant":10098,"stone":10099,"note":10100,"Script":10101,"Ġcomplexity":10102,"OUT":10103,"Ġbulk":10104,"Ġfig":10105,"014":10106,"Ġsufficiently":10107,"ĠCruz":10108,"ĠDan":10109,"ji":10110,"Ġmonitor":10111,"Ġblind":10112,"orial":10113,"Connection":10114,"GO":10115,"Ġ1992":10116,"ĠRight":10117,"Ġcameras":10118,"Ġvoluntary":10119,"Ġloaded":10120,"ipl":10121,"Ġcited":10122,"ĊĊĠĠĠĠĠĠĠĠĠĠĠĠĠĠĠĠĠĠĠĠĠĠĠĠĠĠĠĠĠĠ":10123,"ĠHTML":10124,"Ġbehalf":10125,"Ġsomewhere":10126,")),":10127,"Ġexplicitly":10128,"formed":10129,"Ġdataset":10130,"awa":10131,"erty":10132,"CRIPT":10133,"Ãł":10134,")$$":10135,"ĠELISA":10136,"ĠRos":10137,"IVE":10138,"comment":10139,"ĠOTHER":10140,"Ġfinger":10141,"Ġ<-":10142,"ĠMat":10143,"Ġexperiencing":10144,"Ġride":10145,"ĠJoe":10146,"vious":10147,"Ġdict":10148,"Ġcutting":10149,"Ġanticip":10150,"greg":10151,"NET":10152,"Ġgrew":10153,"Ġstabil":10154,"Ġgentle":10155,"uv":10156,"Ġmild":10157,"omorphism":10158,"ĠLagrangian":10159,"123":10160,"Ġcolorectal":10161,"Ġinduce":10162,"Further":10163,"ĠWalker":10164,"Ġqui":10165,"lam":10166,"supp":10167,"Application":10168,"Ġmetabolism":10169,"ĠTeam":10170,"Ġgel":10171,"Ġ71":10172,"Ġgreatly":10173,"Ġroyal":10174,"zo":10175,"Ġcache":10176,"130":10177,"ĠĠĠĠĠĠĠĠĠĠĠĠĠĠĠĠĠĠĠĠĠĠĠĠĠĠĠĠĠ":10178,"iest":10179,"Ġcarrier":10180,"rup":10181,"Ġrelevance":10182,"ĠEV":10183,"uit":10184,"they":10185,"âĢĵâĢĵâĢĵâĢĵâĢĵâĢĵâĢĵâĢĵâĢĵâĢĵâĢĵâĢĵâĢĵâĢĵâĢĵâĢĵâĢĵâĢĵâĢĵâĢĵâĢĵâĢĵâĢĵâĢĵâĢĵâĢĵâĢĵâĢĵâĢĵâĢĵâĢĵâĢĵâĢĵâĢĵâĢĵâĢĵâĢĵâĢĵâĢĵâĢĵâĢĵ":10186,").$$":10187,"Ġsteel":10188,"Ġ..":10189,"ĠItaly":10190,"Ġphotograph":10191,"Ġcontrad":10192,"Ġtack":10193,"Ġ++":10194,"ĠSpecial":10195,"Ġdrinking":10196,"Ġ76":10197,"Ġmanufacturers":10198,"ĠMoscow":10199,"aser":10200,"Ġnearby":10201,"Ġconservative":10202,"Ġswimming":10203,"ĠDown":10204,"Ġchlor":10205,"Ġimproving":10206,"Task":10207,"018":10208,"ĠManchester":10209,"024":10210,"stro":10211,"variant":10212,"Ġcopies":10213,"har":10214,"plus":10215,"Ġhardware":10216,"Health":10217,"ĠComput":10218,"ĠAustralian":10219,"Ġclassic":10220,"ĠCaptain":10221,"Ġleaf":10222,"ĠCase":10223,"Ġprofit":10224,"ĠBest":10225,"email":10226,"]-[@":10227,"Ġbridge":10228,"keep":10229,"Ġalive":10230,"ĠJr":10231,"ĠFox":10232,"ĠED":10233,"Ġabdominal":10234,"ĠJo":10235,"ĠJack":10236,"Ġfewer":10237,"Ġdioxide":10238,"Ġurban":10239,"::::::::::::::::::::::::::::::::::::::::":10240,"Ġarmy":10241,"}({\\":10242,"Ġproven":10243,"rapper":10244,".]":10245,"wedge":10246,"eh":10247,"gar":10248,"Ġconjunction":10249,"ĠOld":10250,"Ġinfectious":10251,"%).":10252,"umps":10253,"second":10254,"Ġinvestors":10255,"mean":10256,"ACT":10257,"Ġdress":10258,"ĠJacob":10259,"Ġharassment":10260,"store":10261,"Ġchest":10262,"leton":10263,"Ġspontaneous":10264,"Ġbuttons":10265,"IX":10266,"Ġfrust":10267,"ĠFourier":10268,"Ġstrip":10269,"Pointer":10270,"ĠNASA":10271,"shift":10272,"Ġamplitude":10273,"!âĢĿ":10274,"Ġresponded":10275,"Ġsport":10276,"Parser":10277,"Ġhepatic":10278,"inals":10279,"Ġshelter":10280,"Ġ),":10281,"such":10282,"years":10283,"Ġexerc":10284,"hash":10285,"Sw":10286,"Ġventricular":10287,"Red":10288,"Ġtwelve":10289,"Ġ:)":10290,"Ġadmission":10291,"romise":10292,"ibly":10293,"}.$$":10294,"ĠEar":10295,"Ġhandling":10296,"Queue":10297,"Ġlarvae":10298,"ĠTechnology":10299,"dp":10300,"Ġda":10301,"Ġproud":10302,"ĠHAVE":10303,"Ġnotion":10304,"ĠYear":10305,"ĠValley":10306,"Debug":10307,"ĠDetroit":10308,"Wednesday":10309,"km":10310,"Ġhasn":10311,"Ġneural":10312,"family":10313,"Ġdesk":10314,"ĠRiemann":10315,"ĠPur":10316,"Ġdrivers":10317,"Ġproposals":10318,"Ġaging":10319,"Ġmagnet":10320,"params":10321,"Ġcurriculum":10322,"Ġlic":10323,"ĠOK":10324,"ĠMedia":10325,"Ġfeasible":10326,"}[":10327,"Ġinterf":10328,"Ġhealthcare":10329,"ods":10330,"emphasis":10331,"Ġscored":10332,"ĠMot":10333,"Ġdominant":10334,"Ġtrib":10335,"Ġsuffer":10336,"}]":10337,"enders":10338,"Ġment":10339,"ĠBern":10340,"iously":10341,"ĠPers":10342,"Ġcod":10343,"about":10344,"Ġreward":10345,"ĠAust":10346,"á¹":10347,"Ġfemales":10348,"ĠBY":10349,"Ġmonoclonal":10350,"Ġenabled":10351,"fire":10352,"Ġsignature":10353,"izations":10354,"SQL":10355,"etry":10356,"Each":10357,"ĠSher":10358,"Ġprolonged":10359,"ĠInvest":10360,"'),":10361,"Non":10362,"Ġtel":10363,"handle":10364,"October":10365,"Ġbiopsy":10366,"Ġplug":10367,"Ġvariance":10368,"Ġbusy":10369,"ĠVancouver":10370,"Descriptor":10371,"Ġquantity":10372,"Ġ**(":10373,"gi":10374,"VC":10375,"Ġbid":10376,"Ġsending":10377,"Ġ111":10378,"Ġhash":10379,"ĠAnthony":10380,"ĠSO":10381,"ĠEp":10382,"ixed":10383,"AK":10384,"Ġsky":10385,"LY":10386,"Ġ73":10387,"Ġ94":10388,"Ġfeelings":10389,"ĠCross":10390,"ĠAsia":10391,"rees":10392,"holder":10393,"Ġcouncil":10394,"isions":10395,"nowledge":10396,"Ġadjusted":10397,"Ġomitted":10398,"æĪ":10399,"Ġpetitioner":10400,"Ġ130":10401,"Ġ![":10402,"Ġcovering":10403,"emble":10404,"admin":10405,"ĠChem":10406,"hom":10407,"Ġelections":10408,"ĠAdv":10409,"Ġcomparing":10410,"ĠDisease":10411,"roy":10412,"Ġdivorce":10413,"Ġfulf":10414,"SET":10415,"ĠMaterial":10416,"ĠEll":10417,"Ġengage":10418,"background":10419,"Document":10420,"sf":10421,"Ġvariations":10422,"Ġrevenues":10423,"Ġ×":10424,"ĠHam":10425,"ĠResults":10426,"fall":10427,"will":10428,"ĠMass":10429,"Ġbutter":10430,"ĠHy":10431,"ĠGa":10432,"Ġdiabetic":10433,"Ġvectors":10434,"Ġdivide":10435,"ĠAppendix":10436,"IGHT":10437,"ĠVenezuel":10438,"Ġcontinuing":10439,"Ġsurveys":10440,"Ġru":10441,"Does":10442,"Ġsle":10443,"Ġcareful":10444,"PG":10445,"Ġdiverse":10446,"ologist":10447,"emperature":10448,"Unc":10449,"}}}}":10450,"parse":10451,"anna":10452,"Ġcommitment":10453,"Ġicon":10454,"Ġreduces":10455,"Ġnutrition":10456,"Ġwhilst":10457,"Level":10458,"nc":10459,"Ġriver":10460,"ĠMD":10461,"Ġads":10462,"ĠNumber":10463,"}^{-":10464,"Obv":10465,"Ġchopped":10466,"Ġsurprised":10467,"Ġnit":10468,"legate":10469,"Ġnewspapers":10470,"join":10471,"Ġyards":10472,"Ġaudio":10473,"icles":10474,"Ġmarketing":10475,"Ġtumour":10476,"Ġstreets":10477,"master":10478,"fc":10479,"Ms":10480,"lean":10481,"Ġunsigned":10482,"bits":10483,"Ġdish":10484,"ĠPrinc":10485,"Ġmistake":10486,"Ġheads":10487,"ĠPrime":10488,"Once":10489,"Ġmarker":10490,"Ġnic":10491,"Ġ\\\"":10492,"ĠRoman":10493,"sys":10494,"mercial":10495,"Ġfrequent":10496,"Ġcultures":10497,"Ġundert":10498,"imated":10499,"Ġcolour":10500,"ĠNetherlands":10501,"Ġunprecedented":10502,"ĠEmpire":10503,"Ġ79":10504,"Ġcrimes":10505,"Position":10506,"ĠSupport":10507,"Ġcream":10508,"Ġcomposed":10509,"aka":10510,"Ġprotest":10511,"Ġfract":10512,"Ġshoulder":10513,"ĠLocal":10514,"Ġterr":10515,"Ġhab":10516,"104":10517,"ĠLuc":10518,"Ġmarginal":10519,"Ġgoogle":10520,"Ġpresidential":10521,"Ġ$\\{":10522,"Ġmatching":10523,"Ġclosing":10524,"Ġpartnership":10525,"Ġprovider":10526,"Ġorbital":10527,"<\\":10528,"Ġjur":10529,"Ġextraordinary":10530,"controller":10531,"Ġmeta":10532,"ensity":10533,"Doc":10534,"patch":10535,"Ġbuying":10536,"Ġparas":10537,"icy":10538,"Ġprecise":10539,"Ġindependently":10540,"cher":10541,"ĠLar":10542,"meta":10543,"Ġlists":10544,"fd":10545,"Ġna":10546,"een":10547,"ati":10548,"enyl":10549,"Ġineffective":10550,"Ġsubtle":10551,"ĠChris":10552,"Ġprogramming":10553,"Ġtongue":10554,"ĠKn":10555,"kind":10556,"Ġtiming":10557,"ĠSarah":10558,"Ġadds":10559,"Types":10560,"Ġ1991":10561,"Ġcommunications":10562,"Ġparticipation":10563,"Module":10564,"through":10565,"Ġrevolution":10566,"IME":10567,"iol":10568,"016":10569,"Ġpassion":10570,"}'":10571,"Ġdemocratic":10572,"Ġenterprise":10573,"RODUCTION":10574,"ĠRest":10575,"Ġrefers":10576,"Theta":10577,"Ġaimed":10578,"vs":10579,"ĠSM":10580,"Ġanymore":10581,"ĠFunction":10582,"ĠCy":10583,"pay":10584,"ĠBase":10585,"Height":10586,"Tree":10587,"dependency":10588,"ĠThank":10589,"fill":10590,"Ġsingular":10591,"Ġgeneric":10592,"Ġprivacy":10593,"Following":10594,"Ġwhenever":10595,"Ġrush":10596,"Pi":10597,"Ġnerve":10598,"ĠMich":10599,"ĠSafety":10600,"ĠHal":10601,"ĠSQL":10602,"Ġfailing":10603,"ĠDescription":10604,"Ġtalked":10605,"eling":10606,"\\_[":10607,"Ġsuppress":10608,"caps":10609,"Ġprocessed":10610,"ĠKar":10611,"bon":10612,"what":10613,"Ġcheap":10614,"Ġadvent":10615,"ulin":10616,"Ġlipid":10617,"ĠPa":10618,"eeeeeeeeeeeeeeeeeeeeeeeeeeeeeeeeeeeeeeeeeeeeeeeeeeeeeeeeeeeeeeeeeeeeeeeeeeeeeeeeeeeeeeeeeeeeeeee":10619,"Ġmovies":10620,"Ġcapac":10621,"ibration":10622,"ocus":10623,"ional":10624,"ãĥ¼":10625,"ĠAlaska":10626,"dehyde":10627,"super":10628,"ĠĠĠĠĠĠĠĠĠĠĠĠĠĠĠĠĠĠĠĠĠĠĠĠĠĠĠĠ":10629,"Ġdefeated":10630,"Menu":10631,"Ġtrace":10632,"Ġunstable":10633,"Ġsuppose":10634,"bot":10635,"ĠSat":10636,"Ġmalignant":10637,"ocial":10638,"ĠCur":10639,"ĠKim":10640,"Ġhook":10641,"Ġcoinc":10642,"ĠForce":10643,"ĠMiddle":10644,"ĠManagement":10645,"Ġhur":10646,"Ġgenerating":10647,"<!--":10648,"ertificate":10649,"ITE":10650,"?'":10651,"Ġproduces":10652,"oured":10653,"Ġsuddenly":10654,"prov":10655,"enna":10656,"Ġweigh":10657,"Ġ87":10658,"onom":10659,"ĠInstagram":10660,"Ġ125":10661,"upload":10662,"opes":10663,"awn":10664,"Ã©e":10665,"Ġwatched":10666,"Ġexecuted":10667,"Ġtranscript":10668,"Ġviability":10669,"Ġsulf":10670,"Ġcriterion":10671,"IZ":10672,"ĠLight":10673,"ĠJava":10674,"Ġacoustic":10675,"Ġ83":10676,"ĠEcon":10677,"Ġrecombinant":10678,"Ġlongevity":10679,"estival":10680,"Ġuniversal":10681,"Ġ93":10682,"ĠMid":10683,"bus":10684,"Ġdrag":10685,"istance":10686,"ologically":10687,"Ġarchitecture":10688,"Ġtutorial":10689,"Section":10690,"Ġantigen":10691,"ĠRequest":10692,"Ġkinase":10693,"ĠLIMITED":10694,"Access":10695,"Ġproducers":10696,"Ġspons":10697,"Ġloading":10698,"ĠSource":10699,"Ġmodules":10700,"Ġmodification":10701,"Exec":10702,"Ġ((-":10703,"efully":10704,"urg":10705,"Ġcable":10706,"Tag":10707,"Ġdeclare":10708,"Ġdoub":10709,"Ġargs":10710,"ĠDom":10711,"Ġatoms":10712,"Ġattributes":10713,"Ġbabies":10714,"final":10715,"Ġreb":10716,"January":10717,"Ġcrop":10718,"Ġmarks":10719,"ĠRights":10720,"ĠCurrent":10721,"ĠLie":10722,"Ġscrutiny":10723,"Ġcervical":10724,",$$":10725,"ira":10726,"sen":10727,"Ġawareness":10728,"otropic":10729,"ador":10730,"Ġelsewhere":10731,"Ġcuts":10732,"ĠSweden":10733,"Ġexpenses":10734,"ĠHand":10735,"Stud":10736,"Ġsandwich":10737,"Ġphylogenetic":10738,"Ġwaves":10739,"lan":10740,"Ġcourage":10741,"ĠChapter":10742,"Ġapplic":10743,"ĠArkansas":10744,"=>":10745,"entity":10746,"dig":10747,"Ġsynthesized":10748,"Ġmom":10749,"Ġmuseum":10750,"Ġcoordinates":10751,"Ġsovereign":10752,"total":10753,"Ġenabling":10754,"Ġalert":10755,"Ġduplic":10756,"ĠHD":10757,"Ġdirections":10758,"rine":10759,"ĠNA":10760,"Ġreceiver":10761,"Ġcrack":10762,"Ġ115":10763,"Rad":10764,"))/(":10765,"Under":10766,"Ġexplains":10767,"Ġlosses":10768,",$":10769,"ĠiPhone":10770,"who":10771,"ĠME":10772,"Ġtea":10773,"','":10774,"Package":10775,"Ð²":10776,"bour":10777,"1998":10778,"Entry":10779,"Ġ\"/":10780,"ĠStart":10781,"Core":10782,"Ġtun":10783,"ĠLearning":10784,"Ġrecipe":10785,"ĠApplication":10786,"WE":10787,"ĠAG":10788,"etary":10789,"keys":10790,"debug":10791,"osomes":10792,"Ġreasonably":10793,"icing":10794,"uals":10795,"ĠBO":10796,"matrix":10797,"Ġencourage":10798,"found":10799,"Port":10800,"Ġinhibitors":10801,"Ġsomehow":10802,"ĠCM":10803,"Ġbroke":10804,"Ġtank":10805,"Ġtiny":10806,"ĠCentre":10807,"istical":10808,"Ġimprovements":10809,"ĠPage":10810,"dc":10811,"mond":10812,"Ġblank":10813,"Ġanchor":10814,"Ġ1970":10815,"rooms":10816,"Ġforum":10817,"Using":10818,"Ġvertex":10819,"Ġbomb":10820,"eto":10821,"Ġteeth":10822,"|^":10823,"Ġstruggle":10824,"108":10825,"Ġtrading":10826,"serv":10827,"Ġorganized":10828,"outer":10829,"ĠBeach":10830,"Ġignore":10831,"Sign":10832,"Ġelev":10833,"Ġconsiderable":10834,"utter":10835,"angers":10836,"Ġholes":10837,"Ġreaders":10838,"Ġtalks":10839,"ĠObserv":10840,"Ġ1988":10841,"ĠGlobal":10842,"Ġlegs":10843,"Ġcleaning":10844,"ISCUSSION":10845,"ĠOl":10846,"Ġ}\\":10847,"Ġpermitted":10848,"ĊĉĠĠĠ":10849,"ĠMain":10850,"Ġstrange":10851,"Ġpriority":10852,"Ġtemporary":10853,"280":10854,"Ġproviders":10855,"Ġwitnesses":10856,".;":10857,"]{}]{}":10858,"names":10859,"entially":10860,"usp":10861,"Only":10862,"Ġ86":10863,"Ġreleases":10864,"Ġ})":10865,"111":10866,"dem":10867,"ĠGOOGLE":10868,"107":10869,"ĠEvent":10870,"Ġaluminum":10871,"ograms":10872,"127":10873,"Come":10874,"pres":10875,"viously":10876,"Ġbeneath":10877,"Ptr":10878,"ĠWilson":10879,"ĠLow":10880,"ĠPath":10881,"Ġlocally":10882,"Ġquot":10883,"ĠShow":10884,"Ġdisability":10885,"Ġonset":10886,"DOCTYPE":10887,"rator":10888,"Ġ89":10889,"Ġmedication":10890,"Ġinfluenza":10891,"Ġuncertainty":10892,"ĠKennedy":10893,"Dir":10894,"ĠDeputy":10895,"Ġdisappoint":10896,"Ġwet":10897,"Ġ82":10898,"ĠAut":10899,"ugg":10900,"Ġpaths":10901,"era":10902,"ĠMap":10903,"herence":10904,"ĠSyria":10905,"Ġpassengers":10906,"}\"":10907,"press":10908,"Ã¢":10909,"ĠÑģ":10910,"lat":10911,"reference":10912,"Ġrestriction":10913,"apolis":10914,"Ġhorizon":10915,"Second":10916,"Ġindirect":10917,"thal":10918,"Ġaer":10919,"Ġendogenous":10920,"ĠLett":10921,"task":10922,"Ġcooking":10923,"utrition":10924,"Ġoutlined":10925,"ĠâĻª\"":10926,"Ġadequately":10927,"Ġcontracts":10928,"driven":10929,"ĠCreate":10930,"ergic":10931,"Ġgran":10932,"Ġvalve":10933,"Ġborders":10934,"Ġalgorithms":10935,"Ġentries":10936,"Ġhepat":10937,"fg":10938,"REF":10939,"late":10940,"ali":10941,"Ġreturning":10942,"mac":10943,"Ġwrapped":10944,"Ġacceleration":10945,"Ġsilver":10946,"Ġcodes":10947,"iform":10948,"Ġfrequencies":10949,"Prop":10950,"ĠNetflix":10951,"angular":10952,"Ġpartition":10953,"amps":10954,"ĠDR":10955,"Ġ92":10956,"rystal":10957,"ĠPolicy":10958,">\\":10959,"blue":10960,"frequency":10961,"install":10962,"Ġsoul":10963,"Chapter":10964,"icular":10965,"ĠMiller":10966,"Ġtrick":10967,"Ġbreach":10968,"Ġunconstitutional":10969,"ĠTra":10970,"Ġgeometry":10971,"Copy":10972,"ĠHR":10973,"Ġ{{":10974,"Ġaqueous":10975,"332086":10976,"Ġtheories":10977,"ĠBASIS":10978,"Ġrib":10979,"ĠInf":10980,"Ġsubmit":10981,"Ġresolved":10982,"Ġparking":10983,"ĠVan":10984,"Ġbiosynthesis":10985,"Ġassembled":10986,"zy":10987,"Ġutility":10988,"Single":10989,"Ġperspectives":10990,"inking":10991,"Put":10992,"Ġphenomenon":10993,"Ġ($\\":10994,"Ġboat":10995,"ĠdÃ©":10996,"November":10997,"High":10998,"Ġpushed":10999,"viruses":11000,"Ġinvent":11001,"VM":11002,"Ġlemma":11003,"Ġorthogonal":11004,"Ġconverted":11005,"Ġstorm":11006,"Num":11007,"send":11008,"reh":11009,"eries":11010,"CLUDING":11011,"Title":11012,"Ġdiscrim":11013,"Valid":11014,"ĠPres":11015,"istence":11016,"tim":11017,"instance":11018,"Ġplates":11019,"Ġteen":11020,"token":11021,"Ġfunc":11022,"pert":11023,"echo":11024,"ĊĠĠĠĠĠĠĠĠĠĠĠĠĠĠĠĠĠĠĠĠĠĠĠĠĠĠĠĠĠĠĠĠĠĠĠ":11025,"ni":11026,"ĠTer":11027,"Ġforgotten":11028,"140":11029,"Ġ91":11030,"Ġpackages":11031,"Order":11032,"Ġconvenient":11033,"ĠSydney":11034,"Ġsimplicity":11035,"Ġovercome":11036,"Ġmeal":11037,"Ġirreducible":11038,"ĠPen":11039,"typedef":11040,"ĠGar":11041,"Ġaffects":11042,"Ġera":11043,"Ġfired":11044,"Ġconvicted":11045,"Ġgay":11046,"ä¸Ģä¸ª":11047,"ĠNintendo":11048,"ĠDigital":11049,"Ġupload":11050,"Ġcenters":11051,"ĠNFL":11052,"168":11053,"Draw":11054,"hot":11055,"Ġmodul":11056,"outheast":11057,"Ġbread":11058,"ĠSouthern":11059,"diff":11060,"Ġstone":11061,"sql":11062,"ĠElect":11063,"Ġpassage":11064,"Ġ>>":11065,"Ġrecommendations":11066,"\\}$":11067,"ĠDirect":11068,"usr":11069,"ĠCC":11070,"Ġdivergence":11071,"ĠBa":11072,"Ġcurrents":11073,"Ġgiant":11074,"Ġ119":11075,"Ġcovers":11076,"ĠPremier":11077,"Ġcompens":11078,"spect":11079,"ela":11080,"Ġ$[":11081,"ĠFifth":11082,"ington":11083,"ĠStan":11084,"Ġdiscussions":11085,"Ġpromoter":11086,"Ġexcit":11087,"USE":11088,"urable":11089,"IGN":11090,"ched":11091,"Ġplea":11092,"ova":11093,"days":11094,"ĠServer":11095,"being":11096,"OUR":11097,"Ġpersonally":11098,"Ġmaintaining":11099,"Ġgorgeous":11100,"Ġmuc":11101,"Ġkeeps":11102,"Ġgrab":11103,"Ġexpanded":11104,"agent":11105,"Sort":11106,"week":11107,"ĠQuestion":11108,"Ġdb":11109,"Ġ113":11110,"ĠPBX":11111,"Ġprevention":11112,"Offset":11113,"connect":11114,"ĠEnt":11115,"ĠCook":11116,"STAT":11117,"Ġguarantee":11118,"custom":11119,"oning":11120,"orph":11121,"Ġreproductive":11122,"Ġextensively":11123,"Ġconcrete":11124,"Ġencompass":11125,"Ro":11126,"Ġ=\\":11127,"Ġfiling":11128,"backs":11129,"Ġkm":11130,"Ġhonor":11131,"loop":11132,"Ġmedi":11133,"Ġfibroblasts":11134,"ĠReference":11135,"cache":11136,"imately":11137,"Custom":11138,"oline":11139,"Ġthroat":11140,"ĠWhether":11141,"ĠPuerto":11142,"Ġdeputy":11143,"ĠANOVA":11144,"Ġpara":11145,"Ġgang":11146,"Ġnucleotide":11147,"Ġrural":11148,"Ġcompute":11149,"Several":11150,"åĬ":11151,"Ġoperated":11152,"Ġregularly":11153,"Ġscales":11154,"ĠPL":11155,"Ġfeaturing":11156,"ĠSix":11157,"Ġvill":11158,"Ġ81":11159,"ĠWay":11160,"Ġroof":11161,"Ġcompeting":11162,"Ġappreciate":11163,"Ġpsychological":11164,"Ġphysics":11165,"ĠUI":11166,"ĊĠĠĠĠĊĠĠĠ":11167,",{\\":11168,"uber":11169,"Ġellip":11170,"iments":11171,"uration":11172,"Ġconsisting":11173,"Ġunp":11174,"Sorry":11175,"Ġfriendly":11176,"Option":11177,"yy":11178,"Enc":11179,"Ġ1989":11180,"container":11181,"Ġentering":11182,"ĠEuclidean":11183,"Ġsoccer":11184,"Ġworldwide":11185,"ĠMart":11186,"Ġsizeof":11187,"ami":11188,"Ġviewed":11189,"uid":11190,"Ġquantitative":11191,"oned":11192,"Ġflesh":11193,"Ġdrawing":11194,"Ġcotton":11195,"Ġ140":11196,"Ġplasmid":11197,"*]{},":11198,"Ġsoluble":11199,"drop":11200,"ãģĻ":11201,"Ġ(âĢľ":11202,"ĠStudies":11203,"rb":11204,"queue":11205,"Ġpleasant":11206,"Ġdedu":11207,"Ġextraction":11208,"Graph":11209,"norm":11210,"Ġverify":11211,"Ġseparately":11212,"Ġchampion":11213,"Okay":11214,"Ġinterference":11215,"Ġrising":11216,"Ġfolder":11217,"ĠÂ»":11218,"ĠHarvard":11219,"Ġglo":11220,"Ġcycles":11221,"ĠMargaret":11222,"Ġbatch":11223,"artment":11224,"Ġthinks":11225,"aping":11226,"oved":11227,"ĠCommunity":11228,"Ġdys":11229,"images":11230,"Ġcaps":11231,"Ġgovernments":11232,"Ġportions":11233,"Ġcompletion":11234,"ĠHampshire":11235,"Ġnamespace":11236,"Ġaccumulation":11237,"Cache":11238,"Ġcaptured":11239,"Ġroots":11240,"Ġexclusive":11241,"cmd":11242,"Ġqualified":11243,"layer":11244,"Ġfaced":11245,"ĠMedicare":11246,"ĠÐ²":11247,"Ġfusion":11248,"Ġalignment":11249,"Ġdemands":11250,"Ġkidney":11251,"Ġhide":11252,"ounce":11253,">.":11254,"white":11255,"Ġprohibited":11256,"ĊĊĉĉ":11257,"adder":11258,"Ġ112":11259,"Ġsoldiers":11260,"âĸĶâĸĶâĸĶâĸĶâĸĶâĸĶ":11261,"106":11262,"Ġincorporated":11263,"Ġdestination":11264,"ĠJeremy":11265,"Meanwhile":11266,"kit":11267,"inent":11268,"Collect":11269,"Ġsequencing":11270,"Ġhorses":11271,"session":11272,"Ġfalling":11273,"ĠCommerce":11274,"mitting":11275,"ĠMilwaukee":11276,"Î³":11277,"Ġstrings":11278,"Ġvarieties":11279,"^{-\\":11280,"Ġconstitute":11281,"illy":11282,"yard":11283,"carbon":11284,"Ġovarian":11285,"<?":11286,"Total":11287,"Unit":11288,"inv":11289,"MASK":11290,"Ġpresumably":11291,"Ġdecreases":11292,"Ġdismissed":11293,"Ġspr":11294,"MAX":11295,"hour":11296,"Activity":11297,"Ġcomprising":11298,"imm":11299,"ĠWin":11300,"Ġinterior":11301,"ĠConference":11302,"Ġreflected":11303,"Ġbeside":11304,"Ġbundle":11305,"ĠCustom":11306,"ĠEst":11307,"Sl":11308,"ĠManhattan":11309,"xc":11310,"ĠLA":11311,"Ġfasc":11312,"OF":11313,"works":11314,"Mac":11315,"ĠNelson":11316,"ĠTor":11317,"}}$.":11318,"Range":11319,"Ġdozens":11320,"Ġ114":11321,"Ġgradient":11322,"dict":11323,"Ġownership":11324,"ims":11325,"ĠAbout":11326,"Ġpuls":11327,"Ġseverely":11328,"PU":11329,"Ġadvis":11330,"Ġhorizontal":11331,"Ġstuck":11332,"Ġreaching":11333,"Long":11334,"Ġexpectations":11335,"pot":11336,"Ġfriction":11337,"biomolecules":11338,"ĠUV":11339,"119":11340,"Ġaddresses":11341,"Ġsignatures":11342,"ĠCancer":11343,"\"))":11344,"Ġworker":11345,"Ġaccessible":11346,"Ġfalls":11347,"ĠBeijing":11348,"Ġwel":11349,"Ġmounted":11350,"iva":11351,"Ġpasses":11352,"ĠTurkish":11353,"ĠAsh":11354,"ĠTHIS":11355,"}})":11356,"printf":11357,"Ġvelocities":11358,"ĠBangladesh":11359,"ĠGard":11360,"typename":11361,"anded":11362,"Ġbyte":11363,"ĠWat":11364,"}}}_":11365,"holders":11366,"CB":11367,"AMP":11368,"pu":11369,"essed":11370,"Ġscrew":11371,"Ġouts":11372,"Ġfoundation":11373,"Ġpadding":11374,"language":11375,"Ġcompetitive":11376,"Ġteaspoon":11377,"erk":11378,"117":11379,"Ġegg":11380,"export":11381,"Ġvariants":11382,"Ġultrasound":11383,"Ġpod":11384,"ĠIsraeli":11385,"DIR":11386,"Ġstations":11387,"docs":11388,"urer":11389,"Ġoriented":11390,"TL":11391,"'_":11392,"rent":11393,"Ġpacket":11394,"ĠAge":11395,"Step":11396,"changed":11397,"ĠĠĠĠĠĠĠĠĠĠĠĠĠĠĠĠĠĠĠĠĠĠĠĠĠĠĠĠĠĠ":11398,"Ġperturb":11399,"icts":11400,"Ġsatisfies":11401,"ifiers":11402,"Vector":11403,"ĠMen":11404,"textrm":11405,"Ġboot":11406,"ensitive":11407,"Ġanalyze":11408,"Ġaugment":11409,"ĠFrancis":11410,"rect":11411,"ĠPatients":11412,"Ġchart":11413,"^âĪĴ/âĪĴ^":11414,"Ġbands":11415,"Ġmasses":11416,"ĠDid":11417,"Ġ<!--":11418,"Ġseeds":11419,"ĊĊĠĠĠĠ":11420,"riving":11421,"Pass":11422,"irk":11423,"Container":11424,"ĠAndrew":11425,"ĠThough":11426,"ĠStandard":11427,"ĠKen":11428,"ĠBruce":11429,"Ġstir":11430,"čĊčĊ":11431,"ĠNorthern":11432,"ĠApache":11433,"Ġadmit":11434,"making":11435,"Ġnevertheless":11436,"ws":11437,"ĠCu":11438,"ĠLead":11439,"Ġimmunity":11440,"ADVERTISEMENT":11441,"his":11442,"Ð´":11443,"Ġages":11444,"ĠMP":11445,"vt":11446,"Ġappointed":11447,"Ġhoping":11448,"ĠTaliban":11449,"Ġrice":11450,"Ġmeetings":11451,"Ġfibrosis":11452,"Ġheating":11453,"Ġsed":11454,"HER":11455,"elect":11456,"Ġrabbit":11457,"Ġbunch":11458,"ĠðŁ":11459,"Ġalb":11460,"Ġfif":11461,"Ġprotective":11462,"Ġbarrier":11463,"black":11464,"Ġoccurrence":11465,"Ġlaid":11466,"Ġstochastic":11467,"Ġjudicial":11468,"Ġsimilarly":11469,"Ġoffensive":11470,"Nav":11471,"Ġcomprises":11472,"Ġlys":11473,"cells":11474,"Ġawarded":11475,"wall":11476,"Ġnations":11477,"Ġjunior":11478,"Ġdecor":11479,"Ġfolks":11480,"Ġauxiliary":11481,"Ġvotes":11482,"Ġhydrophobic":11483,"Ġlimitation":11484,"]\"":11485,"Ġstimulated":11486,"ĠHead":11487,"017":11488,"ĠĠĠĠĠĠĠĠĠĠĠĠĠĠĠĠĠĠĠĠĠĠĠĠĠĠĠĠĠĠĠ":11489,"Private":11490,"Ġenvelope":11491,"member":11492,"Vari":11493,"ĠSpace":11494,"zed":11495,"Ġsystematic":11496,"ourn":11497,"ĠPatent":11498,"worth":11499,"Ġimplications":11500,"ãĤĴ":11501,"cond":11502,"Ġchildhood":11503,"ĠFar":11504,"Ġassays":11505,"mons":11506,"tikzpicture":11507,"ĠWT":11508,"Mc":11509,"req":11510,"Op":11511,"Ġlin":11512,"Ġinfinite":11513,"Ġtargeting":11514,"eli":11515,"ĠAssoci":11516,"Ġrefusal":11517,"methyl":11518,"Ġcoding":11519,"Ġprojection":11520,"116":11521,"Impl":11522,"Main":11523,"ĠDar":11524,"COLOR":11525,"Ġgro":11526,"Ġjet":11527,"wrap":11528,"oplus":11529,"ÎºB":11530,"ĠIndivid":11531,"Origin":11532,"opens":11533,"ĠPetitioner":11534,"Ġpm":11535,"ĠProcess":11536,"ĠFL":11537,"115":11538,"Ġmolecule":11539,"ĠAndroid":11540,"Ġconsecutive":11541,"ensitivity":11542,"Ġip":11543,"achine":11544,"Ġ(%)":11545,"Ġcombustion":11546,"orous":11547,"arding":11548,"Http":11549,"ĠProcedure":11550,"Ġexplos":11551,"Ġengineering":11552,"KEY":11553,"SI":11554,"Ġmovements":11555,"bp":11556,"Ġrestrictions":11557,"Ġratios":11558,"empor":11559,"Ġsubjected":11560,"Ñĩ":11561,"ĠAsian":11562,"Ġbroadcast":11563,"riptions":11564,"ĠÏ":11565,"Ġ\\;":11566,"ĠMatt":11567,"Ġrelating":11568,"Ġenzymes":11569,"ĠDesign":11570,"Ġcreative":11571,"Ġsees":11572,"forms":11573,"ĠEnvironmental":11574,"ĠRub":11575,"ĠHun":11576,"}}}\\":11577,"ialize":11578,"}}}$":11579,"versely":11580,"Ġexpressions":11581,"Ġmaxim":11582,"ologists":11583,"Ġflexible":11584,"global":11585,"ĠConf":11586,"aturation":11587,"ĠGordon":11588,"ĠEXPECT":11589,"uated":11590,"Ġvarying":11591,"Di":11592,"ĠPlaintiffs":11593,"elt":11594,"zone":11595,"Ġadvertising":11596,"1996":11597,"Ġtemporal":11598,"sey":11599,"Ġfatigue":11600,"è¡Į":11601,"Ġenjoyed":11602,"Ġirregular":11603,"Ġbounded":11604,"asters":11605,"Ġ104":11606,"border":11607,"Ġinsight":11608,"Ġbull":11609,"hard":11610,"Equals":11611,"Ġelucid":11612,"Ġvice":11613,"Ġdefines":11614,"ĠIslamic":11615,"Rearrange":11616,"Ġcorporation":11617,"ĠOw":11618,"ĠRay":11619,"Ġecosystem":11620,"ĠĊĠĠĠĠĠĠĠ":11621,"round":11622,"ĠRepresent":11623,"Ġchip":11624,"feed":11625,"ĠPay":11626,"Ġconstantly":11627,"BV":11628,"Ġinteract":11629,"Ġunfortunate":11630,"ogram":11631,"Ġgrass":11632,"ĠCriminal":11633,"green":11634,"Ġpas":11635,"Bit":11636,"Ġarmed":11637,"Ġdenial":11638,"Ġdiffraction":11639,"Ġslight":11640,"Ġanswered":11641,"gan":11642,"Ġearned":11643,"Ġglad":11644,"Ġreluctant":11645,"lers":11646,"ĠFreedom":11647,"Ġabsent":11648,"Make":11649,"Mo":11650,"Parameter":11651,"Ġgest":11652,"Ġjavax":11653,"Ġawait":11654,"kn":11655,"Ġmetall":11656,"Ġeryth":11657,"Ġintra":11658,"MODULE":11659,"Ġ160":11660,"Ġlights":11661,"Ġdestroyed":11662,"represent":11663,"integ":11664,"ĠBrooklyn":11665,"Ġtract":11666,"ĠPass":11667,"ĠALL":11668,"ĠMR":11669,"Ġvital":11670,"Ġequivalence":11671,"Ġexecute":11672,"+^":11673,"iden":11674,"ĠTax":11675,"Ġvaccine":11676,"Ġul":11677,".),":11678,"Ġeffectiveness":11679,"Ġretrieve":11680,"Ġsuspicion":11681,"ĠÂ¶":11682,"Ġdisappeared":11683,"olving":11684,"Ġdecent":11685,"Ġble":11686,"Ġjson":11687,"Ġdisturb":11688,"Ca":11689,"Ġruled":11690,"Ġbeneficial":11691,"Ġimmigration":11692,"ĠLtd":11693,"ĠSon":11694,"gex":11695,"Ġprecision":11696,"impl":11697,"Perhaps":11698,"ÂĹ":11699,"Ġsidew":11700,"ĠCreek":11701,"Ġtall":11702,"ĠGraham":11703,"ĠArthur":11704,"Ġbubble":11705,"materials":11706,"ĠFermi":11707,"Ġcollective":11708,"Ġconstrued":11709,"unsigned":11710,"-*":11711,"ĠCONTRIBUTORS":11712,"berry":11713,"}}$,":11714,"fact":11715,"Ġperf":11716,"Ġcoordinate":11717,"INS":11718,"Ġaltered":11719,"ĠHon":11720,"avor":11721,"Ġending":11722,"Ġlifetime":11723,"primary":11724,"Ġ600":11725,"subseteq":11726,"ĠBL":11727,"Ø§Ø":11728,"ĠTri":11729,"scope":11730,"Ġtransportation":11731,"Ġconsistently":11732,"Ġliberal":11733,"():":11734,"Ġfeeding":11735,"CN":11736,"Ġintern":11737,"*~*":11738,"Ġobstacles":11739,"may":11740,"Ġunlawful":11741,"Ġjoy":11742,"Ġeverybody":11743,"Ġ['":11744,"Ġdip":11745,"ĠSpain":11746,"Ġmitochondrial":11747,"employ":11748,"Support":11749,"otypes":11750,"ĠTake":11751,"formance":11752,"Ġattended":11753,"Ġ102":11754,"Ġsmile":11755,"Dialog":11756,"application":11757,"Ġresponsibilities":11758,"âĢĶâĢĶâĢĶâĢĶ":11759,"ĠTotal":11760,"Ġdeposition":11761,"Ġdesigns":11762,"Ġangular":11763,"analysis":11764,"plot":11765,"Ġtrajectory":11766,"rose":11767,"Ġ('":11768,".*]{}":11769,"ENABLE":11770,"Ġepithelium":11771,"Ġranging":11772,"Ġlayout":11773,"binding":11774,"Ġtensor":11775,"ĠPop":11776,"Ġinevitably":11777,"âĸĦâĸĦâĸĦâĸĦâĸĦâĸĦâĸĦâĸĦâĸĦâĸĦâĸĦâĸĦâĸĦâĸĦâĸĦâĸĦ":11778,"role":11779,"Ġshorter":11780,"aste":11781,"ĠAdministration":11782,"Ġautomatic":11783,"è®":11784,"Ġspecify":11785,"Â£":11786,"Ġsurge":11787,"Ġsmoke":11788,"azz":11789,"Ġarrangement":11790,"February":11791,"Store":11792,"urities":11793,"Ġimper":11794,"ï»¿":11795,"ĠChampionship":11796,"Ġ\\|":11797,"×Ļ×":11798,"Ġforever":11799,"Ġrarely":11800,"Ġerred":11801,"Ġdebug":11802,"Ġautoimmune":11803,"Pos":11804,"Ġjail":11805,"Ġhat":11806,"ĠOct":11807,"Ġ117":11808,"BT":11809,"ĠChairman":11810,"Ġspher":11811,"1997":11812,"dated":11813,"Ġcomplexes":11814,"ĠAntonio":11815,"rell":11816,"Ġdevelopers":11817,"eval":11818,"regulation":11819,"Ġluxury":11820,"Ġtips":11821,"Ġacceptable":11822,"Ġvisited":11823,"Ġblow":11824,"Ġartery":11825,"Sk":11826,"Ġforest":11827,"Ġkit":11828,"åŃ":11829,"Ġvoting":11830,"oves":11831,"ĠÂ°":11832,"domain":11833,"ç»":11834,"Ġpra":11835,"alg":11836,"Ġunclear":11837,"Ġdoors":11838,"124":11839,"Ġsurvive":11840,"čĊĉĉĉ":11841,"lied":11842,"Ġeverywhere":11843,"ĉĉĉĉĉĉ":11844,"$]{}":11845,"ĠFBI":11846,"Ġpromising":11847,"ructure":11848,"ĠDist":11849,"ĠTerm":11850,"ĠBuddh":11851,"ĠÂĹ":11852,"commun":11853,"=-":11854,"Ġexport":11855,"Ġcoordination":11856,"Ġsacrifice":11857,"\\}":11858,"exts":11859,"ANG":11860,"asks":11861,"012":11862,"Ġdisabled":11863,"Ġconcomitant":11864,"sex":11865,"Ġrandomly":11866,"ĠSir":11867,"aur":11868,"Ġretrospective":11869,"Ġ116":11870,"flags":11871,"Ġphysician":11872,"Ġneurological":11873,"ĠHistory":11874,"Ġsole":11875,"Ġ128":11876,"ĠSteve":11877,"icker":11878,"Ġpoliticians":11879,"Ġfibers":11880,"Ġintegrity":11881,"Ġ1986":11882,"Interface":11883,"iy":11884,"rating":11885,"etter":11886,"ĠFamily":11887,"ĠStewart":11888,"Ġmath":11889,"ateral":11890,"Ġorbit":11891,"Ġwake":11892,"Ġproceeding":11893,"byte":11894,"Instead":11895,"Ġ105":11896,"Ġshopping":11897,"gov":11898,"Ġallegedly":11899,"hu":11900,"agger":11901,"Ġbreed":11902,"Ġtransgenic":11903,"Ġultimate":11904,"Ġrhetoric":11905,"Serv":11906,"auto":11907,"Fs":11908,"Ġcoli":11909,"rob":11910,"Ġnormalized":11911,"Ġskill":11912,"don":11913,"subs":11914,"Ġ109":11915,"'\\":11916,"ĠPython":11917,"endor":11918,"Ġlean":11919,"ocker":11920,"¿Ã¿Ã¿":11921,"ĠIntroduction":11922,"Three":11923,"ĠÃĹÂ":11924,"Ġ106":11925,"ãģ«":11926,"nan":11927,"ando":11928,",\\,":11929,"ascular":11930,"ĠHig":11931,"Ġslices":11932,"âī":11933,")_":11934,"Ġ1987":11935,"Ġ1983":11936,"Ġidentifying":11937,"ĠBon":11938,"Edit":11939,"Ġmixing":11940,"Ġbonus":11941,"PER":11942,"Ġmacro":11943,"pad":11944,"ĠMO":11945,"Ġviolent":11946,"onomy":11947,"olds":11948,"igate":11949,"olly":11950,"away":11951,"pton":11952,"register":11953,"Ġmonthly":11954,"Ġutilized":11955,"ĠFlo":11956,"ĠUnfortunately":11957,"ĠQuant":11958,"Ġvalidation":11959,"ĠSTAT":11960,"underline":11961,"ĠExt":11962,"ĠHor":11963,"ativistic":11964,"Ġprojections":11965,"CONCLUSION":11966,"widget":11967,"Ġphilosophy":11968,"izable":11969,"Ġproximal":11970,"Ġdat":11971,"spring":11972,"Ġbiomarkers":11973,"Ġviolated":11974,"arse":11975,"Ġdump":11976,"Ġwireless":11977,"schemas":11978,"Ġpathogens":11979,"109":11980,"iley":11981,"Empty":11982,"Ġwashed":11983,"isp":11984,"Ġmoisture":11985,"âĢĭ":11986,"ĠSeries":11987,"Ġinstallation":11988,"cancers":11989,"izz":11990,"Windows":11991,"Rect":11992,"arter":11993,"Ġassociations":11994,"Ġchromatography":11995,"Ġ118":11996,"ipher":11997,"Ġarranged":11998,"ĠIndex":11999,"Ġcompanion":12000,"andy":12001,"Ġtyrosine":12002,"tri":12003,"Ġchecking":12004,"Ġ$.":12005,"Ġdeeply":12006,"Ġprocedural":12007,"Ġinstrumental":12008,"Ġ[âĢ¦]":12009,"Ġcheese":12010,"Ġmountain":12011,"kl":12012,"Ġattitude":12013,"Ġrear":12014,"ĠCarl":12015,"Ġfunny":12016,"Ġwheels":12017,"ILE":12018,"Ġturb":12019,"Ġmicrobial":12020,"bc":12021,"Ġpointer":12022,"ãĢ":12023,"Ġconcepts":12024,"rule":12025,"usc":12026,"Ġgalaxy":12027,"Ġtreating":12028,"enable":12029,"Ġamended":12030,"ĠWild":12031,"Ġharder":12032,"rying":12033,"Ġassignment":12034,"git":12035,"orandum":12036,"ĠCommand":12037,"Ġyeah":12038,"Ġphenotype":12039,"Ġembr":12040,"Ġhockey":12041,"Ġnorthern":12042,"ĠBrexit":12043,"appy":12044,"Ġsymmetric":12045,"Ġspiritual":12046,"Ġfertil":12047,"ĠBell":12048,"Ġtaxpayer":12049,"Ġvoted":12050,"ools":12051,"Ġtokens":12052,"Ġsimultaneous":12053,"Ġlos":12054,"screen":12055,"ĠWeek":12056,"Ġechocardi":12057,"Ġassemblies":12058,"ĠÂ«":12059,"Ġcorrelations":12060,"Ġerroneous":12061,"Ġsupernat":12062,"Ġsentencing":12063,"Ġarise":12064,"Ġreadily":12065,"Ġvapor":12066,"Bs":12067,"rum":12068,"Ġhadn":12069,"Ġtemp":12070,"114":12071,"ometer":12072,"Ġbowl":12073,"offs":12074,"fields":12075,"vy":12076,"ĠPoint":12077,"ĠJSON":12078,"missible":12079,"Ġmsg":12080,"ĠKingdom":12081,"Ġreversed":12082,"Ġresidues":12083,".:":12084,"Ġrough":12085,"ĠIndust":12086,"Ġanniversary":12087,"ded":12088,"Body":12089,"Ġperception":12090,"stand":12091,"Ġresidence":12092,"Ġtracking":12093,"ĠSA":12094,"omp":12095,"Ġpanels":12096,"Ġinline":12097,"Ġsouthern":12098,"\\>":12099,"Ġtur":12100,"ĠRich":12101,"Conf":12102,"Ġstudying":12103,"ĠLev":12104,"ĠÐ½":12105,"Ġbonds":12106,"ĠMitchell":12107,"ĠTemple":12108,"ĠFair":12109,"Ġreveals":12110,"aque":12111,"Ġ+/-":12112,"Ġrecovered":12113,"Ġtet":12114,"'}":12115,"had":12116,"ĠNick":12117,"ĠStudy":12118,"gin":12119,"Ġinfrared":12120,"llegalArgumentException":12121,"113":12122,"Session":12123,"ĠAF":12124,"å¦Ĥæŀľ":12125,"President":12126,"Ġantigens":12127,"Ġfung":12128,"ĠTurn":12129,"omorphic":12130,"ĠCleveland":12131,"Ġsubsid":12132,"anti":12133,"ctrl":12134,"Ġlying":12135,"Grid":12136,"]{.":12137,"Ġoligonucleot":12138,"hspace":12139,"Ġmirror":12140,"plugin":12141,"Ġtransactions":12142,"Ġblot":12143,"Ġanesthesia":12144,"Ġbuck":12145,"Ġresist":12146,"Ġcere":12147,"illary":12148,"agan":12149,"ĠLim":12150,"Ġinterpreted":12151,"ĠContin":12152,"bind":12153,"[[":12154,"good":12155,"ti":12156,"Ġinfluenced":12157,"WARN":12158,"Ġcarbohyd":12159,"ĊĠĠĠĠĠĠĠĠĠĠĠĠĠĠĠĠĠĠĠĠĠĠĠĠĠ":12160,"VI":12161,"^{+":12162,"inic":12163,"Ġleuk":12164,"western":12165,"ĠAgency":12166,"Ġfactory":12167,"Material":12168,"Ġseventh":12169,"atically":12170,"Ġwrites":12171,"Ġscholars":12172,"Ġmanual":12173,"Ġpropose":12174,"Ġelectrophoresis":12175,"Ġcomputing":12176,"allenge":12177,"Ġmere":12178,"osomal":12179,"Ġrating":12180,"Ġarc":12181,"Ġrepeatedly":12182,"Ġdad":12183,"Ġphases":12184,"ĠAccess":12185,"..\\..\\":12186,"Ġbike":12187,"MAP":12188,"acon":12189,"Ġoverseas":12190,"Ġoccurring":12191,"Ġpricing":12192,"ĠStandards":12193,"game":12194,"Ġchemotherapy":12195,"Ġauthorized":12196,"Ġprinting":12197,"Ġharvest":12198,"Ġlawmakers":12199,"Ġsampled":12200,"Ġcontacts":12201,"REE":12202,"Ġvalidity":12203,"Ġdeclined":12204,"Ġflavor":12205,"rah":12206,"xf":12207,"Items":12208,"ulator":12209,"ago":12210,"Ġlabels":12211,"Ġadopt":12212,"ĠPot":12213,"135":12214,"Ġcoherent":12215,"eatures":12216,"ĠWord":12217,"mate":12218,"aware":12219,"Ġexciting":12220,"ASE":12221,"Ġreject":12222,"čĊĠĠ":12223,"irl":12224,"ĠPE":12225,"Ġprosper":12226,"enum":12227,"ĠAC":12228,"Ġprinted":12229,"Ġtopics":12230,"Hi":12231,"aza":12232,"Ġrod":12233,"ĠDue":12234,"Ġnodded":12235,"blem":12236,"æķ°æį®":12237,"oving":12238,"amic":12239,"Ġdefensive":12240,"Ġprotesters":12241,"RR":12242,"Ġattractive":12243,"Ġscandal":12244,"season":12245,"iii":12246,"wait":12247,"compatible":12248,"ĠMontgomery":12249,"1995":12250,"SV":12251,"Ġcooling":12252,"Ġreceipt":12253,"ĠMaster":12254,"atile":12255,"Ġenlarg":12256,"Ġdefects":12257,"UG":12258,"Ġextrem":12259,"bec":12260,"rophy":12261,"Ġexhibited":12262,"ZnodeID":12263,"Ġpenalties":12264,"ÎĶ":12265,"Ġdifficulties":12266,"enny":12267,"ĠDI":12268,"Ġrose":12269,"Ġunacceptable":12270,"Ġdrain":12271,"Ġclause":12272,"Ġelegant":12273,"Ġhang":12274,"Ġhardly":12275,"ĠHo":12276,"Ġhopes":12277,"Ġglobally":12278,"Ġgained":12279,"Ġreporter":12280,"ÐµÐ½":12281,"Ġtang":12282,"Edge":12283,"Ġromantic":12284,"connection":12285,"Ġmorbidity":12286,"ea":12287,"Ġ(@":12288,"Ġlabeled":12289,"*(-":12290,"bur":12291,"Ġraising":12292,":=":12293,"because":12294,"ĠThird":12295,"Ġderivatives":12296,"Ġmystery":12297,"Ġpotatoes":12298,"ĠRh":12299,"Ġsensors":12300,"Ġunlike":12301,"also":12302,"Ġ1985":12303,"plugins":12304,"ĠRog":12305,"clusions":12306,"ĠÂł":12307,"Ġcompassion":12308,"Integer":12309,"Ġphysically":12310,"Ġfacilit":12311,"ĠVegas":12312,"`,":12313,"Ġcomputation":12314,"!)":12315,"Ġpublicly":12316,"Ġ\"$":12317,"apsed":12318,"ĠHa":12319,"Ġthyroid":12320,"Ġcommerce":12321,"Hello":12322,"Ġproph":12323,"PRE":12324,"Ġexcessive":12325,"save":12326,"Ġloans":12327,"Convert":12328,"jar":12329,"æĹ¶":12330,"ĠTitle":12331,"itical":12332,"ãĤĭ":12333,"acet":12334,"Ġgross":12335,"April":12336,"Effect":12337,"ennis":12338,"Ġdiffusion":12339,"Ġtape":12340,"edit":12341,"Ġpreventing":12342,"Ġspecificity":12343,"Ġabortion":12344,"Ġenvironments":12345,"ĠGuard":12346,"oping":12347,"Free":12348,"Bas":12349,"Ġ{@":12350,"ĠLove":12351,"ĠSilver":12352,"~*":12353,"licenses":12354,"ĠImages":12355,"Ġguns":12356,".(":12357,"plan":12358,"Ġkil":12359,"Ġflour":12360,"Ġease":12361,"HTML":12362,"Ġtone":12363,"ĠâĢ¢":12364,"AME":12365,"Ġinspired":12366,"Ġsomebody":12367,"---------------------------------------------------------------------":12368,"ĠImp":12369,"Ġliked":12370,"Ġsurvivors":12371,"Ġboxes":12372,"×ķ×":12373,"ĠVladimir":12374,"ugs":12375,"oking":12376,"Ġputs":12377,"etric":12378,"Ġlegislative":12379,"Ġillustrated":12380,"Ġcampus":12381,"ĠAB":12382,"ishop":12383,"Have":12384,"replace":12385,"ĠAlternatively":12386,"čĊĠĠĠĠ":12387,"019":12388,"bad":12389,"Ġconnecting":12390,"interface":12391,"ï¿½":12392,"ĠWithout":12393,"Ġstunning":12394,"Ġappend":12395,"Ġphysicians":12396,"Ġbrush":12397,"Ġhesit":12398,"rus":12399,"ĠSn":12400,"ĠLebanon":12401,"Ġfounded":12402,"clinical":12403,"aki":12404,"Ġparse":12405,"è¦ģ":12406,"ĠHave":12407,"inet":12408,"Ġunexpected":12409,"United":12410,"Ġhorrible":12411,"idine":12412,"ĠRound":12413,"READ":12414,"Ġdestruction":12415,"ĠML":12416,"Reader":12417,"Ġbeliefs":12418,"ois":12419,"ĠRen":12420,"Ġimproper":12421,"Ġeliminate":12422,"Ġemerge":12423,"NG":12424,"Ġexterior":12425,"Ġdoses":12426,"<<":12427,"Expression":12428,"204":12429,"Ġtill":12430,"Ġexpressing":12431,"Ġmock":12432,"129":12433,"Ġbuff":12434,"century":12435,"Ġfurn":12436,"**.":12437,"Ġsom":12438,"Ġactor":12439,"plete":12440,"Ġ1984":12441,"mb":12442,"Ġdial":12443,"ĠConsequently":12444,"Ġhorse":12445,"ĠThrough":12446,"estamp":12447,"profile":12448,"Ġsystemic":12449,"Cap":12450,"ĠRA":12451,"Ġprospective":12452,"gal":12453,"Ġml":12454,"Ġundesirable":12455,"'>":12456,"urance":12457,"Ġmethylation":12458,"ographer":12459,"Ġscattered":12460,"opher":12461,"okes":12462,"Ġignored":12463,"Ġinvestigations":12464,"aux":12465,"Record":12466,"Hash":12467,"Ġbatteries":12468,"bold":12469,"release":12470,"Ġflags":12471,"criber":12472,"}}(\\":12473,"}$$\\":12474,"Ġdelayed":12475,"isen":12476,"Ġovernight":12477,"Ġatom":12478,"Ġdefend":12479,"Ġredistribute":12480,"Ġtension":12481,"&#":12482,"FILE":12483,"Iterator":12484,"Ġsiblings":12485,"Ġirradiation":12486,"Ġdiscrete":12487,"component":12488,"Ġmood":12489,"ĠCho":12490,"Ġinevitable":12491,"iel":12492,"ĠTODO":12493,"words":12494,"ĠGall":12495,"insert":12496,"ĠTHAT":12497,"åº":12498,"ĠFarm":12499,"_{-":12500,"Ġvisits":12501,"013":12502,"rupted":12503,"ĠBuffalo":12504,"Ġreact":12505,"channel":12506,"adi":12507,"ĠWE":12508,"Ġisolation":12509,"Ġbehaviors":12510,"ifting":12511,"pur":12512,"Ġgravity":12513,"Ġworried":12514,"acker":12515,"Ġcultiv":12516,"Ġtroubles":12517,"sters":12518,"Ġdisplays":12519,"Ġundoubtedly":12520,"emat":12521,"ĠMinistry":12522,"Ġconstrained":12523,"Ġpending":12524,"Ġlease":12525,"Begin":12526,"Ġpounds":12527,"echan":12528,"oglobin":12529,"Host":12530,"ĠNebraska":12531,"1994":12532,"ĠPriv":12533,"Ġattributed":12534,"ĠCF":12535,"Ġtonight":12536,"oscopic":12537,"amil":12538,"riting":12539,"Ġswitching":12540,"Ġinhabitants":12541,"pret":12542,"ĠCongressional":12543,"/.":12544,"ĠPrimary":12545,"ĠCas":12546,"ĠBR":12547,"Ġ\\#":12548,"Prot":12549,"ozygous":12550,"umor":12551,"rogen":12552,"agic":12553,"Ġshit":12554,"Ġcockt":12555,"Ġritual":12556,"Match":12557,"Ġdescribing":12558,"Show":12559,"Ġdifferently":12560,"javascript":12561,"$&$":12562,"Ġultraviolet":12563,"phosph":12564,"(){":12565,"gif":12566,"Ġloud":12567,"iffer":12568,"700":12569,"scriptscriptstyle":12570,".).":12571,"Ġweekly":12572,"inct":12573,"ĠMah":12574,":\\/\\/":12575,"Ġgear":12576,"Ġjuice":12577,"Ġcompleting":12578,"cluding":12579,"utors":12580,"Ġscaling":12581,"Ġroutinely":12582,"oli":12583,"Ġdisregard":12584,"Ġmagic":12585,"Ġretain":12586,"Ġcrypt":12587,"Ġincurred":12588,"ĠPI":12589,"Ġreflects":12590,"Anal":12591,"cases":12592,"Ġblame":12593,"IAL":12594,"ĠPUBLIC":12595,"Round":12596,"DF":12597,"ĠDam":12598,"ARE":12599,"Ġincorrect":12600,"identifier":12601,"Ġmaximal":12602,"idx":12603,"ymers":12604,"Ġele":12605,"Ġ103":12606,"_,":12607,"oga":12608,"$^{-":12609,"conv":12610,"ĠBirmingham":12611,"hh":12612,"Ġfunctionality":12613,"ĠMethod":12614,"ĠHard":12615,"Domain":12616,"Ġhypothes":12617,"izers":12618,"July":12619,"\\,\\":12620,"Ġcombinations":12621,"ONG":12622,"Ġcombine":12623,"BF":12624,"ĠThailand":12625,"Ġquestionnaires":12626,"Ġrocks":12627,"Ġprogressive":12628,"uity":12629,"Ġgarbage":12630,"Ġaneurys":12631,"ĠBat":12632,"ĠDisc":12633,"011":12634,"Ġpray":12635,"Ġframes":12636,"ĠRather":12637,"mask":12638,"Ġtransmitted":12639,"ĠAnderson":12640,"ĠMir":12641,"Ġboss":12642,"Ġbottles":12643,"Ġ[\"":12644,"rowser":12645,"Ġvariant":12646,"shall":12647,"Ġnod":12648,"Ġobtaining":12649,"ready":12650,"ĠarXiv":12651,"mal":12652,"Ġdates":12653,"ĠLy":12654,"Ġelectricity":12655,"Assembly":12656,"165":12657,"ĠAdditional":12658,"SW":12659,"Var":12660,"Â½":12661,"Ġhits":12662,"ĠĠĠĠĠĠĠĠĠĠĠĠĠĠĠĠĠĠĠĠĠĠĠĠĠĠĠĠĠĠĠĠĠĠ":12663,"Ġblocked":12664,"ĊĠĠĠĠĠĠĠĠĠĠĠĠĠĠĠĠĠĠĠĠ":12665,"Ġlimiting":12666,"figure":12667,"Maybe":12668,"Ġlateral":12669,"Ġsearching":12670,"ASH":12671,"Ġinterviews":12672,"Ġnucleus":12673,"Ġclinic":12674,"ĠIM":12675,"ĠMathematics":12676,"rates":12677,"uclear":12678,"Ġbatt":12679,"Ġpermissions":12680,"uz":12681,"ĠĠĠĠĠĠĠĠĠĠĠĠĠĠĠĠĠĠĠĠĠĠĠĠĠĠĠĠĠĠĠĠĠ":12682,"Ġemploys":12683,"Ġmerchandise":12684,"Ġregulated":12685,"University":12686,"Ġcit":12687,"ĠOrleans":12688,"Ġcallback":12689,"Ġaffecting":12690,"users":12691,"ERR":12692,"ummy":12693,"Ġreflection":12694,"ĠClearly":12695,"bibr":12696,"Ġbreakfast":12697,"Ġaims":12698,"Ġsynaptic":12699,"Ġasks":12700,"ĠLGBT":12701,"Ġedition":12702,"Ġ108":12703,"ecess":12704,"Ġcomputers":12705,"Ġsymptom":12706,"coll":12707,"ikes":12708,"forall":12709,"Ġdeals":12710,"Ġequality":12711,"Ġviruses":12712,"Ġsettled":12713,"ymmetric":12714,"Ġmultiplic":12715,"aron":12716,"Ġmelanoma":12717,"2020":12718,"Ġboundaries":12719,"Ġcategor":12720,"Ġcosm":12721,"inates":12722,"Found":12723,"Author":12724,"ĠCost":12725,"imen":12726,"aughter":12727,"ensing":12728,"rench":12729,"Ġanger":12730,"ĠĠĠĠĠĠĠĠĠĠĠĠĠĠĠĠĠĠĠĠĠĠĠĠĠĠĠĠĠĠĠĠ":12731,"ĠPrior":12732,"ĠImportantly":12733,"Ġpeer":12734,"derived":12735,"Ġabstract":12736,"Ġdesignated":12737,"Ġsnapshot":12738,"none":12739,"Ġhero":12740,"ĠFall":12741,"ĠUnivers":12742,"éĢ":12743,"Ġweights":12744,"ĠParticipants":12745,"Ġtablespoons":12746,"Cr":12747,"Ġadapted":12748,"Ġfilling":12749,"Ġink":12750,"ĠSR":12751,"Ġgenerator":12752,"Ġbreaks":12753,"Ġugly":12754,"Ġpredicting":12755,"Ġdiarrhea":12756,"Ġenables":12757,"ulent":12758,"delete":12759,"Ġgenuinely":12760,"âĸ":12761,"Ġedit":12762,"ĠAz":12763,"Ġtrends":12764,"Ġnegligence":12765,"Ġpa":12766,"Ġhy":12767,"ĠSpe":12768,"olver":12769,"âĢĻ.":12770,"Ġclimb":12771,"erving":12772,"Ġprevalent":12773,"ĠGames":12774,"Ġpreparations":12775,"Product":12776,"nes":12777,"Ġdaughters":12778,"ĠStill":12779,"ĠCoast":12780,"Ġdeeper":12781,"irth":12782,"Ġdenotes":12783,"\"));":12784,"_+":12785,"Ġpotassium":12786,"ĠOcean":12787,"Ġcrystals":12788,"Ġfavorable":12789,"Ġattempting":12790,"JS":12791,"Ġmerc":12792,"opol":12793,"udio":12794,"Ġinterfer":12795,"Ġowe":12796,"ĠVari":12797,"ĠJun":12798,"sem":12799,"Sequence":12800,"aturated":12801,"Ġmold":12802,"aults":12803,"igma":12804,"Ġepilepsy":12805,"Ġconvey":12806,"Ġvaried":12807,"Ġticket":12808,"Ġcounterparts":12809,"Ġheritage":12810,"repository":12811,"ĠSciences":12812,"Ġdementia":12813,"help":12814,"wing":12815,"Ġfits":12816,"Ġchaos":12817,"Ġms":12818,"Ġintracellular":12819,"Welcome":12820,"Ear":12821,"verted":12822,"Ġcombat":12823,"inth":12824,"Aut":12825,"Ġdamaged":12826,"Ġrestaurants":12827,"ĠBrad":12828,"Ġfocusing":12829,"*\\":12830,"-$":12831,"ĠHawaii":12832,"Ġrepresentations":12833,"Question":12834,"rical":12835,"ĠØ":12836,"Ġbearing":12837,"UPDATE":12838,"Ġembedding":12839,"Ġconfident":12840,"LP":12841,"ĠLORD":12842,"Ġma":12843,"Ġdendritic":12844,"oriented":12845,"hep":12846,"ĠEmploy":12847,"Ġintense":12848,"Ġtolerance":12849,"Ġfunded":12850,"ĠSullivan":12851,"Ġarithmetic":12852,"Ġpromotion":12853,"Ġemotion":12854,"short":12855,"Ġcub":12856,"ĠBible":12857,"Collection":12858,"ĠCraig":12859,"fileID":12860,"Ġmort":12861,"ĠFord":12862,"icillin":12863,"Ġbelie":12864,":@\"":12865,"ĠPBS":12866,"astro":12867,"ishes":12868,"ĠCG":12869,"Ġtransparent":12870,"Ġfarmers":12871,"random":12872,"Ġprosecutor":12873,"Font":12874,"Ġfitting":12875,"Ġinserted":12876,"Ġ135":12877,"Ġdesperate":12878,"Ġshots":12879,"240":12880,"FROM":12881,"Ġdetector":12882,"ĠâĪ":12883,"Ġprogramme":12884,"xs":12885,"quis":12886,"ubb":12887,"Ġpredictions":12888,"Ġblo":12889,"Ġshoes":12890,"192":12891,"Ġreleasing":12892,"ĠProgramm":12893,"Ġvisitors":12894,"PORT":12895,"Ġscoring":12896,"Ġselective":12897,"1990":12898,"Ġrendered":12899,"Ġmargins":12900,"Ġneuron":12901,"ĠVillage":12902,"Ġhungry":12903,"ĠHilbert":12904,"Ġgut":12905,"eme":12906,"Ġcommands":12907,"205":12908,"overs":12909,"Ġguest":12910,"itoneal":12911,"nl":12912,"ĠFull":12913,"Values":12914,"Ġbounds":12915,"ĠAdam":12916,"Ġabsorbed":12917,"Ġsynthetic":12918,"Ġfatty":12919,"Court":12920,"anny":12921,"Ġgotta":12922,"1993":12923,"cheme":12924,"Ġcortex":12925,"Ġimpressive":12926,"023":12927,"Ġpunishment":12928,"wa":12929,"Ġsou":12930,"Ġlistening":12931,"Ġbirths":12932,"Ġmunicipality":12933,"TF":12934,"puted":12935,"Ġdimin":12936,"watch":12937,"ĠCore":12938,"mates":12939,"022":12940,"Ġseizure":12941,"anim":12942,"igger":12943,"Ġpersonality":12944,"Ġautophagy":12945,"ĠFri":12946,"Enabled":12947,"Ġcontest":12948,"Ġcord":12949,"211":12950,"ĠORDER":12951,"Ġhealing":12952,"Del":12953,"1991":12954,"Ġneutrino":12955,";\">":12956,"Ġassistant":12957,"Ġoven":12958,"area":12959,"Ġphysiological":12960,"ĠLorentz":12961,"seq":12962,"Ġmatched":12963,"parison":12964,"angel":12965,"=\"@":12966,"Ġchoosing":12967,"Ġregarded":12968,"ĠIndiana":12969,"Ġconstitution":12970,"Ġoste":12971,"Ġions":12972,"tbl":12973,"Ġdeveloper":12974,"Ġquantities":12975,"TEST":12976,"uer":12977,"tools":12978,"Rule":12979,"ĠBio":12980,"Ġhematopoietic":12981,"CODE":12982,"ĠSy":12983,"Ġsuspected":12984,"Ġmini":12985,"ĠSW":12986,"ĠFALSE":12987,"Ġspectacular":12988,"Ġvulnerable":12989,"Widget":12990,"perp":12991,"Ġcondem":12992,"Utils":12993,"Miss":12994,"}}_{\\":12995,"Ġchains":12996,"inator":12997,"Ġstake":12998,"ĠBab":12999,"ĠBC":13000,"Ġdecimal":13001,"Ġpeaks":13002,"Ġsaving":13003,"Ġ132":13004,"Ġì":13005,"ĠUniverse":13006,"aire":13007,"åĽ":13008,"BER":13009,"OLD":13010,"Ġlikes":13011,"Ġresistant":13012,"Ġweird":13013,"Ġapps":13014,"_{(":13015,"Ġmanually":13016,"translation":13017,"resource":13018,"Ġpreserve":13019,"Additional":13020,"++;":13021,"Ġpermanently":13022,"DEVICE":13023,"Ġodds":13024,"ĠPakistani":13025,"Ġmature":13026,"ÑģÑĤ":13027,"ĠAward":13028,"asted":13029,"Ġobjection":13030,"held":13031,"amond":13032,"sky":13033,"ĠFisher":13034,"hang":13035,"æĸ¹æ³ķ":13036,"Ġdefect":13037,"Ġgenomic":13038,"Ġpushing":13039,"ĠLat":13040,"Ġdehydrogenase":13041,"ĠYankees":13042,"ĠDem":13043,"Ġoxidative":13044,"Ġpotent":13045,"Ġconsciousness":13046,"encephal":13047,"Ġpill":13048,"Ġmad":13049,"Ġstrictly":13050,"ĠCam":13051,"lit":13052,"Ġnons":13053,"REG":13054,"Ġangry":13055,"KS":13056,"CHAR":13057,"OME":13058,"Ġfitness":13059,"tk":13060,"~)":13061,"ĠHop":13062,"oxide":13063,"dk":13064,"Ang":13065,"ĠĠĠĠĠĠĠĠĠĠĠĠĠĠĠĠĠĠĠĠĠĠĠĠĠĠĠĠĠĠĠĠĠĠĠĠĠĠĠĠĠ":13066,"Ġdance":13067,"ĠMill":13068,"Ġpromised":13069,"Ġmilit":13070,"Ġtalent":13071,"emption":13072,"Ġ\"<":13073,"fect":13074,"Ġcraft":13075,"Fragment":13076,"Ġlect":13077,"Ġjunction":13078,"Ġvisiting":13079,"je":13080,"ĠProp":13081,"Args":13082,"Ġinverse":13083,"ectomy":13084,"Her":13085,"Ġtactics":13086,"Ġdiaphragm":13087,"Ġestablishment":13088,"ophy":13089,".\\[[@":13090,"Ġdeficiency":13091,"Ġmeaningful":13092,"Ġregulate":13093,"ĠMoore":13094,"ĠNigeria":13095,"dog":13096,"144":13097,"connected":13098,"Ġcro":13099,"ĠSav":13100,"ĠCPU":13101,"ĠUnless":13102,"ĠProperty":13103,"Ġadjustment":13104,"nam":13105,"Ġmembership":13106,"Ġtied":13107,"Ġ\"#":13108,"protobuf":13109,"ĠPack":13110,"Ġaccurately":13111,"Ġwondering":13112,"ĠFR":13113,"Ġinvited":13114,"pg":13115,"article":13116,"ĠEnter":13117,"ĠÎĶ":13118,"nolimits":13119,"ĠDefense":13120,")}(":13121,"Ġequipped":13122,"vc":13123,"âĢ¬âĢ¬âĢ¬âĢ¬âĢ¬âĢ¬âĢ¬âĢ¬âĢ¬âĢ¬âĢ¬âĢ¬âĢ¬âĢ¬âĢ¬âĢ¬âĢ¬âĢ¬âĢ¬âĢ¬âĢ¬âĢ¬âĢ¬âĢ¬":13124,"145":13125,"news":13126,"Ġscientist":13127,"atre":13128,"Ġinflation":13129,"Ġconstitu":13130,"General":13131,"Ġbizarre":13132,"health":13133,"DH":13134,"Ġmicroscopy":13135,"password":13136,"asia":13137,"medscimonit":13138,"Ġresidual":13139,"Ġpersu":13140,"Ġtomatoes":13141,"Ġarising":13142,"^)":13143,"Ġlim":13144,"your":13145,"try":13146,"Ġ^{":13147,"Ġmosqu":13148,"emptyset":13149,"à¥":13150,"Ġincl":13151,"Ġupdating":13152,"shape":13153,"usive":13154,"Ġlogarith":13155,"Ġimplicit":13156,"Ġexchanges":13157,"terminal":13158,"Ġtired":13159,"Ġdocumented":13160,"Ġbat":13161,"Ġtweet":13162,"children":13163,"Ġestimation":13164,"phase":13165,"ãģ§":13166,"Ġindication":13167,"Ġpizza":13168,"ĠOrthodox":13169,"Ġdefinitions":13170,"Ġtrauma":13171,"Head":13172,"Ġcavity":13173,"made":13174,"Ġ-------------------------------":13175,"1992":13176,"views":13177,"Ġinjected":13178,"Ġvag":13179,"etc":13180,"Ġpython":13181,"Ġquote":13182,"ĊĠĠĠĠĠĠĠĠĠĠĠĠĠĠĠĠĠĠĠĠĠĠĠĠĠĠĠĠĠĠĠĠĠĠĠĠĠĠĠ":13183,"Ġsatisfying":13184,"utils":13185,"Ġ\\_":13186,"Ġdispos":13187,"Ġjustify":13188,"ĠLegend":13189,"ĠAh":13190,"iat":13191,"Ġsteal":13192,"Ġdeny":13193,"Ġhomosex":13194,"ĠHamiltonian":13195,"Ġrestrict":13196,"ĠCaribbean":13197,"priv":13198,"Ġleak":13199,"ĠVEGF":13200,"rig":13201,"Ġparticipated":13202,"Ġsuspended":13203,",...,":13204,"Ġexpense":13205,"AE":13206,"Full":13207,"Ġparam":13208,"Ġtoxicity":13209,"circle":13210,"Ġ).":13211,"phys":13212,"Ġdefining":13213,"Ġarrive":13214,"Ġthreats":13215,"Ġbranches":13216,"'],":13217,"Ġmodeling":13218,"|-":13219,"Ġnobody":13220,"Ġbehavioral":13221,"Ġinhibited":13222,"Ġ-------":13223,"Ġmotif":13224,"FUNCTION":13225,"ĠSports":13226,"Has":13227,"Ġhemorrh":13228,"Ġminority":13229,"iam":13230,"rave":13231,"Ġoutrage":13232,"Ġspray":13233,"ancies":13234,"ĠOP":13235,"Ġstayed":13236,"Ġpipe":13237,"leqslant":13238,"oa":13239,"pgen":13240,"Ġ134":13241,"Ġdemonstrates":13242,"gly":13243,"Ġmicrowave":13244,"å°":13245,"å¼":13246,"entials":13247,"una":13248,"122":13249,")</":13250,"Ġbenign":13251,"lay":13252,"Ġum":13253,"enant":13254,"ĠLind":13255,"ĠLibrary":13256,"Ġindices":13257,"bury":13258,"Ġemerging":13259,"Ġhandler":13260,"onomic":13261,"Ã±":13262,"Ġrespondents":13263,"Ġthirty":13264,"Ġplatforms":13265,"Ġwarranty":13266,"Ġmellitus":13267,"Bottom":13268,"Ġbovine":13269,"sis":13270,"Ġpromoting":13271,"omics":13272,"Network":13273,"ĠSELECT":13274,"ogene":13275,"ĠOs":13276,"Ġho":13277,"Warning":13278,"Ġdebris":13279,"ĠLiverpool":13280,"9999":13281,"Ġtemplates":13282,"Ġbitcoin":13283,"Ġfiduciary":13284,"ivid":13285,"ĠĠĠĠĠĠĠĠĠĠĠĠĠĠĠĠĠĠĠĠĠĠĠĠĠĠĠĠĠĠĠĠĠĠĠ":13286,"........":13287,"ĠYeah":13288,"Ġvirtually":13289,"Ġsubstantive":13290,"ĠOUT":13291,"Gl":13292,"Points":13293,"Ġdairy":13294,"Ġbaseball":13295,"oni":13296,"Ġ1960":13297,"Icon":13298,"\\.":13299,"ĠSoc":13300,"132":13301,"Ġparticipant":13302,"ilibrium":13303,"Ġwinner":13304,"))/":13305,"Japan":13306,"Ġdefeat":13307,"Ġknees":13308,"Json":13309,"Active":13310,"ultural":13311,"Ġheading":13312,"ophageal":13313,"Ġearliest":13314,"iano":13315,"Ġextending":13316,"ĠEC":13317,"Ġjudgments":13318,"LINE":13319,"Ġpreferably":13320,"Ġsymbols":13321,"Ant":13322,"Ġcollapse":13323,"party":13324,"doi":13325,"Ġscroll":13326,"ĠSS":13327,"ĠPy":13328,"Ġladies":13329,"Ġuniquely":13330,"Ġadhesive":13331,"ĠShanghai":13332,"Ġhosts":13333,"ĠSystems":13334,"Ġ107":13335,"Ġ+\\":13336,"mass":13337,"ante":13338,"Ġreply":13339,"Ġsubscrib":13340,"ĠGM":13341,"Ġcancel":13342,"ĠTE":13343,"items":13344,"region":13345,"Ġreliability":13346,"oug":13347,"Ġ--------------------------":13348,"Sur":13349,"Ġcomplaints":13350,"ĠNF":13351,"Ġjewelry":13352,"bd":13353,"Ġdistances":13354,"ked":13355,"ĠSa":13356,"Ġantagon":13357,"Ġnegot":13358,"Ġlocked":13359,"Ġtends":13360,"Ġtoilet":13361,"Ġcorpus":13362,"Ġingredient":13363,"Ġplugin":13364,"Ġexisted":13365,"ï¼ļ":13366,"Ġdenying":13367,"`.":13368,"áº":13369,"Ġsuspension":13370,"Ġlogical":13371,"Ġcriticism":13372,"Ġresident":13373,"Ġspots":13374,"()->":13375,"Ġdeviations":13376,"selected":13377,"Ġimplant":13378,"ĠTurkey":13379,"Ġfake":13380,"ĠVietnamese":13381,"rowth":13382,"Ġclosure":13383,"Ġconvincing":13384,"Ġpenet":13385,"Ġproposition":13386,"Stack":13387,"argo":13388,"Ġentities":13389,"Ġunfair":13390,"Ġquarters":13391,"Ġemerged":13392,"ĠSwedish":13393,"Display":13394,"Ġmuscles":13395,"ĠAv":13396,"ĠUntil":13397,"Root":13398,"itarian":13399,"ĠReuters":13400,"Ġopens":13401,"ĠDAMAGES":13402,"Based":13403,"people":13404,"patient":13405,">();":13406,"[**":13407,"Ġbills":13408,"unnumbered":13409,"mult":13410,"Ġgod":13411,"Ġscholar":13412,"Ġranges":13413,"move":13414,"tre":13415,"phy":13416,"VP":13417,"Ġconfusion":13418,"Ġtexture":13419,"Ġalongside":13420,"degree":13421,"ĠDakota":13422,"Ġvocabulary":13423,"Params":13424,"ĠDirac":13425,"Ġmisleading":13426,"Ġhelicopter":13427,"orption":13428,"ĠQueen":13429,"Limit":13430,"\\^[":13431,"rant":13432,"four":13433,"obacter":13434,"Introduction":13435,"ĠGonzalez":13436,"175":13437,"Ġanatomical":13438,"Ġeq":13439,"lated":13440,"Ġeveryday":13441,"YP":13442,"Ġ{\"":13443,"Ġgovernor":13444,"Ġpipeline":13445,"Ġconfer":13446,"126":13447,"Ġpointing":13448,"engine":13449,"Ġbases":13450,"Ġchances":13451,"Ġtech":13452,"mentioned":13453,"ĠNi":13454,"136":13455,"Ġproportions":13456,"inch":13457,"SK":13458,"Abstract":13459,"ĠPlace":13460,"achel":13461,"ĠOpt":13462,"Ġcow":13463,"standard":13464,"Ġxe":13465,"Ġartist":13466,"?)":13467,"oming":13468,"Ġisolates":13469,"ĠBenjamin":13470,"Ġ''":13471,"ĠCincinnati":13472,"closed":13473,"Ġcoat":13474,"Ġupset":13475,"202":13476,"Discussion":13477,"Properties":13478,"âĢ²-":13479,"modules":13480,"ald":13481,"ĠLO":13482,"Ġ1981":13483,"Ġorigins":13484,"Requ":13485,"oton":13486,"118":13487,"kernel":13488,"ĠCameron":13489,"ĠmL":13490,"ortic":13491,"Ġtraits":13492,"ĠUpdate":13493,"Ġpremium":13494,"Ġbgcolor":13495,"Ġfinance":13496,"vie":13497,"Ġsir":13498,"POST":13499,"âĢħ":13500,"Ġextinction":13501,"umble":13502,"Ġdies":13503,"riage":13504,"Ġcommercially":13505,"Ġvit":13506,"Ġdetermines":13507,"Ġwing":13508,"International":13509,"Ġorange":13510,"ĠLatin":13511,"acher":13512,"Ġsuggestions":13513,"Ġmathematics":13514,"ĠEric":13515,"pitti":13516,"aches":13517,"Ġcalm":13518,"Ste":13519,"cludes":13520,"ĠCommissioner":13521,"Ġattachment":13522,"Ġcleavage":13523,"Ġvariability":13524,"Ġpleasure":13525,"Ġexclusion":13526,"Ġinfarction":13527,"170":13528,"Ġcapabilities":13529,"Ġoptional":13530,"1986":13531,"Ġdried":13532,"Flags":13533,"Ġprejudice":13534,"Ġgrocery":13535,"ĠNode":13536,"čĊčĊĠĠĠ":13537,"lower":13538,"Ġtransmit":13539,"sort":13540,"Ġappreciated":13541,"Ġnitrogen":13542,"Ġresin":13543,"ĠASSERT":13544,"turn":13545,"ĠChristians":13546,"grid":13547,"ĠCNN":13548,"Ġcatastroph":13549,"Ġadmin":13550,"educ":13551,"imental":13552,"147":13553,"ĠIdaho":13554,"ĠMarket":13555,"Ġracial":13556,"Ġjuvenile":13557,"Ġdense":13558,"Ġblocking":13559,"respond":13560,"ido":13561,"ĠNations":13562,"ĠEinstein":13563,"Ġ255":13564,"ĠSusan":13565,"Ġspark":13566,"Ġmyth":13567,"___":13568,"Ġintimid":13569,"Ġflying":13570,"Ġdonor":13571,"Ġmemories":13572,"yan":13573,"Ġconstants":13574,"Ġ***":13575,"Ġconserved":13576,"Ġreplication":13577,"Ġskeletal":13578,"ĠPract":13579,"Ġinduces":13580,"Ġliter":13581,"Ġzebrafish":13582,"Ġsatisfaction":13583,"è¡¨":13584,"Ġ133":13585,"ĠÙ":13586,"Ġanth":13587,"Ġcommunicate":13588,"Ġstriking":13589,"Ġinputs":13590,"Ġconcur":13591,"Ġcer":13592,"rank":13593,"Ġkiss":13594,"ACKGROUND":13595,"Ġshortly":13596,"Ġincent":13597,"Ġsubgroup":13598,"btn":13599,"Ġ&=&":13600,"Ġtheoretically":13601,"Ġformulas":13602,"Ġmerged":13603,"bow":13604,"ĠAth":13605,"ĠPri":13606,"Ġremarkable":13607,"Ġtimely":13608,"ĠKh":13609,"Ġheaded":13610,"Ġdescending":13611,"ĠSERVICES":13612,"Ġlocalization":13613,"Ġcultured":13614,"ĠTNF":13615,"Ġrespondent":13616,"Ġabsorb":13617,"uis":13618,"Ġnose":13619,"owers":13620,"ĠMedicaid":13621,"record":13622,"Loc":13623,"Ġtrig":13624,"ĠĠĠĠĠĠĠĠĠĠĠĠĠĠĠĠĠĠĠĠĠĠĠĠĠĠĠĠĠĠĠĠĠĠĠĠ":13625,"Ġprotocols":13626,"Background":13627,"Ġgeneralized":13628,"Ġacted":13629,"Ġintentions":13630,"Both":13631,"Ġpocket":13632,"ĠES":13633,"ĠShould":13634,"Ġremedies":13635,"Ġpun":13636,"plane":13637,"Pe":13638,"Sometimes":13639,"Constants":13640,"Ġbip":13641,"ĠProof":13642,"Ġaffil":13643,"Ġengagement":13644,"Ġgraphs":13645,"neg":13646,"ĠRail":13647,"Thus":13648,"xt":13649,"åı¯ä»¥":13650,"via":13651,"Ġaden":13652,"ĠMuhammad":13653,"pb":13654,"Ġtries":13655,"aryngeal":13656,"Ġthrown":13657,"ĠNature":13658,"Ġintens":13659,"tool":13660,"stage":13661,"Ġnotation":13662,"ĠStation":13663,"},$$":13664,"Ġplausible":13665,"Ġey":13666,"Ġwage":13667,"Ġ1982":13668,"Fil":13669,"Ġpace":13670,"require":13671,"Ġcul":13672,"Ġmutants":13673,"Ġthreatened":13674,"Ġframeworks":13675,"ifdef":13676,"apl":13677,"Ġclaiming":13678,"AX":13679,"Ġenergetic":13680,"icide":13681,"ĠWatch":13682,"ĠHim":13683,"otyp":13684,"Ġseats":13685,"Axis":13686,"ĠMilitary":13687,"TM":13688,"ĠÎ¼g":13689,"Ġholidays":13690,"âĢĻ,":13691,"mM":13692,"Ġvegetables":13693,"Ġtags":13694,"Ġgray":13695,"Ġcircular":13696,"Ġpandemic":13697,"Ġanybody":13698,"atever":13699,"aden":13700,"Ġreferring":13701,"Ġcocaine":13702,"Ġfactual":13703,"agg":13704,"Ġqueue":13705,"Ġmining":13706,"ĠEagle":13707,"security":13708,"Ġreceives":13709,"python":13710,"ĠChild":13711,"Ġships":13712,"Ġintersection":13713,"Ġsentenced":13714,"Supreme":13715,"ĠBoy":13716,"Ġdisaster":13717,"Ġefficiently":13718,"Ġtransformed":13719,"Ġlitigation":13720,"ĠINT":13721,"ĠSort":13722,"ĠGC":13723,"0005":13724,"\"};":13725,"Ġdating":13726,"omers":13727,"third":13728,"atar":13729,"Ġprevented":13730,"temp":13731,"Inv":13732,"Ġrestore":13733,"IDS":13734,"hs":13735,"Ġ1977":13736,"Ġfiltration":13737,"Ġoffices":13738,"Ġgradually":13739,"156":13740,"attribute":13741,"ĠPHP":13742,"best":13743,"Ġoptimization":13744,"ĠNATO":13745,"ĠNavy":13746,"LENGTH":13747,"Ġsecrets":13748,"uy":13749,"Ġ$('#":13750,"jud":13751,"Ġconstraint":13752,"Ġcontention":13753,"Ġsuppression":13754,"Ġmoon":13755,"ĠHay":13756,"Human":13757,"Ġpub":13758,"letter":13759,"Ġsalary":13760,"Ġestablishing":13761,"Ġwhisper":13762,"arity":13763,"iaz":13764,"ĠLink":13765,"ĠConservative":13766,"omen":13767,"ĠPerson":13768,"ĠKeep":13769,"iques":13770,"Ġpneum":13771,"Ġsolved":13772,"Ġcoconut":13773,"erals":13774,"ĠGabri":13775,"Ġhistoric":13776,"Ġreset":13777,"Ġpolarization":13778,"ĠARE":13779,"Ġsecured":13780,"Ġxml":13781,"ĠSea":13782,"ĠCro":13783,"Ġsupervised":13784,"Ġacknowledge":13785,"Ġjoining":13786,"Ġnonlinear":13787,"Ġappointment":13788,"Ġstained":13789,"ĊĠĠĠĠĠĠĠĠĠĠĠĠĠĠĠĠĠĠ":13790,"Ġlazy":13791,"Ġroads":13792,"cha":13793,"Ġmultip":13794,"Ġpreference":13795,"121":13796,"switch":13797,"ĠSearch":13798,"ORY":13799,"Ġpepper":13800,"Ġvinegar":13801,"Ġcolleges":13802,"ĠPK":13803,"Ġdietary":13804,"220":13805,"Ġtap":13806,"Ġpockets":13807,"Ġpel":13808,"wp":13809,"Ġoverruled":13810,"Ġbother":13811,"wd":13812,"Ġasset":13813,"ensus":13814,"133":13815,"Ġbelongs":13816,"èĥ½":13817,"Ġprobable":13818,"Christ":13819,"Take":13820,"Ġconfused":13821,"'(":13822,"ĠFather":13823,"Ġ800":13824,"Ġacceptance":13825,"Ġnavigation":13826,"ĠFC":13827,"=\"../../":13828,"Ġbird":13829,"Ġliable":13830,"Ġsoci":13831,"Ġshield":13832,"eqn":13833,"Ġcompression":13834,"--------------------------------------------------------------------------":13835,"Ġattenu":13836,"Ġinfant":13837,"ãģ¯":13838,"Ġreconstruction":13839,"ĠObamacare":13840,"Ġconvention":13841,"athy":13842,"Ġelectrodes":13843,"ĊĊĊĊĊ":13844,"Ġcompatibility":13845,"Ġpeoples":13846,"ĠMu":13847,"Ġadvised":13848,"Ġadulthood":13849,"138":13850,"$).":13851,"Ġentanglement":13852,"Ġamyloid":13853,"ĊĠĠĠĠĠĠĠĠĠĠĠĠĠĠĠĠĠĠĠĠĠĠĠĠĠĠĠĠĠĠĠĠĠĠĠĠĠĠĠĠĠĠĠĠĠĠĠĠĠĠĠĠĠĠĠĠĠĠĠĠĠĠĠĠĠĠĠĠ":13854,"rust":13855,"forming":13856,"Ġsimilarity":13857,"Ġparams":13858,"profit":13859,"oor":13860,"Ġvibr":13861,"esting":13862,"Ġstimulus":13863,"Ġtariff":13864,"strophys":13865,"inst":13866,"spirit":13867,"ĠØ§ÙĦ":13868,"0004":13869,"etically":13870,"oren":13871,"037":13872,"FB":13873,"Ġfunctioning":13874,"Ġlovely":13875,"cod":13876,"ĠGreg":13877,"Ġgrain":13878,"ega":13879,"Ġconfirms":13880,"hex":13881,"ritical":13882,"ĠAvailable":13883,"Ġfilename":13884,"ĠBlock":13885,"Ġwins":13886,"Ġchallenged":13887,"Ġairport":13888,"Ġstops":13889,"Ġrecombination":13890,"Render":13891,"TX":13892,"ĠFeb":13893,"Ġstating":13894,"Ġseeks":13895,"Ġpit":13896,"Ġminds":13897,"antioxidants":13898,"1989":13899,"Ġmediated":13900,"155":13901,"Html":13902,"September":13903,"Ġeternal":13904,"ĠGitHub":13905,"video":13906,"INK":13907,"Ġangi":13908,"Ġbedroom":13909,"Ġestoppel":13910,"sample":13911,"Ġreferendum":13912,"Advertisement":13913,"------------------------------------------------":13914,"ĠBrian":13915,"Ġorganisations":13916,"DEFAULT":13917,"ĠâĶĤ":13918,"ĠTreasury":13919,"Ãº":13920,"ĠSL":13921,"ĠHz":13922,"Ġfluor":13923,"August":13924,"!!!":13925,"Ġcam":13926,"toString":13927,"SY":13928,"Ġreson":13929,"Ġpartly":13930,"rett":13931,"Ġcookies":13932,"Ġglyc":13933,"Ġdeliberately":13934,"Ġawkward":13935,"Ġparticipating":13936,"Ġsurely":13937,"ĠLess":13938,"ĠNR":13939,"Ġlesion":13940,"Insert":13941,"\"],":13942,"BIT":13943,"pred":13944,"ĠHoly":13945,"yme":13946,"Ġacknowledged":13947,"ĠPhilippines":13948,"Ġflows":13949,"rafts":13950,"Ġfool":13951,"Ġenhancement":13952,"Ġischem":13953,"ĠĠĠĠĠĠĠĠĠĠĠĠĠĠĠĠĠĠĠĠĠĠĠĠĠĠĠĠĠĠĠĠĠĠĠĠĠ":13954,"--------------------":13955,"Parameters":13956,"Ġunderneath":13957,"uminescence":13958,"Ġperme":13959,"Ġcapability":13960,"ĠMun":13961,"ISH":13962,"Ġperpet":13963,"Ġviewing":13964,"Ġoverlap":13965,"Ġcin":13966,"Ġfav":13967,"137":13968,"Ġviolations":13969,"ply":13970,"Ġnp":13971,"Print":13972,"DO":13973,"[$":13974,"Ġgri":13975,"Ġ01":13976,"ĠGraph":13977,"ancellor":13978,"Ġrhythm":13979,"ĠFaculty":13980,"ĠDB":13981,"ĠPsychiat":13982,"allow":13983,"Ġrum":13984,"Ġstere":13985,"Ġsilicon":13986,"Ġsac":13987,"Ġhip":13988,"Ġamendments":13989,"Ġcomputational":13990,"\\)":13991,"ĠXML":13992,"Bytes":13993,"oxid":13994,"conjugated":13995,"Ġimpaired":13996,"Ġrandomized":13997,"Ġdominated":13998,"210":13999,")*-":14000,"ĠShort":14001,"Ġexplanations":14002,"ĠCorollary":14003,
[...]
