[UNK]
[CLS]
[SEP]
[PAD]
[MASK]
!
"
#
$
%
&
'
(
)
*
+
,
-
.
/
0
1
2
3
4
5
6
7
8
9
:
;
<
=
>
?
@
A
B
C
D
E
F
G
H
I
J
K
L
M
N
O
P
Q
R
S
T
U
V
W
X
Y
Z
[
\
]
^
_
`
a
b
c
d
e
f
g
h
i
j
k
l
m
n
o
p
q
r
s
t
u
v
w
x
y
z
{
|
}
~
¡
¢
£
¤
¥
¦
§
¨
©
ª
«
¬
®
¯
°
±
²
³
´
µ
¶
·
¸
¹
º
»
¼
½
¾
¿
Â
Ã
Ä
Å
Æ
Ç
È
É
Ê
Ë
Ì
Í
Î
Ï
Ð
Ñ
Ò
Ó
Ô
Õ
Ö
×
Ø
Ù
Ú
Û
Ü
Þ
ß
à
á
â
ã
ä
å
æ
ç
è
é
ê
ë
ì
í
î
ï
ð
Ā
ā
Ă
ĉ
Ċ
ċ
Č
č
ě
Ġ
ġ
Ģ
ģ
Ĥ
ĥ
Ħ
ħ
Ĩ
ĩ
Ī
ī
Ĭ
ĭ
Į
į
İ
ı
Ĳ
ĳ
Ĵ
ĵ
Ķ
ķ
ĸ
Ĺ
ĺ
Ļ
ļ
Ľ
ľ
Ŀ
ŀ
Ł
ł
Ń
ĠĠĠĠĠĠĠĠĠĠĠĠĠĠĠĠĠĠĠĠĠĠĠĠĠĠĠĠĠĠĠĠĠĠĠĠĠĠĠĠĠĠĠĠĠĠĠĠĠĠĠĠĠĠĠĠĠĠĠĠĠĠĠĠĠĠĠĠĠĠĠĠĠĠĠĠĠĠĠĠĠĠĠĠĠĠĠĠĠĠĠĠĠĠĠĠĠĠĠĠĠĠĠĠĠ
ĠĠĠĠĠĠĠĠĠĠĠĠĠĠ
---------------------------------------------------------------------------------------------------------------------------------------------------------------------------------------------------------------------------------------------------------------------------
---------------------------------
Ġthe
======================================================
ĠĠĠĠĠ
Ġa
in
er
tion
Ġt
re
Ġof
en
Ġs
Ġand
at
on
or
Ġc
Ġw
----------
âĶĢâĶĢâĶĢâĶĢâĶĢâĶĢâĶĢâĶĢâĶĢâĶĢâĶĢâĶĢâĶĢâĶĢâĶĢâĶĢâĶĢâĶĢâĶĢâĶĢâĶĢâĶĢâĶĢâĶĢâĶĢâĶĢâĶĢâĶĢâĶĢâĶĢâĶĢâĶ
is
es
ed
al
it
an
Ġp
Ġf
Ġb
ou
ing
Ġin
ar
==============
Ġm
Ġd
ic
le
Ġto
Ġh
as
ro
**************************************
ent
ĠĠ
Ġth
et
Ġre
el
Ġn
om
Ġwith
st
ec
il
ac
ĠTh
Ġl
Ġe
ot
ight
id
im
Ġis
Ġg
Ġ(
ol
ve
am
ĠI
ation
Ġyou
âĶĢâĶĢâĶĢâĶĢâĶĢâĶĢâĶĢâĶĢâĶĢâĶĢâĶĢâĶĢâĶ
âĢ
us
ly
Ġfor
ow
ĠS
Ġthat
Ġon
ver
ur
ĠA
ĠC
un
ad
ut
Ġst
Ġbe
ul
Ġ1
Ġwh
ay
ig
if
ce
ter
Ġcon
os
Ġfrom
ch
em
Ġas
Ġan
ir
ĊĠĠĠ
od
op
Ġhave
Ġ$
Ġpro
th
ab
um
ate
ould
ag
Ġit
ĠM
Ġv
00
########################################
Ġal
ri
Ġ"
Ġ2
ĠP
////////////////////////////////////////
res
pp
qu
Ġcomp
ct
............................................
ain
est
ere
Ġex
Ġr
Ġwas
ĊĠĠĠĠĠĠĠ
ist
Ġor
ers
ĠB
ion
ant
oc
Ġ\
ect
Ġare
Ġ-
Ġ=
se
iv
Ġsu
ity
Ġat
ĠF
ess
ound
ĠH
ment
ore
out
Ġby
ĠD
ill
our
=====
Ġde
and
ĠW
ĠThe
ĠT
Ġwhich
Ġsh
end
Ġnot
her
ive
ĠR
ke
The
ap
----
ĠL
ough
________________
ĠN
**
Ġch
Ġthis
ew
ort
art
âĢĻ
Ġwe
ud
Ġus
ial
{\
ell
ure
Ġbetween
ies
ĠG
ĠE
Ġun
ated
Ġse
Ġhe
Ġup
ĊĠĠĠĠĠĠĠĠĠĠĠ
ype
pl
Ġo
form
ine
Ġyear
all
Ġ0
Ġtr
Ġknow
Ġle
's
og
ext
ff
Ġbecause
Ġ*
ge
ical
Ġdiffer
nt
).
Ġcan
ĠO
act
Ġ3
ust
der
ue
ame
Ġimp
ome
ÂłÂłÂłÂłÂłÂłÂłÂłÂłÂłÂłÂłÂłÂłÂłÂłÂłÂłÂłÂłÂłÂłÂłÂłÂłÂłÂłÂłÂłÂłÂłÂłÂłÂł
Ġalso
ib
iz
Ġres
ction
ase
able
lass
are
age
Ġpatients
Ġother
ack
Ġsp
ard
Ġj
ult
Ġabout
ast
ublic
);
ĠâĢľ
Ġtime
ook
Ġ{
ence
Ġcont
_{
ost
ĠIn
ath
ans
ĠU
Ġinclud
Ġad
ip
Ġwere
Ġpl
ĠJ
ep
av
="
."
01
ak
Ġwork
ign
Ġall
Ġfollow
Ġ[
per
ĊĠ
Ġint
Ġpeople
Ġ+
ĉĉĉ
Ġacc
Ġcomm
ition
ens
..
Ġhas
Ġdo
ach
ire
ide
ft
ind
ary
Ġne
ous
ice
Ġ4
Ġme
one
Ġtwo
Ġsaid
Ġapp
Ġsystem
Ġgroup
Ġbut
Ġdis
ress
ations
du
Ġreturn
pt
ru
Ġwill
int
Ġlike
ong
Ġar
ph
),
Ġgo
ile
Ġ&
ber
ose
Ġ5
Ġfirst
Ġ<
}}
ance
Ġif
Ġen
Ġafter
Ġper
ia
ef
ely
Ġout
Ġpre
ally
ace
ra
ang
ord
ory
Ġone
ĊĠĠĠĠĠĠĠĠĠĠĠĠĠĠ
Ġcl
//
Ġqu
Ġhis
Ġev
Ġthey
own
Ġop
âĢĿ
ail
ry
ĠSt
Ġso
Ġsignificant
Ġdata
bject
ors
Ġpart
Âł
Ġmore
Ġtheir
ĠK
Ġinter
Ġthere
Ġ$\
ys
ake
Ġfunction
ĠĠĠĠĠĠĠ
Ġag
ond
ents
Ġdevelop
Ġhigh
ite
000000000000000000000000000000000000000000000000000000000000000000000000000000000000000000000000000000000000000000000000000000000000000000000000000000000000000000000000000000000000000000000000000000000000000000000000000000000000000000000000000000000000000000
very
ĊĊ
ield
bs
Ġmethod
}\
Ġyour
ount
%%%%%%%%%%%%%%%%%%%%%%%%%%%%%%%%%%%%%%
ates
Ġbeen
erm
Ġhad
right
ree
frac
Ġgener
ric
Ġany
Ġno
cl
--
ont
Ġman
Ġconsider
Ġthrough
Ġk
Ġ}
Ġrec
Ġwho
ll
Ġ\[[@
erv
Ġass
~~~~~~~~~~~~~~~~~~~~~~~~~~~~~~~~~~
Ġ'
ish
ĠV
te
Ġwould
Ġincre
Ġwhen
Ġ6
Ġeffect
In
enc
Ġproblem
gr
reat
}$
old
Ġindividual
Ġrep
\]
^{
Ġthan
Ġexp
Ġover
Ġmy
Ġdef
ild
Ġsc
</
row
Ċĉ
ub
rib
oth
Ġ19
Ġits
owever
't
math
ink
lect
Ġpossib
10
ex
vers
Ġvari
Ġpoint
ie
ays
get
Ġ_
Ġsomething
tions
ons
ĊĠĠĠĠĠ
ĠĠĠĠĠĠĠĠĠĠĠĠĠĠĠĠĠĠĠĠĠĠĠĠĠĠĠĠ
hat
Ġnew
ass
ample
Ġoff
Ġam
tr
Ġsome
]{}
ater
ode
ied
ings
Ġnumber
ĠCh
ĠY
lo
com
19
ttp
Ġbefore
Ġunder
Ġpr
ick
Ġact
###
Ġcurrent
Ġour
Ġrel
Ġvalue
Ġget
Ġemploy
Ġdes
Ġcourt
Ġ7
ov
ref
ative
left
ark
Ġinto
iss
Ġstudy
uc
ĠIt
Ġonly
Ġdec
ian
Ġworld
Ġmodel
Ġmay
Ġph
ambda
nd
vi
](#
Ġro
Ġab
aw
ular
ert
ock
ĠâĢ
Ġpresent
ove
Ġsec
Ġinv
eg
12
Ġmade
Ġprocess
Ġher
Ġcharacter
Ġreg
Ġadd
Ġ8
Ġlevel
Ġtrans
Ġthem
ma
âĸĶâĸĶâĸĶâĸĶâĸĶâĸĶâĸĶâĸĶâĸĶâĸĶâĸĶâĸĶâĸĶ
Ġsupport
ĠAmeric
Ġco
Ġanalysis
Ġmuch
Ġwhat
ear
ĠThis
Ġind
anc
ient
Ġim
Ġhelp
Th
ased
Ġgr
Ġsuch
Ġform
olog
Ġ201
ating
ne
Ġtechn
itt
Ġcol
app
ĠWe
up
Ġduring
ix
Ġthese
Ġobtain
Ġresp
elf
ility
Ġ9
Ġjust
ym
Ġ10
Ġprov
str
sp
ss
Ġuse
ox
Ġwhere
ific
Ġdet
ĠUniversity
11
Ġthen
ident
ty
Ġnetwork
Ġneed
ĠĠĠĠ
Ġset
Ġpol
fer
ution
alpha
Ġrequire
ug
Ġcells
Ġclass
Ġsmall
Ġgovernment
Ġcould
ith
ime
Ġresult
les
Ġrem
Ġagainst
Ġcom
ize
Ġsimilar
()
Ġac
[@
Ġy
ĠUnited
",
ions
ange
Ġsuggest
he
ise
als
ob
Ġused
Ġperson
lement
Ġcontrol
ues
20
tern
Ġsub
Ġfe
ual
ning
Ġbl
Ġdirect
Ġinformation
Ġshow
Ġsur
->
Ġfact
Ġpotential
ER
Ġcor
ax
ev
Ġfl
Ġdid
Ġshould
type
red
ĠĠĠ
rop
eta
Ġatt
Ġfurther
">
Ġspec
Ġend
Ġresearch
orm
ull
ced
to
fig
Ġdist
Ġfamily
000
ower
ĠHe
ks
ection
its
Ġstr
.,
io
ren
inal
ON
Ġestablish
Ġcondition
Ġusing
Ġmajor
ities
Ġavailable
ics
15
ruct
ause
Ġsee
ict
Ġshe
IN
ement
Ġschool
rit
Ġsince
aintiff
Category
Ġmost
Ġenergy
Ġhealth
Ġerr
port
ood
Ġassociated
){
Ġlife
Ġback
Ġbusiness
)$
13
mathcal
Ġ.
cription
16
Ġwell
Ġem
Ġparamet
Ġtest
Ġstat
Ġclaim
Ġ$$\
Ġi
duct
li
Ġ:
ures
Ġanother
Ġtreatment
Ġhim
Ġdifferent
_{\
ational
Ġright
pos
atch
pr
ven
Ġgiven
Ġocc
ined
Ġmonth
Ġcase
Ġeach
Ġenvironment
ograph
ute
arg
rom
alcul
Ġprogram
14
Ġcons
Ġalready
Ġdiscuss
âĢī
ected
ator
urn
label
Ġwant
ĊĠĠĠĠĠĠĠĠĠĠĠĠĠĠĠ
ically
Ġmechanism
Ġhow
Ġinf
ized
(\
Ġte
Ġdoes
imes
Ġent
))
Ġdifficult
Ġinst
Ġ[@
und
Ġsuccess
Ġconst
Ġmin
Ġapplic
over
Ġimportant
Ġmake
Ġauth
00000000000000000000000000000000000000
...
ee
Ġespecially
Ġevidence
Ġpos
elta
Ġlimit
Ġsame
ĠWh
Ġbr
ared
"}
let
ret
val
par
]\].
Ġwhether
Ġ200
yn
Ġevery
],
ĠĠĠĠĠĠ
Ġeven
upp
ĠĠĠĠĠĠĠĠ
Ġdi
ength
ffffffffffffffffffffffffffffffffffffffffffffffffffffffffffffffffffffffffffffffffffffffffffffffffffffffffffffffffffffffffffffff
Ġyears
ES
put
ata
ases
Ġfind
18
Ġobserv
cript
Ġtri
cent
Ġcall
ants
Ġthose
air
Ġx
Ġlarge
Ġboth
con
Ġmed
sh
Ġpartic
ash
Ġ|
Ġway
Ġdescrib
Ġbetter
St
yl
âĪĴ
Ġnow
Ġsimp
Ġ12
Ġvery
Ġdon
yp
mathbb
Ġser
Ġ@
html
Ġrepresent
ense
ins
Ġel
ful
ason
Ġmeasure
ave
ages
ature
Ġlong
AT
ĠCom
****************
pro
Ġke
Ġclear
Ġexper
eth
ward
rm
cept
Ġfound
Ġbu
,\
led
oun
50
Ġloc
ole
Ġbel
Ġbeing
Ġhere
}{
Ġquestion
Ġlook
Ġplay
ression
ok
igned
ines
ale
ich
17
Ġview
Ġthink
Ġpublic
Ġcar
ting
Ġeconom
Ġmany
ĠQ
ments
Ġ/
oid
Ġval
aking
ved
the
ified
ively
ospital
30
line
sqrt
of
cer
?"
Ġcirc
Ġgu
It
Ġext
ices
Ġstud
Ġfil
32
Ġuntil
',
Ġmultiple
Ġequ
Ġhaving
201
Ġreport
Ġmembers
ĠÂ
ner
ank
Ġprivate
Ġins
Ġ//
ik
Ġlittle
Ġcorrespond
":
Ġsol
Ġbehavi
ms
ible
begin
Ġorder
Ġhuman
view
Ġprevious
ĠFor
ody
Ġgood
Ġwhile
::
Ġeither
Ġalways
.âĢĿ
Ġterm
day
ness
Ġdemonstr
Ġhigher
ocument
not
Ġorgan
Ġweek
25
ministr
ĠThese
ps
ng
set
Ġmaterial
Ġname
Ġgen
ĊĊĠĠĠ
Ġstart
We
Ġnon
Ġdown
ually
ision
oy
ld
ts
ĠLet
Ġserv
Ġcount
://
ĠIf
Ġfr
Ġrelationship
Ġreceived
AR
Ġtotal
ĠâĢĵ
Ġread
EN
Ġsingle
Ġdep
ality
af
ĠAl
Ġstandard
ource
$,
Ġsecond
$.
Ġproject
Ġthree
fficient
Ġhand
ĠCourt
Ġchildren
Ġown
Ġapproach
Ġseveral
ĠJohn
24
med
Ġunderstand
Ġwithout
Ġinvestig
br
Ġmod
OR
^{\
any
Ġline
NA
ump
Ċĉĉĉ
(-
amp
Ġstate
ST
\[
Ġsl
aining
Ġprovid
ization
ify
Ġperiod
ember
,"
ception
Ġant
ĠAnd
80
way
eck
ystem
clude
man
Ġ20
ah
Ġactiv
ology
amples
Ġcre
ray
Ġmet
ather
ious
ability
ences
ency
Ġtarget
ĠPro
ork
ton
Ġperform
("
CR
ives
ead
ulation
Ġpres
Ġgreat
dd
ists
What
Ċĉĉ
22
Ġtype
atic
ĠBut
Ġoper
Ġproper
Ġresponse
Ġcertain
Ex
Ġcourse
ĠTr
Ġsign
ĠAs
Ġrisk
au
ependent
ique
Ġlast
40
ger
name
ism
Ġ**
Ġlead
Ġissue
CT
Ġpur
IT
Ġmust
arch
Ġpat
Ġtemperature
eb
String
Ġsay
Ġoften
Wh
Ġcap
Ġcontinu
Ġlaw
âĢľ
Ġbec
ĠThere
Ġet
Ġderiv
ron
ars
Ġtake
ĢâĶĢâĶĢâĶ
itive
ains
action
mission
Ġmatter
Ġ15
Ġrun
for
ention
Let
sigma
Ġfin
ann
Ġconf
ination
ane
Ġmain
33
Ġbre
arm
Ġcaus
alk
ces
Ġwr
bl
ross
Ġstill
Ġwomen
ames
Ġaccording
Ġbenef
Ġdisease
Ġnecessary
ouse
Ġestim
Ġdefendant
Ġear
ccording
augh
ule
Ġlet
agn
Ġcr
ech
ets
ier
ww
Ġelect
Ġchanges
ade
Ġexpl
Ġcent
Ġresults
View
ĠNew
wh
lex
].
Ġevalu
Ġinc
AL
ots
Ġthough
60
ium
Ġnormal
Ġmicro
Ġanswer
Ġident
Ġz
selves
27
Ġpost
Ġtogether
Ġstructure
ĠYou
Ġdeterm
Ġapproxim
az
Ġprobably
def
();
âĢĵ
ĠAn
Ġpublish
64
sc
ĊĠĠĠĠĠĠĠĠĠĠĠĠĠĠĠĠĠĠĠ
AN
Ġref
Ġday
Ġfriend
lease
Ġ18
ĠSh
200
ained
boldsymbol
atrix
Ġthird
ener
Ġfollowing
ool
ily
gamma
99
Ġaff
bf
Ġdisc
ately
Ġsatisf
This
Ġallow
Ġjudgment
Ġed
duction
Ch
oup
ĠEurope
son
Ġlanguage
23
oot
hibit
Ġgoing
05
ience
land
âĢĶ
text
oint
Ġprotein
Ġreal
usepackage
Ġdrug
ĊĠĠ
Ġprior
lection
Ġ,
var
Ġviol
Ġsurface
be
Ġwithin
Ġmark
Ġmoney
)\
partial
Ġcell
ural
epsilon
28
Ġprot
Ġsumm
ral
Ġdel
45
}(
Ġmean
Ġinterest
Ġrecommend
ams
akes
Ġfrequ
ĠCalifornia
ID
Ġhappen
Ġcare
,âĢĿ
less
Ġrequest
ouble
Ġbas
ote
oci
por
ters
},
Ġfocus
ĠĠĠĠĠĠĠĠĠ
Ġadv
ĠX
Ġfield
we
35
Ġaddition
Ġinitial
ĊĠĠĠĠ
su
ãģ
Fig
Ġsocial
osed
Ġpass
els
Ġversion
Ġrespect
Ġaround
Ġintegr
Ġexample
ĠAr
Ġ14
duced
ently
Ġfalse
vert
ush
Ġothers
oss
ring
Ġpower
ĠHowever
Ġpar
rho
Ġarg
Ġtherap
SE
Ġcommun
Ġ16
Ġnumbers
Ã©
Ġarticle
26
Ġopen
Pro
Ġincluding
Ġlikely
../../
36
ott
Ġrest
=\
Ġlist
arent
by
pi
==
29
http
ĠEx
rel
Ġfuture
ĠZ
ury
reen
'm
Ġtaken
ĠPh
reg
Ġu
read
Ġlo
equ
37
Ġtop
Ġlow
Ġ#
cont
Ġmillion
}^{
Ġconcentr
Ġblood
Ġreally
Ġ\[
ern
Ġ*/
min
Ġtry
Ġmight
lobal
Ġcontr
Ġanaly
IC
ĠNo
Ġless
38
Ġminutes
Ġhead
rict
Ġ</
('
sec
)/
Ġhours
ĠInd
orth
Cont
Ġsupp
Ġsitu
Ġfew
mu
opy
ĠUn
Ġbased
Ġtoo
ey
Ġdevice
angle
}_
ĠApp
Ġself
$$
RE
Ġbelieve
ĠJapan
roll
ector
eed
Ġsoftware
Ġrecord
ety
You
__
ension
ĠThey
21
ION
Ġindic
fore
^,
thing
Ġchange
Ġhalf
inc
ĠAfter
Ġproduct
Ġimprove
Ġimmun
34
rem
igh
etic
Ġcustom
ĠOn
Ġpop
ised
widetilde
Ġfour
org
lu
infty
Ġhistory
Ġret
Ġaction
riv
co
Ġasked
Ġessential
Ġ11
iver
39
vent
Ġ{#
ateg
Ġ30
Ġchallen
Ġvis
ĠSp
Ġsymptom
\!\!\!\!\!\!\!
LE
Ġfile
ery
čĊč
leg
Ġleg
ĠIs
ĠWhat
lev
ĠDepartment
70
Ġcommon
Ġpath
Ġachie
Ġplace
Ġfail
Ġnext
Omega
ault
Ġobject
ĠChrist
ydro
box
ĊĊĠ
Ġhome
Ġbest
self
Ġclinical
ĠAt
ĠSo
Ġvehic
Ġleft
Ġput
Ġbo
Ġconn
ited
Ġcorrect
omet
div
acy
Ġinvol
att
Ġpaper
Ġgrow
Ġprofession
add
ederal
Name
ĠCon
oll
}_{
75
ene
ired
omega
Ġparticular
Ġabove
44
aph
ems
're
Ġtrue
ĠCl
phi
AS
eal
mathfrak
90
urrent
95
Ġeas
To
Ġreason
Ġmotion
ification
Ġbi
Com
Ġattempt
Ġheld
ĠAll
Ġleast
Ġpossible
Ġnever
Ġofficial
iving
varepsilon
ĠUS
rightarrow
Ġpolicy
ope
Ġissues
sum
Ġconcern
Ġla
ror
:**
Ġwater
urs
ED
uck
Ġalmost
ĠPl
RO
0000
Ġnothing
ending
ubuntu
Ġsk
Ġmov
tilde
IS
Ġbegin
raw
Ġidea
Tr
Ġrefer
function
Ġdistribution
Ġposition
ĠFurthermore
Ġcampaign
itch
Ġsm
ological
aligned
arn
ĠJanuary
ĠĠĠĠĠĠĠĠĠĠĠĠĠĠĠĠĠĠĠ
Ġdue
cdot
Ġpay
Ġexpression
Ġlight
Con
Ġappropriate
}^
ET
ari
ĠâĢĶ
ina
aps
Ġrequires
Ġtrial
];
ĠSouth
Ġdisplay
ats
new
---
Ġdays
ĠTHE
Ġrecogn
Ġinj
eter
Ġstrength
Ġgive
If
Ġsize
ĠTo
Ġmilitary
ĠSc
Ġincreasing
Ġelement
AC
Ġcome
Ġ%
Ġmoment
Ġpredict
Ġden
ĠGr
Ġtyp
Ġcost
ior
Ġwords
uth
Ġ{\
Ġ25
48
Ġaverage
Ġmon
}$$
Ġexperiment
ream
cess
Ġlocal
Ġthings
As
Ġ17
ributed
Ġfree
yt
ister
atory
Ġbig
Ġmanufact
Ġnucle
clusion
Ġ!=
-\
Ġcases
Ġprom
ances
Ġ--
Ġoriginal
though
ules
Ġeffort
Ġpe
ffer
Ġ)
Ġcode
data
ĊĠĠĠĠĠĠĠĠĠ
................
ĠState
mitted
Ġproperties
Ġphysical
Ġshown
gen
ication
Ġdr
ries
Ġmolec
nal
ĠFr
col
ĠStates
Ġelse
Ġcomplete
Ġtumor
Ġpolitical
Ġvol
Ġpressure
Type
erc
chem
Id
width
ask
ables
Ġteam
Ġpsych
Value
Ġprovide
66
Ã¿Ã¿Ã¿
Ġgot
ital
Ġ13
Ġsusp
oper
ape
ĠRes
Ġgeneral
Ġoutside
Ġsuper
Ġreplac
ended
Ġalgorith
"/>
Ġrandom
eq
98
Ġsubstantial
Ġagain
Ġcomb
Ġturn
Ġ==
duce
Ġgame
Ġknown
Ġsw
Ġspecific
Ġbuild
Ġcalled
Ġdirection
erg
CONCLUSION
Ġrate
ruction
Ġcounsel
ney
Ġkeep
emocr
For
ymmet
Ġfeel
):
uss
cle
Ġspace
Ġradi
Ġsequence
lambda
beta
But
back
hip
Ġcur
Ġdiv
oph
Ġbro
~~~~~~~~~~~~~
mon
68
Ġmaxim
iddle
ides
Ġobvious
pm
so
Ġaut
ison
\_
Ġprimary
UL
ayer
04
Ġ24
ait
Ġimmediately
aces
Ġwon
97
Ġplan
Ġfeatures
67
Ġvalues
Ġjurisdiction
{{\
Ġable
ided
bar
ibr
Ġmass
osis
Ġstudies
Ġknowledge
Ġ>
Ġmeans
Ġabs
ured
ators
ther
itude
Ġweeks
ĠOctober
essage
Ġquestions
ĠSuppose
file
ĊĊĠĠĠĠĠĠĠ
></
Ġarea
fl
Ġneg
ĠLicense
Ġcontinue
INTRODUCTION
this
other
Ġopportunity
Cl
ĠNovember
})
Ġfull
Ġmove
aff
65
ressed
ĠWashington
Ġappear
Ġreview
ĠThat
Ġcho
mod
ĠSeptember
Ġcrit
Ġlater
Ġid
pon
Ġrevealed
fo
Ġnatural
ĠObama
AP
import
lected
td
Ġbeautiful
Ġwhy
ĠPresident
Ġfavor
He
_\
Ġdri
Ġavoid
Ġtimes
ÂłÂłÂłÂłÂłÂłÂł
AM
aring
Ġfamil
Ġsens
Ġbody
Ġhold
Ġreported
Ġliquid
ser
ici
And
Ġmem
ges
Ġvideo
ĠRe
//////////////////
ored
Ġage
Ġdom
Ġgroups
Ġapplied
88
Ġhard
Ġshort
](
$\
Ġagreement
Ġlower
ume
ands
uring
II
Ġside
irst
nonumber
ince
itle
ising
Ġexist
Ġaccess
âĸĶâĸĶâĸĶâĸĶâĸĶâĸĶ
ends
Ġerror
Suppose
Ġlot
Ġ100
31
imal
ounds
umn
Ġamount
Ġfar
ift
Ġtre
UT
ivity
Ġ=>
!"
ĠWhen
yle
stit
Ġdatabase
itor
ĠFebruary
--------------------
^{-
><
OD
enn
On
ler
indow
Ġbehind
Ġrequired
class
Ġamong
Ġtestimony
ĠCommittee
ĠCol
ĠShe
Ġsent
Ġtext
Ġwritten
Ġwar
Ġstrong
Ġdone
go
Ġlevels
AD
Ġpract
ĠWorld
pone
69
Ġcompared
Ġterms
Ġnear
Ġlab
Ġdidn
Ġfac
Res
've
Ġcomponent
Ġart
ling
Is
time
sequ
Ġlink
47
%)
table
AG
log
55
Ġsure
Ġalong
Ġsubject
Ġkey
Ġ50
Ġpercent
Ġsecurity
ĠFlorida
Ġfinal
Ġliter
Ġpurpose
amm
ĠCounty
utions
ãĥ
Ġdevelopment
olution
Ġactivity
ites
ese
ĠAd
ores
Ġ${\
ãĤ
ĠCo
orn
Ġhowever
ival
big
Ġdesign
100
Ġmen
Ġincreased
ĠOr
Ġclean
Ġstep
use
Ġproposed
Ġpiec
emplate
An
Ġdynam
Ġmanag
}{\
Ġâ
Ġargument
Ġsal
Ġchar
de
Ġfund
ered
Ġaccount
Ġcontent
eople
Al
Ġparticip
Ġsays
ducing
Ġcover
Ġevent
ories
Ġpack
ĠGeneral
Ġcheck
Ġrece
Ar
ids
Un
Ġrole
Ġeng
Ġgirl
85
Ġmaking
Ġcompl
Ġpoor
Ġkind
Ġair
Ġworking
Ġcy
Ġdensity
Ġcomponents
Ġincrease
load
Ġmonths
77
Ġsim
iff
Ġaway
Ġauthor
vention
ung
Ġcancer
order
test
Ġbecome
Ġcomput
bo
aster
ife
]\]
return
96
Ġfactors
Ġfore
Ġdegree
Ġfood
'll
ĠIN
ley
Ġquant
Ġinclude
Ġcannot
ava
Ġprovided
Ġtold
}}\
Ġrange
Ġthing
List
ably
Ġuseful
Ġrespons
Ġexc
Ġfinancial
App
Ġpast
94
IM
Ġmult
ects
Ġes
ĠRep
key
date
Ġneighb
08
ĠSch
Ġorigin
OT
Ġlarger
ivers
Ġpretty
Ġ`
Ġperfect
aint
ves
Ġeffects
UR
Sh
ources
ĠMed
Ġenc
ĠJune
ief
Ġblock
Ġupon
Ġtell
Ġold
IG
Ġcircumstances
ipp
Ġobserved
Ġacknowled
Ġdetail
Ġenough
ml
Ġseen
Ġhyper
Ġproceed
ĠLe
irm
Ġconduct
Ġservice
inter
Ġsection
Ġcalcul
ought
ij
CH
Ġdefinition
Ġlog
Ġdoesn
ĠâĢĺ
inary
Ġregard
istic
Ġcompanies
OM
Ġproperty
Ġtradition
string
Ġann
bu
ĠAss
ament
Ġconditions
Ġpositive
ĠCanad
Ġfixed
Ġcomplex
known
ĠÎ
Ġtechniques
olic
Ġopt
Ġinterpret
Ġhttp
Ġmiss
There
Ġmor
")
Ġregion
02
ering
Ġdecre
Ġuser
ING
ground
atter
figuration
off
iles
leq
osc
)*
Ġsepar
Ġwoman
Ġtax
]).
Ġbase
comp
Ġcoupl
Ġap
Ġ([@
Ġcountry
Ġlove
ĠĠĠĠĠĠĠĠĠĠĠĠĠĠĠĠĠĠĠĠĠĠĠĠĠĠĠĠĠĠĠĠĠĠĠĠĠĠĠĠĠĠĠĠĠĠĠĠĠĠĠĠĠĠĠĠ
xi
Ġmus
ĠHealth
Ġtalk
ĠAND
ĠSee
ective
.)
At
Ġtissue
Ġpick
rec
Ġdeath
Ġperformed
Ġstop
Ġillustr
07
âĢ¦
Ġbook
Ġratio
Ġep
den
ensive
09
ware
Ġcut
lim
ĠApril
www
raft
Ġflu
Col
AB
apt
Ġspecial
Ġcreate
Ġrather
No
mm
ai
Ġprob
Ġcult
see
Ġdoing
mp
SS
Ġdefined
Ġvir
span
Ġpoints
Ġdescribed
Ġindustry
Ġcompletely
Ġseason
Ġfootball
57
nbsp
Ġearly
OP
ĠJuly
Ġopinion
Ġphot
umer
Ġjo
verse
Ġearlier
ished
roid
ĠMar
Ġdecl
Ġeducation
Ġcandid
Ġenjoy
ĠWednesday
isc
+\
plic
exp
Ġpatient
ried
ĠSupreme
Ġsaf
Ġcompany
ched
Ġnecessarily
ĠMay
emb
ĠEnglish
Ġreasons
irect
Ġassess
Ġshowed
Ġdem
ĠSec
head
cluded
ram
So
ĠGoogle
Ġimage
imensional
Ġnull
ession
ender
Ġacross
Ġaccept
Ġrelevant
ining
Ġmix
Ġq
Gamma
IL
Ġbit
Ġ([
Ġ&&
ĠSu
ĠPr
bit
material
iÃ³n
Ġweight
Ġreach
year
Ġobtained
Error
Ġmeet
ĠCircuit
Ġ$(
Ġcontrib
ino
ĠAmerican
84
resh
Ġactually
Ġfive
Ġadjust
omes
ibility
Ġexecut
ones
Ġbar
ĠCent
Ġwhole
CC
etition
osure
Ġgl
Ġbelow
Ġlearning
Ġvoid
OL
Ġconsidered
ĠFig
03
ogen
Ġchanged
^\
Ġmakes
Ġvarious
ero
Ġstring
Ġbreak
PE
Ġproteins
Ġwriting
Ġsource
Ġshows
Ġrelated
ache
Ġonce
Ġstates
Ġinternational
ĠBr
Ġsynthes
Ġspe
onal
Ġra
Ġthought
upplementary
Ġanalyses
Ġbegan
Ġrespectively
003
Ġincluded
Ġadded
cc
ĠAm
Ġbuilt
Ġver
Ġdevices
nu
Ġchild
circ
queuebot
ocal
Ġdam
Ġsurgery
Ġcard
Ġsolution
ĠAugust
Ġoccur
"}).
ĠJesus
icrosoft
Ġwidth
cy
Ġexam
)(
42
ĠDistrict
Ġprincip
Ġdeal
ĠCar
Ġarrest
Ġexperience
Ġmarket
ĠBl
Ġsignificantly
Ġapplication
ĠPat
value
bt
Ġprocedure
ĠOF
Ġfully
Ġfactor
Ġeyes
Ġprogress
sl
49
Ġsex
Ġbeyond
ENT
87
asc
gg
Ġcounter
ĠĊ
ean
)}
86
Ġsubs
001
ĠOne
Ġmaint
illed
Ġred
ĠÂ§
Ġanti
Ġstruct
ĠDecember
ĠAdd
Ġsignal
RESULTS
Ġsystems
theta
Ġseries
/*
odes
ĠMETHODS
Ġtook
la
ĠWith
'd
Ġtowards
Ġsite
Ġmar
Ġwebsite
Ġutil
Figure
OS
net
tract
Ġyet
Ġconsist
Ph
Ġever
no
Ġplaintiff
Ġcame
ternal
ĠMr
Ġland
Ġrelatively
Ġroom
Ġexactly
US
Ġcommunity
Ġspect
tau
ĊĠĠĠĠĠĠ
ĠCouncil
lation
Ġloss
Ġbirth
ulated
Ġcause
Ġdecision
code
ips
Ġcouple
Ġadministration
");
oh
mathbf
Ġhref
Ġhouse
ymbol
Ġexperiments
')
dom
Ġtem
reed
ĠMoreover
ider
Ġdiagn
Ġaddress
Ġsearch
ving
times
Ġhusband
Ġinfluence
ops
ĠBecause
ĠFacebook
olve
TR
delta
EL
Ġupper
operatorname
Ġ21
ĠThen
Ġfelt
Ġnight
Data
body
Ġmagn
83
ĠAct
mit
umb
46
Ċĉĉĉĉ
Ġparents
rangle
trans
used
Ġsix
Gr
Ġbound
ĠDefendant
Ġcircuit
ises
Ġphosph
Ġcontract
Ġanything
Ġvictim
Ġbinding
size
Ġ27
89
Ġmethods
iction
Ġmind
Ġyoung
âĶľâĶĢâĶĢâĶĢâĶĢâĶĢâĶĢâĶĢâĶĢâĶĢâĶĢâĶĢâĶĢâĶĢâĶĢâĶĢâĶ¼âĶĢâĶĢâĶĢâĶĢâĶĢâĶĢâĶĢâĶĢâĶĢâĶĢâĶĢâĶĢâĶĢâĶĢâĶĢâĶĢâĶĢâĶĢâĶĢâĶĢâĶĢâĶĢâĶĢâĶĢâĶĢâĶĢâĶĢâĶĢâĶĢâĶĢâĶĢâĶĢâĶĢâĶĢâĶĢâĶĢâĶĢâĶĢâĶĢâĶĢâĶĢâĶĢâĶĢâĶĢâĶĢâĶĢâĶĢâĶĢâĶĢâĶĢâĶĢâĶĢâĶĢâĶĢâĶĢâĶĢâĶĢâĶĢâĶĢâĶĢâĶĢâĶĢâĶ¤
aging
ĠGovernment
Ġ(*
Ġreleased
Ġattack
Ġalleged
Ġvar
igr
Ġensure
Ġservices
aj
iate
rim
Ġadditional
Ġtherefore
ĠIsrael
Ġwrote
ĠGod
izing
Ġtable
rol
lying
Ġimplement
Ġtown
Ġbill
ged
After
Ġcelebr
Ġob
Ġtravel
Ġdifference
aged
Ġtoday
opt
ervice
Ġresistance
Ġentire
ĠThus
anch
Ġotherwise
++++++++++++++++++++++++++
Ġpers
ĠÂ±
Ġtrying
Ġthus
ĠBe
Ġclose
Ġportion
ĠAfric
Sp
Ġquickly
Ġneeded
Ġhypothes
ales
Ġmachine
Ġlength
actions
Ġcomparison
Ġalgebra
^*
param
mer
uff
Ġsimple
rew
Ġcross
atus
ĠResearch
witter
Ġvia
![
Ġintro
DE
Ġmot
UN
Ġir
define
\\
Ġmatch
older
ĠInc
Ġgene
Ġpaid
Ġremoved
position
Ġpattern
Ġ(-
ients
Ġcontact
do
Ġneeds
alse
na
ĠCity
itting
ĠInternational
93
Ġbottom
06
ike
Index
Ġfun
ilities
Ġsometimes
Ġ(\[
but
Key
Ġ^
Ġquality
Im
ck
Ġinvolved
Ġcapacity
Ġmut
Ġdig
face
Ġseem
ference
cal
atur
Ġstudents
ii
92
Ġang
ĠAustral
Ġparty
ĠMc
41
Ġcharacteristics
],[@
Set
ĠBoard
ĠCont
Ġmodels
iber
])
dis
vironment
Ġjob
56
mathrm
struct
Ġwitness
ĠMy
field
Ġpopulation
based
Ġpain
vec
Ġperformance
Ġwent
|\
Ġface
ĊĊĊ
my
Ġfigure
omorph
unch
ption
Ġgetting
Ġrecent
Ġque
Ġhapp
Ġexpected
Ġflow
ĠSe
Ġgrowth
43
Ġ26
Ġ40
Ġchannel
IR
ĠEn
IV
idence
ĠĠĠĠĠĠĠĠĠĠ
Ġindependent
Ġinflamm
Ġ...
Ġlooking
Ð¾Ð
rc
ived
Ġpolice
Ġcorrel
Ġfunctions
ĠInterest
Ġalcohol
Ġwin
ĠMin
Ġproblems
Ġrights
\])
imilar
Ġflo
Ġcomes
ential
dev
Ġ\\
Ġmedia
erve
Ġprof
Ġcredit
91
^^^^^^^^^^^^^^^^^^^^
*,
Ġpan
Override
Ġexpect
Ġexperienced
EM
ĠNULL
Ġdestroy
bib
ethod
vel
Ġur
Ġ28
ĠMichael
Ġplaced
Ġcryst
Ġcity
miss
ĠNot
Ġbrief
ĠDevelopment
ĠBy
Ġmyself
Ġseems
That
Ġdaily
Ġtouch
Ġtool
When
Ġ22
path
ĠCD
Ġproduction
Ġinput
Ġcivil
CL
icon
Refer
ĠmiR
acter
come
anks
ple
Ġstory
list
Ġprovides
ously
Ġ$$
Delta
Ġmeasures
ony
Ġheart
Ġnamed
Ġalternative
state
Ġcal
Ġhost
Ġchem
Ġemployees
How
Ġconflict
Ġinstead
Simplify
anding
Table
Ġprec
Ġofficer
Ġtaking
Ġsimply
anced
oma
psi
Object
Â±
err
With
king
--------------
Get
ject
pre
ĊĠĠĠĠĠĠĠĠĠĠĠĠĠĠĠĠĠĠĠĠĠĠĠ
Ġstrategy
ĠTrump
Ġsurvival
Ġlearn
Ġexercise
Ġblack
Ġsleep
des
Ġtheory
Manager
ds
iting
ĠRo
ging
**]{},
Ġminimum
ĠDo
Ġimpact
PS
include
uments
induced
EC
FL
Ġimport
normal
Ġevents
Ġcoordin
Ġspecifically
";
Ġsomeone
Ġhundred
Ġrapid
\*
Ġtw
Ġstarted
All
astroenterology
Ġmentioned
Ġplatform
Ġpage
By
rown
fr
wo
Ġcolor
Ġfall
point
ĠNational
hydr
Ġstraight
Ġwor
cm
ental
ĊĠĠĠĠĠĠĠĠĠĠĠĠĠĠĠĠĠĠĠĠĠĠĠĠĠĠĠĠ
light
po
with
Ġphenomen
Sc
lin
Ġvalid
Ġload
Ġprepared
ĠCor
Ġsamples
59
ronic
init
74
Ġconfirmed
Ġdespite
https
Ġ23
down
Ġwatch
arr
Ġcoll
uk
oles
Ġjud
58
umber
ements
Ġbasis
Ġproducts
Add
~~~
En
Ġconv
Ġclos
Ġlines
Ġ},
PC
Ġimpro
unt
astic
where
Ġframework
Ġpresented
Ġcriminal
link
));
Ġfollows
Ġdepend
Ġparameters
usion
ethyl
char
ĠPaul
Re
Ġsample
ĠÐ
76
Ġbad
rip
Ġdetermined
}$,
MS
Ġdetermine
ipl
Ġstorage
Ġlack
ĠMan
Ġstatic
Ġcommercial
ĠDr
Ġhom
like
My
Ġshall
fort
Ġiniti
work
ocol
top
Ġmedical
Ġindex
Ġeffective
atal
Ġanalyzed
Ġproliferation
Ġmap
Ġlive
ĠÃ
Ġnews
Ġemb
ĠĠĠĠĠĠĠĠĠĠĠ
Ġdate
Ġformer
%%%%%%%%%%%%%%%
$-
Ġpersonal
Ġpresence
Ġsociety
}$.
Ġidentified
Ġforce
Ġide
Ġassociation
ĊĊĊĊĊĊĊĊĊĊĊĊĊĊĊĊĊĊĊĊĊĊĊĊĊĊĊĊĊĊĊĊĊĊĊĊĊĊĊĊĊĊĊĊĊĊĊĊĊĊĊĊĊĊĊĊĊĊĊĊĊĊĊĊĊĊĊĊĊĊĊĊĊĊĊĊĊĊĊĊĊĊĊĊĊĊĊĊĊĊĊĊĊĊĊĊĊĊĊĊĊĊĊĊĊĊĊĊĊĊĊĊĊĊĊĊĊĊĊĊĊĊĊĊĊĊĊĊĊĊĊĊĊĊĊĊĊĊĊĊĊĊĊĊĊĊĊĊĊĊĊĊ
Ġgenes
ĠâĪĴ
Ġsqu
SD
Ġfemale
reate
CD
outh
Ġprint
Ġphys
ython
++
PI
Ġitself
Ġdegrees
Ġattorney
Ġsmooth
ying
Ġvelocity
}=
62
ĠNorth
ĠCalculate
Ġfilm
Model
eff
ĠDavid
ana
Ġox
ĠAg
Ġappellant
63
Ġest
Ġdocument
Ġcitizens
Ġsil
Ġphase
FF
Ġadvantage
Ġefficiency
54
error
Ġcontext
ĠYork
Ġfront
ĠWilli
Ġlonger
Ġdim
Ġofficers
Ġcopy
82
group
word
Ġrender
ula
Ġconstant
Ġtypes
ĠComp
TH
Ġtransfer
ĠPennsylvania
sim
}^{\
ills
Ġperhaps
Ġworks
Ġscript
Ġstatement
Ġparallel
acc
Ġground
Ġstatus
72
ĠInt
Ġsevere
Ġeverything
Ġneuro
ening
Ġsense
Ġdraw
Ġanimals
Ġinvest
Ġelements
ĠBrazil
79
Ġfruit
ulations
53
osition
Ġwrong
Param
)=
Ġbiggest
Ġsyndrome
Ġprevent
px
fully
Ġhist
ults
ĠAb
ĠCongress
roph
ploy
hibition
ĠString
Ġremain
Ġrunning
Ed
Ġcharg
Ġpurposes
Ġscreen
Ġoutput
Ã¡
File
Ġconstit
Ġrad
Disclosure
ux
ÃŃ
Ġassert
Ps
Ġunit
Ġcreated
Ġdanger
Pl
mbox
Ġacid
Ġbur
Ġbring
Ġhuge
Ġtherapeutic
itation
Ġ2012
78
Ġarray
Ġsem
ĠII
=======
oo
ards
Ġmember
varphi
Ġnode
utes
PA
Int
aving
mail
Ġlikelihood
Ġrespond
Ġcamera
msg
Ġtraining
Ġquite
Ġinstall
me
urch
52
mun
Ġinsurance
Ġwalk
oud
Ġdeep
ague
Ġvs
ĠPar
Ġoil
Ġmobile
ĠGeorge
ĠWARRANT
51
Ġeasy
Ġconventional
Ġareas
Ġnational
Ġinside
Ġlayer
Ġdistrict
Ġple
Ġexchange
Ġslightly
ĠPart
Ġrates
imate
Ġselect
ever
ections
NS
erson
efore
ades
ĠTherefore
ĠIm
Ġimpl
Ġcreat
aves
ission
"><
ĠGu
aven
Not
ros
Ġgas
Ġrelease
Text
place
Ġsomew
Calculate
Ġequivalent
Ġvector
ĠInstitute
Ġclaims
iet
user
lege
ĠGerm
Ġwanted
]{
gn
ocytes
------------------------------------------------------------------
Ġcontroll
ĠOur
ians
isions
atives
ĠChicago
Ġdirectly
aut
artment
Ġnearest
($
eat
Ġtransform
73
ĠHow
ĠPhys
Ġago
*]{}
Ġrepresents
Ġ2013
from
Ġlimited
ĠFin
Ġcontain
Ġneighborhood
Ġmis
Ġisn
public
71
Ġ/>
Ġfaith
ĠChinese
Ġstay
Ġability
subset
Ġmer
Ġarbitr
AA
OC
ners
const
play
prime
Ġsqrt
ĠWestern
sk
Ġreduced
Ġlymph
Ġ[**
Ġdeveloped
ĠBritish
langle
Ġ?
clus
((
Ġcook
elling
81
RNA
specific
ags
iveness
Ġpicture
ze
Ġlatest
ications
Ġnegative
write
void
array
ĊĠĠĠĠĠĠĠĠĠĠĠĠĠ
EX
omy
ĠRuss
Ġcriteria
ĊĠĠĠĠĠĠĠĠĠĠĠĠĠĠĠĠĠĠĠĠĠĠĠĠĠĠĠĠĠĠĠĠĠĠĠĠĠĠĠĠĠĠ
perty
Ġdistinct
Ġpreviously
Ġaccur
Ġgreater
ĠFoundation
ha
Ġlicense
Ġrule
..."
Or
Ġarchitect
ĠĠĠĠĠĠĠĠĠĠĠĠ
Ġforward
Ġsurround
Ġoption
que
Ġincludes
Ġsett
max
Bu
rows
Ġinteger
Ġcup
orem
Ġincorpor
Ġ;
ocation
Request
Ġshare
ken
Ġexpress
ĠLondon
ï¼
Ġenzym
Ġproportion
Ġmurder
Ġmechan
Ġbehavior
ster
Ġport
iated
pen
version
Ġfire
Ġgraph
Ġdoubt
Ġprop
Ġhot
term
cluding
rial
Ġvoice
ML
Ġsequ
Ġlargest
Ġannounced
bi
Ġarrang
reet
Ġabsolutely
čĊĠĠĠ
Ġwhite
Ġrepeated
ĠFriday
Ġaccom
Ġsn
Ġinstance
Ġcolumn
ept
Ġvoltage
Ġstatist
ĠAttorney
ĠHere
part
}(\
GF
unction
Ġdefault
Ġmemory
Ġ29
wide
Ġmice
Ġpair
Ġgames
abor
ĠRec
itted
requ
oring
Ġball
Ġer
ribute
)$.
otion
Ġcompet
Ġ);
ĠJust
iation
plit
lock
ĠSystem
Ġwhatever
sub
Ġfindings
\<
61
Â°
Ġgenerally
IP
js
Ġcateg
Ġeye
Ġ60
ĠĠĠĠĠĠĠĠĠĠĠĠĠ
ĠPer
ville
Sec
Ġetc
ĊĠĠĠĠĠĠĠĠ
Ġlost
ĠCir
Ġresid
Ġfollowed
Ġgrant
print
Ġtitle
Ġcarbon
Ġappeal
Ġusually
Ġtreated
Ġaim
omic
Ġreceptor
Ġword
Ġpresident
Ġcompleted
Ġreference
Ġmatrix
ĠId
ĠHis
Ġcorresponding
sm
cur
Ġ32
Ġefficacy
ĠST
Ġoutcomes
nabla
ened
Ġsugar
Ġillegal
Ġglobal
ett
ĠSince
Ġlinear
Ġparticularly
Ġrev
Ġempty
Ġdelivery
Ġ[*
ĠTexas
Ġplayers
ĠAfghanistan
Ġstrugg
alt
ĠDe
github
Ġguilty
ĠBar
unc
Ġcoming
Ġge
Ġdifferences
ĠSm
ped
Ġplasma
Ġinvention
oke
Ġfight
lib
ĠMonday
ĠChina
ĠPol
Ġspectrum
Ġnote
Ġbuilding
".
ĠWhile
iable
Ġhospital
Ġdiseases
ĠMarch
Ġderivative
bert
ano
otic
oscopic
Ġactive
ĠDes
active
Ġprimarily
Ġautomatically
Ġguidelines
Ġonline
urb
Ġequipment
kappa
Ġexplicit
eless
Ġregular
Ġ2014
Ġgrad
['
alysis
istry
Ġmessage
Ġinhibit
().
Ġcommittee
eline
ĠReg
Ġwait
Ġrout
df
Ġfailed
ially
oes
stein
Ġwhose
Ġoffice
ĠFirst
Ġconstruct
Ġappeared
lor
Ġsaw
Ġwrite
Ġsensitivity
Ġ-->
Ġtherapy
ĠTechn
Ġlate
ours
Ġstyle
Ġopportunities
Controller
Ġleave
Ġsyn
Def
Ġcosts
Ġstimul
Ġalthough
ĠPakistan
Ġpurch
MA
BC
ued
Ġheat
summary
bre
Ġmortality
fil
Ġpractice
Ġsituation
Ġcharge
Ġsaying
Ġscheme
orizontal
ĠWITH
ĊĊĉ
Ġoffer
Ġcountries
quad
onic
Ġquarter
Ġtakes
Ġheavy
OW
Ġrelative
Ġsubstrate
Ġlegal
ancy
mark
ĠOR
Ġfat
ĠDNA
sw
Class
eng
Ġmixture
ĠHouse
######
Ġwall
çļĦ
âĢĲ
Ġrecently
idge
Ġdriving
Ġuniform
Ġprefer
Ġrot
ĠIran
db
ĠCons
Ġuncertain
}_{\
Ġasp
Path
Ġsufficient
ĠEd
ankruptcy
âĢ¢
Ġhousing
source
Ġvot
Ġteach
vey
Ġintr
arrow
Ġmargin
itable
esis
ĠDef
pped
Ġgives
||
chi
Ġjournal
cap
Ġste
Ġcenter
Ð°Ð
Ġsubsequent
Ġintelligence
utrition
Ġ2016
Ġnature
Ġserious
ĠQu
Qu
lete
asing
ĠVirginia
Ġguarant
Ad
igen
Ġdefendants
Ġstage
ĠAmerica
anging
Ġspecies
';
Ġprime
Ġidentify
Ġorg
Ġenh
Ġ31
ĠIS
Ġtried
\].
ĠSome
Ġappro
Ġbalance
American
Ġanyone
gl
Ġhydro
Ġimages
Ġeveryone
Ġlibrary
ĠTuesday
protobuf
Ġfeed
ĠUsing
illing
Se
Ġdouble
pat
Ġtrack
Ġ2015
ĠOff
Ġjury
Ġliving
adem
Ġult
^[@
Ġunique
aries
One
ĠWar
BS
Ġles
omb
Ġantibodies
Ġhope
prop
Ġindividuals
encies
Ġord
Ġ/*
Ġbroad
)-
ils
Ġselected
\;\;\;\;
Ġwarrant
map
Ġscale
Ġextremely
Ġvers
Ġchoice
Ġfederal
ayout
izes
Ġspirit
ball
Ġways
Ġmeasured
gy
Ġprocedures
Ġissued
mand
Ġ///
Ġchosen
Ġdiss
Ġassum
Ġdesigned
Ġduty
PL
Ġoperation
\'
čĊĠ
Ġthousands
Ġallowed
pack
Test
]^
uel
otherapy
iring
asis
Ġhighly
ĠAlthough
room
Ġthemselves
Ġparties
uthor
Ġisolated
ĠJudge
Ġspeed
Ġdetails
Ġfit
}}$
Time
hand
Ġmembrane
Ġfreedom
Ġpublished
ĠSen
cell
Ġbecame
info
Ġassist
Ġdoct
Lambda
Ġfailure
ae
ĠSer
Ġprinciples
bm
ĠNow
cast
Ġfib
inity
length
Ġ2010
apter
Ġmetabol
Ðµ
Ġbox
stance
ĠThursday
ĠMichigan
cd
Ġpolicies
Of
Ġcomment
item
Ġcomposite
IF
crib
enses
Ġdiabetes
index
....
Ġduration
node
)$,
Ġ:=
Ġ2011
!!
Ġintensity
ä¸
inated
Ġprice
Ġhospitals
Ġvisit
She
ĠĠĠĠĠĠĠĠĠĠĠĠĠĠĠ
Ġbleeding
ĠMERCHANTABILITY
Ġstress
Ġexpressed
Ġgoal
ĠFrench
ilit
CE
Ġexpansion
Ġround
Ġcentral
Ġtechnology
Ġsort
abled
Ġnotice
Ġinfrastructure
Ġhar
');
Ġcurrently
Ġequal
Ġleading
ĠAc
}.
ĠSunday
Ġrecovery
burg
^+
EST
amespace
Ġecho
Ġ35
Ġelection
ography
ĠAM
base
ĠCal
Ġtransition
Ġfast
Ġequation
ube
ĠInternet
Ġcrucial
Des
Ġpred
Ġled
Ġoptions
ui
Ġanalog
ico
Ġwindow
owing
igation
Ġeasily
());
Ġcaused
ird
Ġbudget
Ġemerg
ecting
ĠSw
that
Ġoverall
ica
Ġsoon
Ġcommand
ĠStud
CA
Ġ\<
Ġinjury
Ġpolynomial
iness
Ġgave
Ġpush
Ġscore
Ġmeaning
Ġmanagement
Ġbackground
ĠEl
Ġhimself
Ġentitled
Ġproof
Ġve
ulate
Ġfiled
ĠRepublic
Ġten
Ġconnection
Ġpull
Ġfair
oul
Exception
Ġlimits
Ġaw
Ġweak
ĠNone
ĠTe
-----
ĠDetermine
Ġgalax
Ġgovern
itis
och
Ġthreat
ĠMatthew
ama
CP
Ġbrain
Ġextra
Ġallows
Ġparameter
Ġbelieved
Ġhit
âĢĥ
Ġlocation
Ġche
Ġswitch
ĠFurther
align
TP
icated
Ġalone
iding
ĠAmazon
count
Ġacqu
Ġapply
Ġdenominator
Ġstated
Ġclearly
Ġfriends
Ġcritical
fn
ether
ails
Ġdistance
oding
Ġbuy
Ġprices
ĠCopyright
ris
Ġ00
};
document
Ġthreshold
ecutive
ÑĤ
Ġvariable
Ġ($
Ġreduce
Exp
âĢĬ
Ġheight
%,
lem
čĊĠĠĠĠĠ
Ġ2017
Ġfeature
},\
ĠTrans
Ġelectro
ersion
Ġcardiovascular
Ġwonder
New
ĠAssociation
duc
Ġreligious
Ab
SC
static
ĠVal
Ġask
rier
Ġleaders
osing
opl
ulf
Ġestablished
force
(),
ares
Ġtemperatures
SP
Now
icial
Ġones
Ġvirtual
)).
using
encing
Ġbaby
athemat
Ġboard
here
ãĢ
Ġneither
icles
inf
Ġ2008
Ġbenefits
Ġreduction
Ġdeb
Ġparticipants
Ġfields
ĠHamilton
oe
stream
Ġexcept
They
umption
._
Ġstri
Ġrecip
ĠEngland
Ġusers
Ġregarding
asion
čĊ
Ġengine
Ġphilosoph
Ġactual
Ġknew
Ġparts
cin
Ġposs
Ġingredients
Ġhighest
hold
sf
Ġexcellent
BA
ĠIslam
Ġdiscl
oad
ester
ĠRev
Ġdatas
Ġtrigger
ĠLa
Ġfiles
Ġsuffer
Ġremains
Ġlocated
Ġcontaining
Ġfundamental
overline
Ġfrequency
Ġpen
True
Ġcontains
Ġsupported
Ġserver
Ġinstrument
Ġgenerated
inate
Ġattention
ĠWindows
ĠSaturday
Ġunderstanding
Ġappears
Ġreceive
ptions
Ġoppos
Ġslow
TER
Ġax
Ġactivities
Ġsolid
Ġwidely
Ġdog
Ġtumors
)**
Ġfinding
unk
Ġfine
]--[@
']
Ġconc
Ġweb
geq
Ġdisp
From
ĠIL
ĠSyri
ATE
Ġpress
Ġremember
Ġ2009
ensuremath
Ġworth
Ġeconomic
Ġsites
Ġaud
Ġhop
ĠWest
target
Ġdu
Ġnumer
Ġunivers
Label
jpg
Ġinform
ĠAD
ĠCenter
Ġdeclared
inger
ĠSchool
Ġtrust
rep
Ġnor
ĠAN
Rec
Ġcontrast
Ġspeak
vis
hal
Ġmid
tx
Ġdiscovered
Ġscenario
Ġvariables
Ġwasn
Ġqual
Ġcapt
ĠAccording
Ġstar
Ġdistinguish
*-
ĠEm
Ġmaintenance
Ġreaction
Ġsum
Ġconcentration
ado
Ġmarijuana
Ġgoes
iences
Ġschol
Ġson
Ġsenior
Ġfabric
Ġlegisl
Ġtim
Fr
call
Ġill
Ġplease
Ġenter
Ġculture
Ġauthors
pan
ĠIndia
Ġoxygen
Ġconstraints
image
Ġtraffic
ĠĠĠĠĠĠĠĠĠĠĠĠĠĠĠĠ
Ġrules
ĠData
ĠMark
Ġinstructions
Ġsweet
.\
Ġpo
Ġstore
Ġhon
Ġprevalence
PR
Ġuses
Ġbecoming
Ġapparatus
oddsidemargin
Ġapplications
Ġreports
Handler
Ġcop
Ġtheoretical
Ġdaughter
Ġhearing
Ġsurpr
CS
ql
Ġ]
Ġinsp
rich
Ġmother
Ġoperator
Ġinterview
Ġinteresting
unn
Ġbecomes
related
oon
Ġsetting
Ġdocuments
Form
ĠOf
otal
Ġhands
edd
ham
Ġrestaur
ĠMassachusetts
BD
Ġdead
Ġshowing
Ġconstruction
Ġsampling
Ġinn
ĠUSA
Ġstrategies
[]
Ġitems
Ġpolymer
ellow
Ġhybrid
ĠAngeles
ĠHar
color
Ġsmaller
âĢĶâĢĶâĢĶâĢĶ
zz
oses
Ġsurgical
icip
Ġeight
Ġresulting
ĠDemocr
Ġyield
ensions
Ġmajority
Ġneurons
Ġclust
Ġimmigr
Ġcorrection
Item
erved
ios
Ġpolit
Ġstaff
bb
Ġcognitive
object
Ġmanuscript
Ġdomain
enced
Ġregions
pa
Ġcoefficients
iter
Ġ<<
Ġproduce
Ġtissues
Ġsymmetry
Ġinjuries
*.
formation
ĠNe
Ġstock
Ġvolume
side
resent
Ġdefinitely
rying
ĠPhiladelphia
Ġtransport
Ct
Ġconsequ
Ġ||
Ġreasonable
fortunately
Ġproduced
Ġ45
Ġinstit
rypt
Ġmedium
Ġadjacent
Ġindicated
Ġturned
Ġextr
Ġskin
Ġsafety
reated
script
Ġdefense
Ġlooks
Ġstarting
tt
Ġdivided
ĠMedicine
ĠPublic
attle
AIMS
Ġreading
State
Ġdecided
Ġatmosphere
Ġ!
Ġcontinues
Ass
Ġsound
atric
Ġforms
Ġpetition
Ġgets
ani
Ġsup
Ġ80
Ġlabor
Ġvitro
Ġbrought
ĠTH
ĠFrom
orts
ponent
Ġexists
ls
ĠBu
Ġbed
Ġworked
='
ĊĠĠĠĠĠĠĠĠĠĠĠĠĠĠĠĠĠĠĠĠĠĠĠĠĠĠĠ
Î²
Ġdark
Ġdefine
){#
Ġdiscretion
ĠCO
*(
Ġcomprehensive
Ġfix
EG
ĠInstead
Ġstand
Ġfraud
Ġmaterials
enz
ĠHuman
':
ĠTable
alth
Ġinteraction
Ġroad
ceed
free
\|
Ġmaximum
pper
ĠDis
Ġpromot
TYPE
anguage
Ġstd
Ġroot
Ġmg
/(
Ġcomputer
google
Ġextract
under
Ġfacts
Ġunderstood
ĠArizona
}-
Ġ95
book
Ġzero
Ġseparate
------
Ġmanifest
Ġitem
ĠChar
elle
Ġnoted
_.
Ġ->
Ġnorm
Ġconcerning
Ġlov
Ġneut
now
ights
Ġdrive
Ġplayed
Ġliability
Ġdoor
Ġtaste
Ġattached
Ġabsolute
py
Ġinternal
fe
Ġthroughout
len
Ġgun
Ġbasic
olecules
check
Ġprocesses
MR
ĠMod
Ã³
Ġeth
Ġachieve
Ġsources
ĠIraq
Ġtreat
ĠSection
ns
inant
Ġhealthy
Ġagree
Ġformation
Node
Ġmagnetic
Ġtotally
Ġchannels
Ġcool
Ġcollect
Ġprosecut
omas
ĠIllinois
Info
ifier
Ġdrop
Ġtests
004
``
Ġmode
Ġplayer
Ġheard
Ġimpossible
ishing
Ġtruly
Ġdest
Ġwrit
Ġdeliver
Ġfunctional
Ġsymptoms
Ġmessages
Ġ90
Event
lic
agr
ampionship
Ġconnected
duces
Ġactions
Ġconducted
Ġmarriage
Ġformed
imb
aling
Ġtoxic
Ġreceptors
Ġpreparation
zeta
Ġ});
Ġassembly
Ġremove
Ġcollection
Us
Ġfresh
Ġkn
eph
Ġreflect
approx
upport
Ġready
Ġcombination
Ġaward
Vert
Ġdiagnosis
Ġcrazy
Ġmilk
Ġlives
Ġconcept
Ġclosed
lob
det
ĠCH
private
============================
Ġ48
wedge
lt
Ġwide
Ġsets
SA
Ġsold
ĠID
Ġmount
friend
which
uses
Ġincreases
Ġaware
Ġ/**
Ġscientific
SU
irt
Ġ""
Ġphone
rad
title
Ġ37
enu
Ġri
ĠMore
Ġpictures
Le
Ġ33
Ġpoly
âĢ¦âĢ¦âĢ¦âĢ¦âĢ¦âĢ¦âĢ¦âĢ¦âĢ¦âĢ¦âĢ¦âĢ¦âĢ¦âĢ¦âĢ¦âĢ¦âĢ¦âĢ¦âĢ¦âĢ¦âĢ¦âĢ¦âĢ¦âĢ¦âĢ¦âĢ¦âĢ¦âĢ¦âĢ¦âĢ¦âĢ¦âĢ¦âĢ¦âĢ¦âĢ¦âĢ¦âĢ¦âĢ¦âĢ¦âĢ¦âĢ¦âĢ¦âĢ¦âĢ¦âĢ¦âĢ¦âĢ¦âĢ¦âĢ¦âĢ¦âĢ¦âĢ¦âĢ¦âĢ¦âĢ¦âĢ¦âĢ¦âĢ¦
Ġplaying
Ġgastrointestinal
)^
PD
umin
Ġseven
Context
.[
Ġlif
Ġrace
Ġresources
olved
Ġsudden
Ġcrisis
grad
start
Ġconfig
Ġsimultaneously
Ġcalculated
FA
SM
isation
oto
ĠGe
ways
}}_
Ġdescription
Ġsemiconductor
Ġbow
Ġdiameter
Ġdemonstrated
Ġsteps
Ġquantum
conn
aine
HT
gener
Ġspin
berg
Ġprogression
Ġhum
Ġlooked
Ġlargely
rick
jo
ebug
Ġmoved
float
Ġequilibrium
ustom
Ġchoose
armaceutical
ponse
parent
Ġparent
iced
Ġmeeting
Ġlaser
wise
Another
PO
Î±
Ġtoward
Ġign
Ġhappened
Ġpackage
Ġmonitoring
Ġpor
Ġprove
Ġproviding
Ġcapital
Ġperipheral
Ġmorning
Ġsegment
Ġfather
ĠRed
Ġplant
Filter
ract
ĠLaw
Ġmoving
Ġfamiliar
Ġexposure
ĠClinton
jection
Ġconsistent
Ġthermal
.'
Ġthinking
Ġdelay
Here
ĠĠĠĠĠĠĠĠĠĠĠĠĠĠĠĠĠ
input
Ġshape
Ġ(\
Ġmanifold
)/(-
iam
Ġgauge
xy
Ġsignificance
stitution
Out
Ġ\,
Ġbul
gs
style
Ġpow
Ġpriv
Ġcontinuous
Ġgiving
Ġvivo
Ġâī¥
pc
Ġdamage
tered
Ġhttps
\,
ĠEq
Ġcoach
Ġtablespoons
Ġtask
Ġcardiac
abs
oz
ĠList
Ġremoval
urity
Ġpeak
orrect
({
False
Big
empt
ĠGet
Ġgonna
ĠMinnesota
ada
Ġscheduled
ĠCR
ĠFl
Ġdetected
rence
ĠKorea
Ġfamilies
otype
002
Ġpul
^{(
Ġharm
à¤
aly
Log
hy
vest
Ġobs
\],
Ġindicate
Ġnearly
acellular
Ġtelevision
apping
ĠIndian
Ġamazing
Ġuns
Ġmusic
Ġtelephone
Ġembodiment
Ġmiddle
Ġdollars
asm
avascript
Ġsecret
Ġblog
Sigma
ĠTest
Ġ2018
host
Ġcholesterol
Ġruling
Ġprem
true
čĊĠĠĠĠĠĠĠ
ocket
Ġhyp
Ġantibody
ĠAL
Ġmetal
Ġtasks
/(-
Ġconspiracy
pol
ford
enty
Ġdistributed
Ġconversation
ĠKing
acing
}}(
Ġworkers
}=\
range
ĠHigh
EP
ectors
Ġvehicle
Ġmac
Ġhear
ĠSocial
ainer
ĠHer
cles
Ġnil
,\*^,
Ġexisting
Ġpopular
Ġcoefficient
IA
Ġlip
Ġrob
Ġcomments
case
esh
Ġbenefit
ĠFigure
RDPCSTX
ĠPost
IB
Ġsuggested
Ġdiscussed
run
going
eah
Ġband
())
AV
Ġchance
"></
ration
Ġadopted
Ġpot
Ġfoot
Ġroll
ĠServices
ename
Ġcert
iqu
icians
Ġ((
ĠSan
Ġmedicine
Ġcorpor
Ġmag
Ġfinally
ĠSOFTWARE
]:
Ġmm
ĠHol
ka
Ġimag
ĠAlso
Ġouter
ĠDivision
Ġapparently
ĠAppellant
Ġhor
atively
ĠIR
Ġwithdraw
Ġ34
mediate
Ġsafe
Ġafraid
Ġadministered
pert
Ġbundle
amin
Ġlabel
ĠMus
\/
Ġregul
UM
ĠPark
Ġ70
Color
rest
ĠMe
Ġforeign
Ġinfection
Ġletter
cons
met
Ġactivation
xx
Ġcolon
Ġtesting
Ġbank
Ġdiff
urt
ldots
VER
Ġnation
Ġgreen
##
ming
Ġincome
Ġdev
Ġperspective
Ġunits
ĠCommission
Ġbreast
Trans
long
Ġmanner
ĠUK
gu
Box
Ġemail
Ġsummary
Ġsend
Ġwa
php
Ġdrugs
Oh
Ġorganizations
board
ĊĊĠĠĠĠĠĠĠĠĠĠĠ
ager
space
cos
ned
config
Ġstudied
Ġfinite
Element
Ġtree
ĠSoftware
Ġavailability
ping
Ġfashion
ĠAnother
ĠEarth
ĠWhite
Ġdiscovery
olf
message
ĠEven
java
Ġclick
Ġyourself
Ġresponsible
Ġprobability
uate
Ð¸
Ġshooting
ĠSecretary
Ġfear
ĠRNA
Ġ36
Ġunlikely
CM
Ġtrade
ĠJapanese
Ġbodies
aterials
Ġhem
Inter
airs
ĠTO
Ġapproximately
ĠSpec
Ġsexual
Ġendothelial
Ġobjects
idden
Ġneglig
Ġshot
Ġdomestic
ĠFrancisco
fa
pass
icle
[\
Ġpancreatic
Ġinvestigation
Ġmale
Array
ble
ĠAnt
Ġstation
Ġprograms
Ġdenied
Ġmovement
ĠLouis
sur
orb
Ġ2000
Ġlayers
rupt
OU
ĠRel
ĠPM
Ġcaught
Ġ42
Ġpanel
Ġaccordance
______
ĠSebastian
Ġrecords
Ġcompar
Ġvariety
idget
pe
Ġ=\
Ġcontinued
Ġstructures
[^
Ġwife
Ġjuice
Ġtomorrow
âĢ²
ĠOther
User
aker
Ġpassed
Ġwave
ESS
ĠView
ky
Ġcompr
ĠSim
Ġbeginning
Size
Ġsave
Ġcontrovers
iers
Ġcarried
ara
aper
)?
Ġunnecessary
*~
Ġbacter
Ġgastric
Ġassume
dep
Ġacceler
ĠMon
ĠCancer
Ġliver
ĠCode
ifferent
TS
Ġsing
Ġexperimental
struction
Ġseed
ĠCarolina
Ġborder
Ġdischarge
Ġoptim
Ġthick
Ġprocessing
ĠJewish
Ġcatch
Read
ĠCan
Ġut
Ġelectrical
ests
Ġnovel
Ġpseud
ĠRef
Ġtalking
Ġfigures
Ġemotional
aim
Ġstuff
Ġstatute
olid
ĠSur
Ġconver
Ġexception
Ġdetection
TT
Ġhappy
Ġarrived
Ġinflu
CO
Ġupdated
Ġinduced
ĠHospital
Up
otimes
Ġvan
Ġsuccessful
Ġrefriger
ĠCON
Ġcorrelation
ĠStat
ading
Ġcompliance
ĠJournal
PP
Ġremaining
AY
Ġpark
Ġkin
Ġcore
ĠDonald
Ġprofessional
Ġsell
Ġagg
Ġsorry
inding
Ġtested
aud
Ġkilled
ĠGen
ĠĠĠĠĠĠĠĠĠĠĠĠĠĠĠĠĠĠ
etroleum
Ġcolleagues
ĠTR
ĠOhio
Call
Ġselection
Ġbond
Ġshift
Ġminor
Ġreached
ĠLemma
Val
"},
AaÃĢÃłÃģÃ¡ÃĤÃ¢ÃĥÃ£ÃĦÃ¤ÃħÃ¥ÄĢÄģÄĤÄĥÄĦÄħÇįÇİÇŀÇŁÇłÇ¡ÇºÇ»ÈĢÈģÈĤÈĥÈ¦È§á¸Ģá¸ģáºļáºłáº¡áº¢áº£áº¤áº¥áº¦áº§áº¨áº©áºªáº«áº¬áºŃáº®áº¯áº°áº±áº²áº³áº´áºµáº¶áº·BbÆĢÆģÉĵÆĤÆĥá¸Ĥá¸ĥá¸Ħá¸ħá¸Ĩá¸ĩCcÃĩÃ§ÄĨÄĩÄĪÄīÄĬÄĭÄĮÄįÆĩÆĪÉķá¸Īá¸īDdÄİÄıÄĲÄĳÆĬÉĹÆĭÆĮÇħÇ²È¡Éĸá¸Ĭá¸ĭá¸Įá¸įá¸İá¸ıá¸Ĳá¸ĳá¸Ĵá¸ĵEeÃĪÃ¨ÃīÃ©ÃĬÃªÃĭÃ«ÄĴÄĵÄĶÄķÄĸÄĹÄĺÄĻÄļÄĽÈĦÈħÈĨÈĩÈ¨È©á¸Ķá¸ķá¸ĸá¸Ĺá¸ĺá¸Ļá¸ļá¸Ľá¸ľá¸Ŀáº¸áº¹áººáº»áº¼áº½áº¾áº¿á»Ģá»ģá»Ĥá»ĥá»Ħá»ħá»Ĩá»ĩFfÆĳÆĴá¸ŀá¸ŁGgÄľÄĿÄŀÄŁÄłÄ¡Ä¢Ä£ÆĵÉłÇ¤Ç¥Ç¦Ç§Ç´Çµá¸łá¸¡HhÄ¤Ä¥Ä¦Ä§ÈŀÈŁÉ¦á¸¢á¸£á¸¤á¸¥á¸¦á¸§á¸¨á¸©á¸ªá¸«áºĸIiÃĮÃ¬ÃįÃŃÃİÃ®ÃıÃ¯Ä¨Ä©ÄªÄ«Ä¬ÄŃÄ®Ä¯Ä°ÆĹÉ¨ÇıÇĲÈĪÈīÈĬÈĭá¸¬á¸Ńá¸®á¸¯á»Īá»īá»Ĭá»ĭJjÄ´ÄµÇ°ÊĿKkÄ¶Ä·ÆĺÆĻÇ¨Ç©á¸°á¸±á¸²á¸³á¸´á¸µLlÄ¹ÄºÄ»Ä¼Ä½Ä¾Ä¿ÅĢÅģÅĤÆļÇĪÈ´É«É¬ÉŃá¸¶á¸·á¸¸á¸¹á¸ºá¸»á¸¼á¸½MmÉ±á¸¾á¸¿á¹Ģá¹ģá¹Ĥá¹ĥNnÃĳÃ±ÅĥÅĦÅħÅĨÅĩÅĪÆĿÉ²ÆŀÈłÇĭÇ¸Ç¹ÈµÉ³á¹Ħá¹ħá¹Ĩá¹ĩá¹Īá¹īá¹Ĭá¹ĭOoÃĴÃ²ÃĵÃ³ÃĶÃ´ÃķÃµÃĸÃ¶ÃĺÃ¸ÅĮÅįÅİÅıÅĲÅĳÆŁÆłÆ¡ÇĳÇĴÇªÇ«Ç¬ÇŃÇ¾Ç¿ÈĮÈįÈİÈıÈªÈ«È¬ÈŃÈ®È¯È°È±á¹Įá¹įá¹İá¹ıá¹Ĳá¹ĳá¹Ĵá¹ĵá»Įá»įá»İá»ıá»Ĳá»ĳá»Ĵá»ĵá»Ķá»ķá»ĸá»Ĺá»ĺá»Ļá»ļá»Ľá»ľá»Ŀá»ŀá»Łá»łá»¡á»¢á»£PpÆ¤Æ¥á¹Ķá¹ķá¹ĸá¹ĹQqÊłRrÅĶÅķÅĸÅĹÅĺÅĻÈĲÈĳÈĴÈĵÉ¼É½É¾á¹ĺá¹Ļá¹ļá¹Ľá¹ľá¹Ŀá¹ŀá¹ŁSsÅļÅĽÅľÅĿÅŀÅŁÅłÅ¡ÈĺÈĻÊĤá¹łá¹¡á¹¢á¹£á¹¤á¹¥á¹¦á¹§á¹¨á¹©TtÅ¢Å£Å¤Å¥Å¦Å§Æ«Æ¬ÆŃÆ®ÊĪÈļÈĽÈ¶á¹ªá¹«á¹¬á¹Ńá¹®á¹¯á¹°á¹±áºĹUuÃĻÃ¹ÃļÃºÃĽÃ»ÃľÃ¼Å¨Å©ÅªÅ«Å¬ÅŃÅ®Å¯Å°Å±Å²Å³Æ¯Æ°ÇĵÇĶÇķÇĸÇĹÇĺÇĻÇļÇĽÇľÈĶÈķÈĸÈĹá¹²á¹³á¹´á¹µá¹¶á¹·á¹¸á¹¹á¹ºá¹»á»¤á»¥á»¦á»§á»¨á»©á»ªá»«á»¬á»Ńá»®á»¯á»°á»±VvÆ²Êĭá¹¼á¹½á¹¾á¹¿WwÅ´ÅµáºĢáºģáºĤáºĥáºĦáºħáºĨáºĩáºĪáºīáºĺXxáºĬáºĭáºĮáºįYyÃĿÃ½Ã¿Å¸Å¶Å·Æ³Æ´È²È³áºİáºıáºĻá»²á»³á»´á»µá»¶á»·á»¸á»¹ZzÅ¹ÅºÅ»Å¼Å½Å¾ÆµÆ¶È¤È¥ÊĲÊĳáºĲáºĳáºĴáºĵáºĶáºķáºķ
Ġcombined
udes
Ġtend
actor
Ġreturned
Ġupdate
Ġelectric
Ġdiagnostic
oney
&&
ync
:\
EE
Ġclasses
Ġjudge
Ġtruth
ĠNote
ship
Ġimproved
Ġframe
Ġrat
Ġwants
Ġserve
Ġsolutions
Ġonto
Ġthrow
Ġstroke
Ġfirm
Ġsuggests
block
Ġcareer
Ġepisode
Ġconstitutional
Ġmaybe
Ġvacuum
Yes
Ġcamp
Ġchallenge
Ġ2006
Ġoscill
********
arc
Ġrelation
Ġreplacement
Ġwavelength
Ġhour
dot
ius
Ġofficials
Pr
section
Ġcontrols
**^
Ġsentence
Ġunless
ATION
Ċĉĉĉĉĉĉ
Ġ${
ĠArt
ĠMartin
ench
Ġleads
Ġtypically
Ġultimately
Ġampl
Ġwhereas
Ġagreed
after
Ġexplain
Ġmulti
''
Ġcommit
ifying
Ġ2007
ĠNevertheless
DR
Per
itz
Ġderived
Ġcompensation
Ġdied
ĠInter
atin
Ġraised
Ġepithelial
Ġoccurred
}}{
Ġpursuant
orescence
kg
Ġdecreased
Ġpicked
Ġdiversity
Ġship
Ġinequality
Ġdistributions
Ġded
option
ocyte
Ġlegislation
anded
Ġtal
Ġspread
Dec
ĠNOT
Ġdismiss
Ġregister
lication
Ġaffected
Ġbillion
ĠSimilarly
Code
Ġrare
Rep
yr
agement
ĊĊĠĠĠĠĠ
Ġnuclear
Method
Ġgrowing
Ġautom
level
Ġrow
ĠDec
Ġedge
ĠGroup
stract
Ġbuffer
Ġnames
Ġsugges
Ġdiscrimination
ĠAppeals
ĠAdditionally
Ġdie
ĠĠĠĠĠĠĠĠĠĠĠĠĠĠĠĠĠĠĠĠĠĠĠĠĠ
api
Ġplans
Ġtools
build
Ġmo
Ġsustain
Count
hel
iant
Ġgeneration
Ġkid
Ġchemical
ĠReturn
hibits
Ġwild
Ġspent
Ġadequate
Ġod
Ġclient
dec
({\
Ġwish
Ġrepresentation
ĠEast
ĠEuropean
Ġmolecular
Service
Ġdebt
500
Ġcohort
arb
Ġcalls
Ġasympt
Ġfeet
inflammatory
EXPECTED
Do
Su
TC
čĊĉ
open
Image
atabase
main
ĠMost
ĊĠĠĠĠĠĠĠĠĠĠĠĠĠĠĠĠĠ
Ġalgorithm
Ġsubjects
Ġestimated
Ġnone
Ġdisadvant
ĠTV
ographic
Ġloop
Field
yd
Any
ĠTennessee
OOOOOOOOOOOOOOOOOOOOOOOOOOOOOOOOOOOOOO
Ġplaces
Ġ__
Ġmigration
nutrients
ĠPal
ptr
Why
ignment
Ġprotect
ometry
Fl
Ġherself
ĠRichard
Ġmoderate
KeyWord
Ġintroduced
ingly
Ġprim
Ġsoft
actory
Ġefforts
ÑĢ
Ġhandle
Ġdiscussion
Ġplanned
ba
Ġter
Ġnet
Ġblue
ĠPARTICULAR
ien
release
Ġnice
Ġprotocol
ressive
QL
Ġandroid
olean
ires
Ġvent
Ġ&\
Department
Ġcytok
Ġdrink
Ġexplanation
ĠBro
Ġletters
Comp
Ġdiet
Ġapoptosis
Ġmitochond
Ġlock
Ġvote
Ġprotection
inner
ĠYour
Act
==========
types
ĠNS
Ġdescribe
Ġcouldn
Ġvisual
Because
ĠArmy
ĠER
ĠPlaintiff
ĠDon
Ġunderwent
Ġsurveillance
Ġ38
Ġ2005
Ġmodern
*)
Ġoutcome
Ġdropped
Ġserum
ĠDirector
ĠâĨĴ
NF
create
**(-
Ġarm
Ġcrowd
Ġâī¤
core
prefix
Ġmetabolic
See
Ġcoconut
Ġcollected
Ġaffect
Ġevaluated
hes
Ġmental
Ġadapt
Ġplate
Ġemphas
BI
Ġplus
kay
Ġtechnique
]\],
GC
ĠBank
sequently
gt
anged
Ġ(**
Ġmovie
Ġanswers
Ġweapons
Ġstudent
Builder
Ġtrauma
Ġmissing
Ġsurv
ĠSuper
ston
Ġcertainly
Ġmillions
Ġ~
Ġwouldn
Ġ()
Ġlinks
Ġacademic
icensed
Ġdisorders
ĠPC
well
Ġcommunication
$]{};
ĠSociety
ĊĠĊĠĊĠĊĠĊĠĊĠĊĠĊĠĊĠĊĠĊĠĊĠĊĠĊĠĊĠĊĠĊĠĊĠĊĠĊĠĊĠĊĠĊĠĊĠĊĠĊĠĊĠĊĠĊĠĊĠĊĠĊĠĊĠĊĠĊĠĊĠĊĠĊĠĊĠĊĠĊĠĊĠĊĠĊĠĊĠĊĠĊĠĊĠĊĠĊĠĊĠĊĠ
Ġexplained
resp
Ġ(!
Ġtempor
abil
Mod
result
Ġprojects
Ġvolunte
ih
ĠEnd
Ġefficient
Ġoperations
ĠOver
Ġencour
Ġcred
Ġeconomy
Ġabsence
Return
iary
url
gram
ubl
Ġvertical
ĠNews
De
Ġinvolvement
Ġverdict
Ġtransl
Ġmoments
Ġexternal
Ġhair
Ġforces
Ġbus
While
Ġlaws
Ġreligion
local
xml
Ġcm
**,
Ġkept
itional
Ġnetworks
even
Ġaccepted
Ġsupply
Ġvideos
Ġprepare
DA
Ġsurfaces
Ġdecrease
ĠCPU
Style
ĠCommun
CON
2015
Ġjobs
Ġpun
iled
Ser
Ġkids
Be
false
Ġmist
Ġelectron
Ġscience
Ġchronic
rl
ialog
Ġresponses
Ġfarm
ows
Ġenforcement
Ġauthority
Reg
Ġflex
Ġmotor
amily
model
.$$
Ġdisapp
Ġcouncil
Ġadenocarcinoma
before
olt
Ġcast
Ñģ
osh
Ġkitchen
Ġintended
lear
ĠBoston
\!\!
iller
Ġbrowser
Ġstatutory
Ġoccup
ĠNet
Ġrequirements
Ġmucos
}+
Ġ--------------
Ġsy
ĠClass
.[@
Ġadding
ypes
Ġserved
TA
âĢĿ.
Ġagent
Ġideas
Ġhistor
Ġchain
earch
Ġentry
Ġtour
icted
Ġbelong
Ġguy
Ġtraditional
Our
/**
illa
Ġprejud
Ġextent
Ġjava
Ġapplies
Ġglucose
Ġexpert
Ġcreating
'.
Ġjoint
Ġholds
oted
ĠFOR
ramework
Ġmortgage
ĠEducation
uted
ĠAmendment
Dis
Ġflav
TO
Ġinterests
Ġfemales
amb
Ġchrom
Ġteams
Ġwhom
,-
Ġtrend
Ġfragment
orter
Ġguess
Ġinterval
rap
Map
Ġalpha
First
Ġanxiety
Ġpermanent
ĠWell
Ġfeeling
Ġsauce
nam
Ġequations
Ġcycle
ĠGiven
Ġspokes
iot
rot
BM
^âĪĴ
pping
Ġdirector
ynamic
post
Ġec
Ġevolution
ĠGermany
Ġcurve
.](
Ġsouth
Ġinterface
context
Ġsharp
Equ
eters
Att
Ġseverity
$(
ĊĊĊĊ
)/(
Ġelevated
Ġrepro
content
}|
ĠAir
ĠEach
Ġgrand
dt
ĠAny
Ġassessment
Ġpolymorph
-(
DL
Ġinteractions
ĠSub
une
Ġentered
Ġdiagram
last
Ġrecon
ĠYoung
amer
Ġwind
Ġdose
bound
ĠURL
Ġeat
Ġelim
Ġguys
System
Ġmal
valid
Ġconcentrations
FLAGS
inite
ilt
more
Ġcyt
OUT
Ġcauses
\{
ĠGreen
cor
Br
ologies
ĠCanada
ALL
Ġradio
Ġspatial
Ġaircraft
font
nav
Ġmodule
Ġrequiring
Ġescape
Ġ----------
iral
Ġimplic
ĠAR
dir
ini
ĠRem
istent
Ġund
agon
ĠMor
../
ny
inder
Token
Ġvaluable
bor
Ġ--------------------
Ġconfirm
ĠCommonwealth
lets
However
cr
ĠCL
Ġproposal
MP
Well
wards
Ã£o
Ġstretch
ĠâĶĤ
ĠDespite
!--
Ġrejected
Property
Ġfilter
Ġproperly
ĠSuch
Ġpatterns
BL
how
anges
Can
SI
ĠTwo
Ġestimate
Ġrestric
care
icate
ĠON
Ġmechanisms
Ġheterogene
Ġstream
Ġexec
aved
ABLE
else
Ġevaluate
Ġ};
Ġpiece
Ġbegins
child
while
ĠÎ¼
Empty
Ġvictory
eps
ĠBoth
iling
Ġ("
Ġ{{\
ailed
spec
Finally
0001
Ġcharges
doc
etween
rough
Ġrestricted
Ġannounce
ensor
Ġcrime
just
iny
ME
Some
ĠCA
Ġstatements
Ġfrozen
UE
ĠĠĠĠĠĠĠĠĠĠĠĠĠĠĠĠĠĠĠĠĠĠĠĠ
ivariate
ello
Ġformula
rey
util
ĠOklahoma
Ġnorth
Ġindicates
Connection
ĠGNU
Ġens
Ġ"[
Ġcontained
Ġmel
Ġorganization
Ġinvalid
Ġalleg
Ġrecorded
SH
Ġconscious
Ġconclusion
Ġunemployment
Ġinterested
Ġcontrolled
Date
Ġ++
Ġoffered
ĠCatholic
itions
Ġpossibility
Ġphen
default
Width
src
ĠSte
ato
Ġresolution
Ġexistence
Group
Ġrisks
=&
Ġnodes
Ġathlet
Ġschedule
.*
Ġgold
Ġaren
Ġlib
Source
Ġgone
Ġquick
Ġfluid
ĠOrgan
Ġbasketball
Ġ44
ĠOlymp
Ġantimicrobial
Ġconserv
Ġindustrial
uation
Ġgoals
Ġinvariant
ĠTokyo
android
ĠUnder
Ġreferred
Ġturning
Ġgain
Ġbehalf
current
>>
Ġdriver
ĠJackson
ca
Ġvacc
query
Ġcomfortable
ĠĠĠĠĠĠĠĠĠĠĠĠĠĠĠĠĠĠĠĠ
izer
Ġchicken
})$
tag
Ġconvert
CN
Ġintellectual
yg
Ġstars
)*(
ĠEv
John
rete
stant
STR
Ġfloor
first
Ġholding
Provider
OX
Ġom
Ġsale
Ġsummer
Ġliterature
KE
Ġagents
Ġcollege
widehat
rine
Ġolder
Ġoffers
Ġteaspoon
Ent
ĠMexico
ested
Ġprecisely
Ġanalysed
Ġcolorectal
DS
Ã¶
ĠEr
Ġgenerate
world
ĠTime
Ġ500
udd
ĠSH
Ġ43
Ġwire
Ġbranch
wood
Ġimportance
ouch
Ġdeveloping
Ġconsum
Ġsin
Ġconfiguration
yphermox
Ġ39
Ġbreath
Ġidentity
was
Ġabuse
Ġextended
ĠExp
Ġsalt
Ġexamples
weight
Ġhappens
ĠFROM
night
Ġprison
Ġbattery
ĠCEO
iscussion
Ġextreme
Ġrise
Ġscal
Ġthank
omething
Ġstimulation
bin
dimensional
ĠAP
Ġexamined
ĠBlack
bottom
Ġfamous
Ġoblig
Ġrecover
Ġformat
Ġerrors
ln
aced
;\
img
ĠSolve
ĠPeople
Ġyesterday
Ġcharacters
Ġentreprene
dr
ĠPre
Ġcompounds
event
can
Ġbinary
ipped
dist
ĠMal
flow
ĠWH
Ġspeech
Ġcharged
ĠBusiness
Ġparticles
Ġmax
").
Ġschools
Ġpenalty
Ġcold
Ġprosp
Ġsales
oms
ĊĊĠĠĠĠĠĠ
âĸĶâĸĶâĸĶ
ĠAT
Ġmorph
olar
ĠDet
ancing
Ġcoverage
Ġsquare
ĠAtlant
Ġprofile
Don
LO
Ġreturns
reek
ĠBritain
ĠToronto
Ġinner
Ġcategory
Ġevaluation
Ġlanguages
ĠSet
ĠTheorem
ĠMedical
Ġsuscept
select
Ġmuscle
ĠKe
Ġpayment
Back
ĠDel
anda
Ġclin
Ġpartners
Ġhighlight
Ġspecified
tes
Ġdimension
ĠForm
Ġmeant
Ġclub
apped
num
PH
Ġ05
Ġvascular
cel
**)
othing
Ġstable
Ġnaturally
icity
Ġsequences
LC
Ġinvestigated
abilities
ĠCambridge
ĠĠĠĠĠĠĠĠĠĠĠĠĠĠĠĠĠĠĠĠĠ
ĠEvery
Ġexact
aa
Ġnamely
evel
Ġdigit
ECT
Ġmetast
match
Ġgoogle
ias
Ġmatrices
Ġchamber
ulating
Ġfifth
ĠHT
Ġshared
Ġmeasurement
Ġdemand
Ġmeasuring
(\[
Ġtransplant
Ġcarcinoma
Ġdry
Ġ2004
Ġconcerns
Ġsmoking
ĠService
Ġconclude
Ġmeasurements
Ġreality
ĠGerman
005
Ġpercentage
Ġwestern
std
Ġsigned
Ġsuit
Ġrepresented
Ġoptical
Par
kin
Ġahead
ĠĊĠĠĠĠĠĠĠĠĠĠĠĠĠĠĠ
Ġpure
Ġachieved
ODE
Ġopening
Ġpositions
Ġcoffee
UD
ĠWhy
ĠUnion
Ġrank
2017
Ġpapers
Ġgarden
ummary
Integer
ears
ĠSecond
ads
Ġ55
**]{}
Ġ${{\
css
Ġknows
ĠBer
2010
Ġreceiving
Ġimplementation
di
gent
Ġcomposition
Ġmaintain
andard
operative
Ġdigital
ĠFe
2013
ĠFrance
Ġreve
ĠCa
Ġstrict
ĠMet
oprotein
ĠCollege
Phi
End
abb
ĠRead
Ġtaught
Ġoperating
AF
Ġsucceed
Ġlaunched
Ġpharmac
Ġ46
Ġagency
Ġfourth
Ġdraft
ĠRom
Ġ75
Ġallowing
Ġconvenient
inations
Ġplants
Ġwelcome
Ġscenarios
Ġshop
Ġcustomers
ĠWilson
Ġowners
Ġcarry
ASS
%.
mic
ĠUN
Ġviolence
Ġdys
Ġquery
Ġowner
Ġinsulin
scopic
Ġsanctions
Ġ41
Ġkernel
ĠCell
ĠFinally
Ġgoverning
Sub
Message
lands
arian
Ġhelped
(&
ĠOut
ĠAmericans
center
Handle
Ġabandon
Ġwidespread
Ġder
Ġ64
Ġextension
aneous
MT
Ġattract
According
sd
Ġdesired
Ġrac
Ġleaves
Bar
}}_{
strong
ĠMac
ĠDep
ository
Gu
ĠCI
Ġdecisions
refer
Ġvulnerable
Ġgranted
rency
Ġsat
Ġestimates
iance
ĠStreet
Ġconnect
uint
Ġadministrative
ĠIII
Ġacts
ĠChurch
Ġsupplement
ĠBre
Ġinsert
Ġcalcium
ĠĠĠĠĠĠĠĠĠĠĠĠĠĠĠĠĠĠĠĠĠĠĠ
Ġglass
Ġcovered
ĠLeague
Ġoverride
Ġinvestigate
MOESM
1534735419827098
Ġgly
Ġeasier
Ġrevenue
Ġpurchase
ĠEnergy
amssymb
Ġtestified
AND
Ġassessed
eful
CHECK
Ġunderlying
GA
Ġcond
amine
Ġchurch
Ġruns
ĠJames
Ġattorneys
PT
Ġ49
Ġsun
Ġapprec
Ġsections
Ġoccurs
yan
END
Ġanimal
ĠBay
Â·
Ġaccuracy
ĠCivil
Ġteacher
Ġregulation
âĪ
ĠUse
ifications
ĠChristian
Ġsimpl
XX
Ġeduc
Ġhab
ĠOpen
Ġskills
osp
Ġemployee
Ġdesc
Ġcoronavirus
ĠCONDITIONS
Ġ47
Ġstrongly
mathrsfs
ĠPort
mar
Ġstick
Ġvinegar
ĠGaussian
itative
Ġincident
Ġintervals
Ġsurvey
ĠSmith
CI
func
ĠBitcoin
Ġpip
Ġpool
Ġrich
Ġoverl
page
elled
Ġleader
ĠAS
Ġbutton
ĠToday
BP
ĠMo
Ġpert
Ġnav
Ġresource
Ġpowerful
ymmetric
ĠLegisl
101
Over
ĠMany
Ġstories
Ġalter
ĠMajor
Ġwarm
âĢĿ,
Ġapproved
ĠDavis
.</
Ac
REFERENCES
\[[@
Ġinquiry
ĠBel
ometric
Ġinsufficient
cp
Ġpossibly
Ġpathway
mt
ua
Ġhaven
ĠSal
Ġtransmission
Ġlimitations
Ġdeviation
Then
Ġapproaches
ude
akers
Ġraise
:"
Ġthread
ports
ĠDay
Rel
Ġdepends
isms
Ġ56
ICENSE
Bl
Ġmostly
Ċĉĉĉĉĉ
uts
="../../
arily
forall
cs
Ġdetermination
rs
Ġlifetime
Ġindependence
^-
ĠWomen
Ġjourney
Solve
Ġban
Ġbag
oster
Ġlattice
Gener
***
Ġremainder
ĠChristmas
letion
Ġsrc
orks
Ġlung
Ġkill
Ġdetailed
negative
Ġprotected
NULL
Ġcash
dependent
Ġcompare
Ġintestinal
Ġpregnancy
pilasengine
Ġ65
Ġauto
Ġbelieves
ĠGeorgia
Line
coming
Ġ_{
Ġmixed
rd
Ġdepth
Ġlisted
Ġlearned
author
win
ĠEngine
ĠAdministration
Ġappoint
Ġaccident
Ġrecru
Ġinvestment
ĠBur
ĠDuring
Ġunclear
Ġupdates
Ġrespiratory
ĠSingapore
EF
etch
Ġremark
template
za
Ġcommitted
/\
Ġflat
Ġsecondary
ĠUbuntu
Ġvertex
;&
stall
Ġthorough
Ð°
Ġsymbol
Ġborn
otes
ĠCorporation
Ġcitizen
Cell
Ġplays
Ġtrials
Ġcatal
Co
standing
ĠAre
ITY
ï¼ļ
ĠEgypt
Ġmaster
Ġafford
ĠCompany
Since
Ġhole
Ġrelief
Ġimprovement
iment
CV
bul
ĠĊĠ
Ġ+=
Ġenvironmental
Ġplanning
These
Ġarguments
Ġcommunities
Ġcat
Ġapplicable
Ġopened
chema
Ġlatter
Ġvary
Ġbooks
Ġresulted
Ġgreatest
ugin
DF
ä»
ART
:#
Ġresist
Ġacute
Ġyes
Ġbelief
Ġafternoon
mut
Ġbio
ĠYes
Ġmachines
Ġabsorption
Ġisol
PV
Ġunknown
Ġ2019
Ġfocused
ker
ĠCr
Ġ52
Ġfavour
Med
][
Ġmetric
Ġgenetic
Ġexhibit
ĠTwitter
Ġconsidering
ĠScience
oscopy
ortion
break
ifer
ĠCounsel
Ġthin
ĠPRO
\]).
isher
elly
ĠĠĠĠĠĠĠĠĠĠĠĠĠĠĠĠĠĠĠĠĠĠ
2012
Ġassuming
ki
Query
Ġdoub
ya
ĠWisconsin
next
Ġtypical
Ġspot
height
Ġadvanced
Ġfunds
Ġfuel
che
ĠHill
Ġdirected
Start
Ġviews
organ
Ġdepending
olicy
Ġmouse
ĠBrown
ette
Ġpersonnel
leqslant
2000
RS
Ð½
prot
month
Ġsettings
Ġsignals
ĠDefendants
ita
aus
Ġchanging
Ġsustained
More
iler
Ġcalling
Ġadult
Ġeventually
ĠRussian
Ġsuitable
Ġplaintiffs
ĠAgreement
Ġ72
Ġreact
Ġvessel
]),
Ġtight
Ġnegotiations
anes
Ġintervention
Ġdual
Ġvirus
Input
annel
ĠPacific
ophageal
IO
Î¼
Ġterror
Ġexcess
bling
ura
Ġleaving
Ġsensor
ilateral
Ġadvantages
owed
ĠFree
Cs
Ġboy
Ġforced
Ġconclusions
?âĢĿ
Ġsignaling
ĠRussia
onymous
utor
ĠPress
Ġseemed
Ġadvert
Ġsmart
Ġthousand
ald
dslc
Ġlawyer
ece
ĠTaylor
status
Ġburden
Ġscores
Ġmanager
Ġstored
Ġcandidate
ĠJerusalem
ĠTom
Ġshock
Ġring
Ġfrequently
week
ĠUkr
Ġ120
ipping
gathered
Ġwheel
Ġattributes
hood
Ġplot
Ġpreliminary
ĠBen
Ġnoise
Ġcompetition
Ġstatistical
Ġurban
Window
Ġtwice
ĠAcademy
pmb
EW
ĠAng
${
400
Ġ*)
ropri
Ġfruits
Ġnecess
Ġchecks
Ġcle
ĠGo
NO
omal
Ġdetect
iverse
Ġruled
Ġretrosp
ĠBi
ĠProposition
Ġdivisor
aren
Ġmotiv
Ġempirical
Ġinvolving
clusive
ĠJoseph
ĠOfficer
Ġbool
Ġrent
essor
dots
ĠRule
acle
Ġ51
}\,
Ġcontribution
rh
ĠBo
Ġparagraph
EV
Ġtrip
Ġassoci
Ġscientists
ĠRodriguez
asp
omer
Ġradiation
KPX
Ġremoving
Ġdatabases
UC
Ġnan
Ġplane
Ġunf
Ġadults
istory
Ġexamination
urthermore
Ġsides
ĠMS
Ġweren
Ġimaging
Ġmolecules
Ġuint
dagger
Ġpilot
Ġrevers
ĠNor
Ġwilling
Ġlesions
Ġfill
Ġstandards
Ġcentury
Ġroughly
Header
has
Ġ2002
Ġfinished
Ġseasons
associated
ci
rog
Ġspaces
Ġindeed
cf
Ġreverse
Ġseeing
Ġappeals
oded
ĠGood
Ġoperators
cdots
most
Ġhel
ĠAp
ĠPe
Ġaccum
Ġ54
Ġminim
Ġordered
ediatric
007
ĠGl
json
ician
Ġnom
Ġtunnel
Ġpneumonia
Ġrelationships
Ġimmune
Ġconsult
Ġ2003
Ġsupposed
Ġlongitudinal
)=\
cup
Ġjump
Ġthanks
}^\
Ġsession
GL
Ġextends
button
Just
media
Ġintent
Ġindicating
Ġdemonstrate
Ġlose
Ġtranscription
2009
del
groups
Result
Ġjoin
Ð¾
assert
2016
Ġmission
ĠSenate
Ġnine
Ġconsent
sin
ERS
Ġtuberculosis
Ġwash
format
Ġrecall
Ġrelates
FR
ĉĉ
aming
Ġconcerned
ogenesis
Ġstre
Ġformal
Ġmainly
Ġpieces
ĠDi
Ġfraction
Ġdepartment
ĠĠĠĠĠĠĠĠĠĠĠĠĠĠĠĠĠĠĠĠĠĠĠĠĠĠ
Ġattacks
Ġarter
Ġincubated
Ġwood
ander
endif
Ġfinish
Ġplurality
ĠUp
Ġboundary
Ġsacr
Ġvessels
oxy
\)
Ġion
only
ala
Ġinstant
Ġbeauty
ĠLinux
Ġ_,_
Rem
Ġfunding
display
ĠFederation
Ġweapon
kins
split
Ġmand
ĠParty
ĠOffice
Am
yst
FI
uro
ictions
reatment
Ġorientation
ĠPATIENTS
============
Ġprosecution
Ġpix
ĠOnly
AGE
Ġoxid
Ġscene
Ġopinions
Ġepisodes
Ġasking
Ġinterpretation
uls
ERROR
IST
Ġspend
_{{\
graph
Ġscan
Ġfees
rior
ĠWork
Ġagricult
Ġposterior
fix
rite
Ġfans
Ġdil
Ġlaugh
Ġargues
300
ritten
Me
ĠSN
Ġchallenges
Ġenhance
Ġversus
Ġton
ĠmRNA
category
Ġfavorite
Ġconference
ĠAnn
Ġadvice
simeq
Ġphosphorylation
}+\
Ġpolar
2008
Ġcycl
MC
Ġtrain
Ġangle
Ġforth
Net
Pre
Ġsector
ctor
Ġ+/-
UUUUUUUUUUUUUUUUUUUUUUUUUUUUUUUU
lang
Ġreplace
Ġassay
OK
ĠFederal
column
Ġmedian
":"
Ġbias
ĠFollowing
Ġinterventions
Ġeligible
.**
ĠHall
law
ifies
Ġ2001
2014
gers
vt
Ġpotentially
Ġclaimed
Ġinher
Ġspring
Ġconfidence
floor
Ġsessions
Ġhouses
Ġrecurrence
Ġacquisition
ument
ĠMA
Ġdegradation
Ġhelps
ĠPhil
Ġrecognized
Ġestate
you
Ġ---------------------------------
ady
uting
obile
ĠFinancial
Ġemployed
Ġcapable
Evaluate
Ġcompact
ĠRob
Ġadvance
Button
Ġmention
Ġvill
ijms
Ġhence
Ġlit
Ġscattering
ĠStr
Ġtit
icious
Ġha
amed
Min
hi
defined
ĠAustralia
supplementary
opath
Ġcourts
Client
ĠĠĠĠĠĠĠĠĠĠĠĠĠĠĠĠĠĠĠĠĠĠĠĠĠĠĠĠĠĠĠĠĠĠĠĠĠĠĠĠĠĠĠĠĠĠĠĠĠĠĠĠĠĠĠĠĠĠĠĠĠĠĠĠĠĠĠĠĠĠĠĠĠĠĠĠĠĠĠĠĠĠĠĠĠĠĠĠĠĠĠĠĠĠĠĠĠĠĠĠĠĠĠĠĠĠĠĠĠĠĠĠĠĠĠĠĠĠĠĠĠĠĠĠĠĠĠĠĠĠĠĠĠĠĠĠĠĠĠĠĠĠĠĠĠĠĠĠĠĠĠĠĠĠĠĠĠĠĠĠĠĠĠĠĠĠĠĠĠĠĠĠĠĠĠĠĠĠĠĠĠĠĠĠĠĠĠĠĠĠĠĠĠĠĠĠĠĠĠĠĠĠĠĠĠĠĠĠĠĠĠĠĠĠĠĠĠĠĠĠĠĠĠĠĠĠĠĠĠĠĠĠĠĠĠĠĠĠĠĠĠĠĠĠĠĠĠĠĠĠĠĠĠĠĠĠĠĠĠĠĠĠĠĠĠĠĠĠĠĠĠĠĠĠĠĠĠĠĠĠĠĠĠĠĠĠĠĠĠĠĠĠĠĠĠĠĠĠĠĠĠĠĠĠĠĠĠĠĠĠĠĠĠĠĠ
ĠThompson
Ġ101
ĠMont
ĠGreat
ertain
Ġlig
ĠClinical
Settings
Ġsynchron
{{
Ġarch
exec
Ġcos
Ġfilms
Ġmarked
Ġimplies
Ġgap
Click
rr
Ġpitch
2018
degree
Ġchocolate
han
ĠAddress
ĠPlease
Ġusual
Ġrelax
Ġgrav
","
Ġresponsibility
Ġdamages
ĠRoyal
Ġmaps
ĠPH
TD
pdf
Ġscreening
)]
Ġbiological
Ġabundance
Ġincredibly
ohistochem
ĠMississippi
Ġegg
Ġsmallest
Ġaccurate
Ġconfront
Ġvac
Ġoffense
house
ĠField
Contact
dx
Ġpal
asure
Ġsolely
Ġrats
uccess
Ġcontribute
hr
}}{\
ĠĠĠĠĠĠĠĠĠĠĠĠĠĠĠĠĠĠĠĠĠĠĠĠĠĠĠ
proposed
Ġpossession
âģĦ
"),
output
apache
ĠJan
Ġ53
Ġdecide
Ġdownload
-\-\-\-\-\-\-\-\-\-\-\-\-\-\-\-\-\-\-\-\-\-\-\-\-\-\
uch
enter
Ġrect
Ġshut
linear
Ġarticles
UG
ums
Ġmeat
ĠMary
Ġexposed
Ġwaiting
Target
Ġce
Ġmethyl
Ġperceived
Ġmir
Ġlens
Ġlik
Ġhippocamp
Ġrelations
Ġseek
equal
Ġstanding
Ġpartial
Ġcritic
>&
Version
ĠHence
emia
DB
rate
Ġ300
âĦ¢
Ġbirds
ĠSaudi
2011
Spec
Man
ashed
References
Go
SR
åı
Ġ150
ĠType
Ġvariation
Ġprovision
Ġaccomplish
mem
ĠIP
URL
ĠPsych
Ġmyocardial
ez
rist
ĠTur
Last
hbox
aints
FC
itrogen
Ġheavily
ĠGive
Ġelectronic
iders
Ġremained
SL
ĠFIG
Ġmunicipal
Ġsodium
Ġsplit
ĠCap
aded
Ġveget
$)
Ã¼
osph
Ġspending
Which
Ġancient
Ġprognostic
Ġannual
ĠBill
ĠWeb
"}.
Check
men
Ġpartner
cing
Ġgender
ĠGold
ĠOnce
Ġexponential
ĠJavaScript
Ġfold
ĠCT
Ġstability
**(
aked
Ġ58
ERT
ĠIndeed
Ġcomplaint
&\
ä½
rive
Ġtechnical
Content
ounter
snap
non
Ġdynamics
Ġamendment
Ġhypertension
uous
acks
Ġfacilit
Ġaccompanied
stat
Ġcommission
Ġenthusi
)^{
Ġthereby
bal
Ġends
Ġcustomer
UI
Ġice
Ġaxis
Create
Right
æľ
BR
EA
{}^*
ĠBMI
Ġran
Ġopposite
Ġemployment
Ġlaunch
Ġconcluded
Ġiter
change
Ġconsideration
Ġconsensus
Ġfibroblasts
Ġstarts
Ġbaseline
Ġworse
Ġindividually
ORT
Ġdoctor
Ġcourses
Number
Action
find
aria
urer
Ġoral
Control
Ġepidem
high
icks
Ġaspects
Ġnumerous
ĠEX
request
Ġdramatically
Ġfre
Ġrock
Ġsubstit
Ġclothes
ĠChildren
PM
Ġsuggesting
Ġmodified
Ġdowntown
HS
Ġnarrow
Ġcommonly
txt
ees
mL
mg
Ġol
Ġdifferential
\*\*
ĠVictor
stylesheet
Ref
Ġtheorem
Ġpersons
artifactId
fs
Ġclar
append
Ġrequirement
ĠMicro
Ġknee
Ġretirement
power
..\
Ġseconds
Ġstopped
Ġpossess
Ġseeking
real
ĠSpr
COM
Part
road
Ġnotes
UP
Ġphoto
Ġaltern
Ġtransf
INE
Ġearth
Ġexhaust
Ġgenuine
ĠZealand
ikipedia
ĠPR
ao
andom
Ġrecommended
%),
GR
Ġsupporting
Ġoccasion
Ġpopulations
ibrary
Ġsuccessfully
edy
ĠDen
translation
ĠAfrica
Ġnervous
ignificant
Ġabdominal
Ġfluctuations
dim
à®
overn
ĠRepublican
method
eld
ĠâĢ¦
Ġtroops
Ġprognosis
ĠJews
card
ĊĠĠĠĠĠĠĠĠĠĠĠĠ
Ġhomogeneous
null
Ġchief
120
process
ĠANY
Your
ĠSl
INT
Ġincidence
ĠDaniel
ĠItalian
eness
}}}
Ġenable
Ġsigns
vas
equiv
>(
Ġfiber
Config
Ġdependent
Ġstupid
Ġdesirable
HR
Ġprev
Ġpractices
Ġemergency
Ġstrain
posed
Ġintegral
Ġideal
110
ĠTheir
Ġdollar
ĠCaptain
Ġunusual
ÃĹ
ursor
Ġreplaced
ek
Ġ-----
args
ĠJersey
Ġoverwhel
GG
sg
Ġcort
Ġtoler
ĠSpanish
Ġoffset
Ġended
ĠMad
ĠJustice
Ġtumour
Ġconj
Ġbeat
Ġconsumption
frame
Ġenemy
Ġenergies
car
activ
]$
romagnetic
Ġmiles
2019
irty
Ġcellular
Ġhierarch
uster
conf
small
Ġ57
Ġinteract
Ind
Ġì
ĠEqu
weet
Ġanterior
SELECT
|{\
Ġguide
Ġfish
Ġviolation
push
war
ĠFour
Ġpulmonary
lar
obs
Ġsolve
ACT
riers
ĠColumbia
Ġgirls
Off
ida
olecular
SON
aped
apse
Ġinstitution
Ġcart
ĠSand
empl
scale
Ġentirely
Ġaforementioned
Ġca
Ġsupra
vo
ena
Ġappearance
Ġamounts
LA
rons
Ġpoverty
ultiple
Ġspecimens
Ġelderly
Base
asy
ĠHD
ĠLike
Ġpromote
').
Ġtag
Ġsit
ĠFile
Ġeffectively
ĠMethods
ĠAssembly
SO
urd
\]),
Ġreporting
ĠMinister
Ġfont
ĠIll
Ġalt
Ġadmitted
âĶĢâĶĢâĶĢâĶĢâĶĢâĶĢâĶĢâĶĢâĶĢâĶĢâĶĢâĶĢâĶĢâĶĢâĶĢâĶĢâĶĢâĶĢâĶĢâĶĢâĶĢâĶĢâĶĢâĶĢâĶĢâĶĢâĶĢâĶĢâĶĢâĶĢâĶĢâĶĢâĶĢâĶĢâĶĢâĶĢâĶĢâĶĢâĶĢâĶĢâĶĢâĶĢâĶĢâĶĢâĶĢâĶĢâĶĢâĶĢâĶĢâĶĢâĶĢâĶĢâĶĢâĶĢâĶĢâĶĢâĶĢâĶĢâĶĢâĶĢâĶĢâĶĢâĶ
tab
ste
ĠIV
ĠSant
grade
control
Ġteaching
0363546518815159
star
Ġscope
sofia
Ġliberal
Ġsteady
Are
Ġsym
Ġlos
roduction
Ġunion
čĊĉĉĉ
Ġbehaviour
Ġorganic
$_
++)
Two
lines
Ġpadding
Ġcerebral
uns
ĠTimes
Ġgrid
product
ĠCentral
ÂłÂłÂł
Ġbattle
Ġassumed
May
fit
Ġunable
Ġinfo
mat
Ġregression
Ġstruck
rid
rian
ĠLie
ĠGal
Ġjustice
Ext
ĠPlan
Ġkeeping
Ġassistance
emporary
Ġcooperation
Ġpump
Ġcompound
#:
Note
GB
erry
Ġdecades
Ġobservations
Ġcocaine
Ġresonance
Ġadolescents
Ġcentrifug
ĠAPI
Ġuna
orters
Ġstreet
Ġ59
Ġpeace
md
Ġtables
ori
ĠEastern
Ġphrase
Ġlawsuit
Ġparticle
00000000
called
Ġcharacterized
Ġsought
Ġcoupling
ND
Please
ĠAlex
apes
ĠPURPOSE
Ġplastic
Ġfingers
ondition
Ġresearchers
Ġmassive
ytes
Ġidx
Ġpropag
ï½¡
Ġduties
Ġdiscipl
Ġreform
zer
Ġbone
Ġdisk
ĠRad
ogn
Ġgrade
ĠÎ²
acement
Ġsuppl
ĠWARRANTIES
Ġdistinguished
Ġbright
Ġ{}
Ġassigned
Ġobjective
element
thers
ĠIF
Ġdispl
Ġcontainer
Ġresidents
ye
Ġacting
Ġprominent
ĠSam
agen
ĠJud
Ġ[[
Str
]]
cribe
Ġpronoun
bec
cut
ĠWill
Ġcontributions
Ġstructural
Ġmerely
Ġrig
Ġ99
Ġtrivial
oration
ĠRE
property
Ġrefuge
*^
erves
Ġmanaged
Although
Ġadm
ollow
nanomaterials
ords
Ġinjection
Ġbal
anger
Ġguard
ĠJohnson
ogenic
Ġorders
Ġwear
tool
Ġlinked
Ġcovari
ĠSpecifically
ooking
ĠJones
Ġinhibition
ĠObject
ULT
Select
Ġcluster
Ġbiopsy
ytic
location
Ġminute
Ġprincipal
OV
Ġeditor
oral
imer
Ġ\>
ĠArab
Ġbroken
Ġsandwich
Ġcannabis
Ġcomplications
)}\
egr
emp
Ġpredicted
Ġnewspaper
ĠSeveral
png
endant
Ġimm
ĠNav
Ġinformed
lectric
Ġauthorities
Ġprinciple
{(
})\
Cons
idential
Buffer
Ġidentification
ĠPetitioner
ĠPalestin
Ġpp
iciency
missions
Ġproximity
Where
otted
Ġretriev
.-
rief
Ġpin
Ġregistration
norm
ĠMath
package
Ġsensitive
Ġsegments
Ġdistinction
FO
Ġlowest
Ġaid
root
Ġrein
Ġgar
Ġfan
imation
aching
Ġapart
MD
fast
Ġsecure
urop
itors
Ġbug
Ġcorner
]\
Ġ1999
Ġfaster
ĠWal
web
Ġconviction
thm
Ġconsole
ourse
Ġarms
jwatson
ĠBaltimore
Post
straint
icular
Ġsupports
Ġcandidates
Ġinnov
mbfa
GE
NN
Supp
Ġfell
Ġreducing
Ġtrajectory
astro
Stat
Ġknock
Ġdisagree
Ġinfer
ĊĠĠĠĠĠĠĠĠĠĠ
ups
Ġfloat
Ġhumans
ĠSD
Ġclassical
Ġuniversity
äº
Status
ĠHenry
FIG
Ġirrelevant
ais
ĠNa
Ġinvolves
human
Ġfilled
rie
ï¼Į
ĠIT
bionic
Ġ"\
ĠLabor
]^.
MENT
ysis
Ġexpensive
150
Ġmathematical
Load
si
Ġwarn
ĠVol
layout
uto
Instance
Ġfacilities
ĠFITNESS
Ġtick
Ġmic
Ġven
Ġchair
buffer
Ġclosely
ria
####
rolled
ĊĠĠĠĠĠĠĠĠĠĠĠĠĠĠĠĠĠĠĠĠĠĠĠĠĠĠĠĠĠĠĠ
cat
Ġnarrative
Ġmicroscopy
Ġawesome
ĠPan
Ġexceed
aken
filter
Ġmouth
------------------------
Ġenhanced
æĺ¯
Ġstomach
Ut
ycl
ubb
Ġdetermining
ponents
GO
aired
ĠUs
Ġrepl
ĠLife
ãĢĤ
([
Ġbottle
istribution
Ġtrail
ORD
Ġblocks
Ġfolks
Ġcompatible
ented
Â¶
Ġtub
ĠFund
ĠApple
Ġmarried
ither
Ġbath
Ġeating
idd
Ġminimal
Component
CF
Ġcorrectly
Ġhundreds
edding
Ġasc
Ġreads
Ġzone
Ġsitting
Ġassets
Ġguidance
ĠDI
Ġassault
Point
Ã¤
common
Ġprovisions
Ġmatters
Ġdecreasing
Ġpregnant
ota
Ġyouth
Ġforg
Ġinstalled
La
Ġ110
Ġcounts
Ġpeptide
Ġlibraries
)))
Ġputting
Ġroute
unit
search
ĠColorado
ĠĊĠĠĠ
Ġcities
ĠPittsburgh
/>
Ġil
Ġstack
Ġintention
cribed
Ġhtml
Ġcancers
Ġobesity
Ġcomparisons
Ġrational
ĠBig
module
ĠRobert
ĠThomas
ĠFib
Ġextend
ĠÃĹ
ĠHouston
ressRouteCircu
Ġmes
ĠLord
Ġargued
]);
Thanks
Ġpackages
Ġpages
ola
addr
Ġbrother
phone
earing
Ġdynamic
)}{
Find
Psi
number
sens
ĠSk
Ġpassing
arXiv
Identifier
=(
mid
entry
ĠPut
Ġembarrass
DP
Ġcas
ĠÎ±
tic
iki
Ġinitially
Ġaccounts
Ġ],
Ġlifestyle
Ob
Ġjoined
)"
BB
Ġspl
ĠMag
Ġcoronary
rt
ĠMem
ĠFind
Ġrequested
Ġaccompanying
Ġcreation
Ġembedded
Ġmagazine
life
Ġhal
Ġpractical
*/
phasis
Ġinternet
msgstr
Ġpredominant
Ġleague
raz
ĠFrank
msgid
Ġdeficit
Ġquestionnaire
Sim
čĊĉĉ
Ġdisorder
expected
Ġdelivered
ERE
ĠScott
çĶ¨
Ġconfigurations
El
LS
Ġmess
Ġreviewed
ĠHaw
endar
Resource
Ġschemes
ooks
ĠPCR
Ġcounty
ĠMcC
ĠAF
Ġalle
Ġaffidavit
ĊĊĠĠ
Ġgotten
{"
Ġtranscript
brack
ruption
Ġpreced
Ġclients
ĠInsurance
DI
hydro
Ġburn
Em
Ge
pers
Ġgather
Ġcollabor
Ġ---
Ċĉĉĉĉĉĉĉĉĉĉĉĉ
obj
sa
enyl
Ġseat
čĊĠĠĠĠĠĠĠĠĠĠĠ
Ġfacility
ĠParis
Ġstrategic
inn
ĠHel
///
Ġrepair
Ġcrystal
Ġorthogonal
Sch
Ġ1990
Ġwatching
ĠIreland
ĠDaily
Ġdeploy
Ġdepart
Ġvisible
FS
Ġoptimal
Ġscreens
Ġbutter
Ġconsists
ras
ĠHIV
ĊĠĠĠĠĠĠĠĠĠĠĠĠĠĠĠĠĠĠĠĠĠ
ĠWhich
Ġserving
Ġinflammatory
setminus
ĠYouTube
Ġforget
ĠNO
});
Ġcausing
Ag
ko
ĠÂł
attr
Ġpig
ĠLog
Ġaspect
bel
Ġvision
ĠEV
Ġassumptions
Despite
Fe
ĠBack
sup
xef
ACK
Ġobviously
Ġexecutive
Ġdangerous
nic
Ġseal
neq
treated
Ġtail
Ġ85
CU
Ġapparent
ibration
}...\
00000
istics
Char
iological
Ġsolar
Ġleadership
Ġuncertainties
RI
ĠProject
Ġridicul
Ġpetitioner
Ġterritory
Ġlie
oked
Ġimplied
Ġpowder
Ġmanage
Ġexperiences
Ġsynthesis
ĠMuslim
Ġfranchise
Ġinadequate
Ġhomes
ĠFore
"})
PRO
options
Ġposted
Ġargue
Ġproved
Ġtreatments
Ġturns
fold
Ġearn
Ġimplemented
Ġborrow
Ġdeemed
LR
Ġrenal
ella
Ġ97
perties
scope
License
ĠRiemann
Hz
materials
Ġaffirmed
}},
values
asic
ĠSun
Ġ61
Ġsituations
limits
Ġchopped
icide
ĠNon
Ġwaste
ĠDC
Ġlocations
server
^+^
ĠMer
update
Ġweekend
chain
ĠStar
Ġsubset
gence
Ġinit
Ġcumulative
iability
}/
ideo
Ġsubmitted
Ġbrand
Ġobservation
gebra
Ġ68
Ġcooking
BO
\"
ĠCamp
Ġneutral
Ġvertices
Ġnutri
Default
Te
header
Ġconform
Ġclock
Ġ1998
Ġlas
Ġlived
Ġcorrelated
Sm
etr
ili
Ġhonest
ĠConnecticut
dat
ĠpH
outs
Ġthoughts
Ġinflammation
Ġwealth
ĠMel
Ġpathways
Ġpolitics
Ġconsequences
Ġsophisticated
oting
client
Ġattend
Ġposit
Ġcategories
Ġobligation
Ġagenda
ĠPerhaps
ĠPo
ĠMil
ĠIts
igarettes
Ġdischarged
%).
Every
=====================
Ġaffirm
ĠSecurity
ĠTre
ĠChief
Ġbiom
.@{
Ġpreparing
Run
ĠIM
Ġpointed
Stream
afe
Ġobj
Ġantibiotic
Ġspectroscopy
Ġpayments
Ġpairs
Before
OH
Ġast
Ġwalking
Ġdepos
Ġ66
Ġcloser
ressing
ĠAtt
Ġloved
Ġpri
Ġwrt
Ã¨
Ġneck
ĠCup
arks
Ġsheet
ococcus
Det
ĠSil
Ġ63
Ġvirt
Ġdebate
thetic
Ġrail
Ġpublication
ĠCOPYRIGHT
Mr
Ġpod
Ġeigen
verage
ĠCare
Ġtra
Ġtransformation
Ġmorbidity
ĠSwitzerland
ĠLong
Ne
Page
Panel
Today
Ġinstruments
Ġartificial
Ġ96
axis
Ġfeedback
Ð»
Ġstages
Ġpunishment
2006
Ġessentially
:(
Ġpeculiar
Options
["
Ġhelpful
Ġ1997
ĠProf
Ġcrypt
ingle
ĠPA
Ġ2020
Ġbiosynthesis
Ġdream
ĠMur
Ġrecording
Ġtrees
bigg
FONT
Ġexclusively
Ġtobacco
ĠOntario
Ġhomosexual
Ġ62
Column
åĪ
Ġlies
Ġinches
Ġregime
ĠWhere
ĠArray
gorithm
inating
eller
leted
ĠmÃ¡s
ĠSweden
{-
ached
<\
ceptions
006
IND
English
ĠQue
Ġsomewhat
DD
QU
Layout
ĠÂµ
Ġantibiotics
Ġlegitimate
Ġ67
HL
ellig
Ġmaintained
Ġnurses
Ġ"âĻª
YS
apl
Ġdescribes
Ġspectra
)+
Ġgift
osa
command
ertion
Ġtor
iration
ĠReview
Ġpowers
liament
Ġpatent
ĠImmun
amsfonts
Open
ĠOS
Ġattempts
Ġsurrounding
anoate
Ġrecipe
pose
rin
ATA
ĠJordan
Ġembryos
springframework
ora
Ġ1996
Ġrecognition
Ġpulled
window
Ġaccused
Ġidentical
Ġdrives
)[
\.
Ġgenome
Supplementary
Ġcru
Ġbeam
ĠMicrosoft
ĠFire
Ġindictment
ĠDetroit
Ġlots
ĠRiver
ulture
Ġhelping
Next
ĠCall
Ġbigger
Ġholiday
Ġceremony
igarette
Ġarthritis
Hel
Ġadj
idents
isted
ĠDemocratic
ĠSometimes
DC
Use
sch
buf
Rev
second
Ġapproval
112
Ġstem
$$\
Ġpicking
Ġ76
Ġtelling
Ġsemi
upgreek
amsbsy
wasysym
ĠEth
Ġje
Ġcharacteristic
atural
Ġpassword
Ġsuperior
Ġreputation
Ġsi
Ġrh
ĠAfrican
inet
orage
Ġcontents
}}^{
Ġdifferentiation
ĠProt
debug
Ġlay
Ġalloc
Ġdesire
sign
ĠFil
ĠKim
Device
Ġuptake
uv
emon
Mode
Ġluck
ayers
ĠPeter
mann
Package
ĠYanke
Tex
ctx
ĠInformation
Ġdirectory
InCallScreen
Mar
direct
Ġgate
Ġsea
ques
riter
ktop
Ġinduction
Ġbusinesses
Ġinfiltr
Ġdemocr
ifts
ĠPatients
Ġstatistics
Ġtough
omatic
Ġterminal
Ġloan
ournals
Ġacids
Ġdisplayed
Ġ79
Ġconstructed
Ġulcer
Ġfragments
None
stack
Ġrapidly
PCR
Ġmail
Ġchart
Ġmodify
ĠProv
Ġvictims
Ġagreements
Ġintrinsic
Ġinfluenza
Ġalgebras
Ġdepression
Yeah
Ġemployer
Ġsetup
Ġcolumns
ĠVietnam
2001
ĠWilliam
Ġscr
Ġfilename
Ġiron
ĠLittle
ĠRh
oggle
WH
odd
III
Ġhypothesis
ĠPolice
Ġav
inance
Ġsounds
Ġhepat
Ġ400
Ġdimensions
ĠDemocrats
ĠIowa
Ġinvasive
Ġtrouble
Ġexperts
Ġfurniture
Ġsports
Ġing
ologic
Ġinstruction
Ġintegrated
Ġcopyright
About
square
Ġfiscal
ootstrap
Ġmarkets
Ġbind
Ġbeta
ĠCount
Ġparticipate
PATH
SIZE
Acknowledg
Ġhydraulic
BE
GS
dc
ĠElizabeth
Ġtemplate
Ġske
Ġraw
ucks
Ġmob
conduct
ĠArch
Results
Ġhol
ĠDev
Ġ69
Phys
Ġexpendit
ĠVietnamese
Ġ),
roc
eto
isting
Ġexamine
mi
Ġpet
Ġmit
Ġimmediate
Ġadvoc
Oper
RT
Ġtow
Ġnative
ĠSE
ĠPower
ĠKentucky
ĠConfeder
zing
ĠThose
Ġstir
oxid
ACE
)*(-
Account
Other
PAR
iology
ona
Ġclassification
Ġendoscopic
flu
eting
Ġreactions
Ġgam
Ġassign
perimental
Ġpursue
Ġpars
Ġplain
ĠLink
Ġ88
Ġmoves
Ġtells
Ġdramatic
"]
Ġ1000
ĠReal
Ġ84
subs
Ġtopic
Ġspeaking
October
ĠVenezuel
mond
arly
alloc
ĠÂ£
Ġinconsistent
Ġdeaths
)}$
ĠMiami
ĠEntertainment
Ġcups
etric
ĠCS
Ġvit
Ġxml
Ġfighting
uing
xf
Ġreplic
Ġpret
ĠLos
claim
Ġexplore
ĠCorp
Ġbarely
Ġtube
Local
band
ampl
Ġexcluded
Ġengaged
Ġregional
Ġdiagonal
Ġlandscape
ĠMs
ĠMean
Ġpoll
Ġdenote
Ġphotos
TE
Vector
zen
Ġrows
Ġretail
Ġdiagnosed
ĠControl
Ġfibrosis
amps
Ġshoot
Ġassumption
Ġremote
Ġrespective
Ġsubstantially
Ġdivision
esthesia
Ġmosquit
Ġcomplicated
cancers
istor
erman
Ġcalculation
ido
Ġadverse
2007
Ġdogs
Ġstellar
ĠTaiwan
Ġimprisonment
Ġnormally
loc
Ġhate
Ġintroduce
Ġpreferred
Ġsavings
incipal
ĠScotland
Function
Ġtaxes
VAL
Ġkick
positive
]{}\
ski
Ġcustody
Ġaccomplished
Ġbought
Ġincreasingly
Ġtens
ĠPet
160
Ġrepresentative
ĠĠĠĠĠĠĠĠĠĠĠĠĠĠĠĠĠĠĠĠĠĠĠĠĠĠĠĠĠĠĠĠĠĠĠĠĠĠĠĠĠĠĠĠĠĠĠĠĠĠĠĠĠĠĠĠĠĠĠĠĠĠĠĠĠĠĠĠĠĠĠĠĠĠĠĠĠĠĠĠĠĠĠĠ
Directory
Ġrealize
Arg
Ġsocioeconomic
Ġpy
ĠAcc
Format
People
Ġweather
.âĢĻ
Ġapplying
\}
task
Ġfle
Ġworst
home
ormal
ĠAsia
varpi
foo
Michael
ĠMissouri
Ġbureaucr
foot
Ġbars
ĠDE
Ġmales
Ġcultural
Ġrotation
ĠKorean
Ġlen
Ġ[]
ĠMartinez
NOT
vs
erver
Ġpaint
Ġnm
teen
Ġoffering
Ġrealized
Ġarrested
Rearrange
court
âĶ
iner
Ġsick
Ġroles
ĠTrust
čĊčĊ
%;
Vis
Ġprobe
Ġregardless
Ġtremendous
ĠMax
ĠName
ĠNov
Ġ['
Ġentity
ĠClub
internal
180
Ġplea
Ġsubstances
Ġdeclaration
Ġmacrophages
Ġcylindrical
Ġurl
linewidth
Block
files
ĠFre
ĠLo
Ġcontrary
]-[@
Ġprivilege
ĠDate
ĠTw
ĠOb
Ġking
Ġoriginally
points
Ġsuffered
Dr
Ġfellow
ĠHome
ĠVer
ĊĊĉĉ
Ġfelony
Definition
ĠIDE
Ġinvasion
Ġcoal
ĠReport
Ġawait
HE
da
Ġtip
ICE
Ġcurves
ĠAmong
ĠAvenue
Ġcircuits
Ġmine
Ġtargets
Ġseparated
ĠSupp
settings
Ġrecruitment
Current
Ġtherm
Ġposts
Ġhappening
Ġdrawn
??
Â»
Ġ}}
:**<
ĠSoviet
develop
Ġcirrhosis
\^
aters
isk
\|_{
sql
Ġ78
chemical
Ġfairly
Ġgrateful
--+--+--+--+--+--+--+--+--+
Ġgrounds
Ġforming
rome
Ġwarning
Pol
Ġbet
Ġspr
gun
adata
ĠWood
ĠTim
ĠLee
Ġ74
Ġproceedings
Output
pop
Ñĥ
Ġnutrition
ĠThanks
ĠPO
rule
Ġhousehold
Ġquadr
Ġfrustr
Ġtournament
Ġromantic
ĠCard
Ġster
Ġregulations
Ġgrown
Ġmomentum
Ġ-\
click
Ke
Ġconversion
Ġirreducible
oder
Ġ71
region
Ġconnections
Response
Ġmutations
ĠSarah
ĠENDOSCOP
ran
uh
Many
Ġprompt
Ġdrivers
ĠCruz
Ġemissions
Ġinappropriate
Ġemission
ema
show
blog
ãģ®
low
Ġreliable
anned
ĠInstagram
acket
Ġkinds
Ġstatistically
Ms
Ġnoticed
Ġ[$\
105
romise
Ġloyal
ĠTarget
Ġceramic
service
Ġshell
born
Ġknowing
ĠIns
Ġregistered
,'
Ġ77
Link
Ġaside
Ġordinary
Ġprediction
ĠAff
adow
Ġneur
Ġlisten
Ġmenu
Null
isters
Ġinfections
Ġprojected
ĠSpirit
Listener
embers
ubs
Ġč
Ġsport
="#
Process
IVE
Ġtransferred
ĠAuthority
0269216315602590
NC
Pat
ĠGener
Ġsoil
CTION
Ġworry
mode
============================================================================================================
Ġextensive
Ġfaculty
xe
ela
fact
greg
have
Ġsizes
Ġ$(\
ĠGO
Ġmanip
Ġcertificate
Ġportfolio
Ġmeth
ĠLab
**:
ĠCheck
iger
2002
Ġsuffering
Ġstyles
'$
store
oids
(*
ĠHarris
Ġimpairment
Ġincredible
ĠRoberts
inals
ĠThree
Ġperm
Ġexcited
ĠModel
uke
Ġpatch
Ġsubstance
Ġcontroller
Ġacquired
Max
ĠArm
regulated
Ġhotel
Ġfeels
Ġlawyers
cmaloney
Ġboolean
Ġbil
Ġspoke
achment
Ġ89
Ġfemin
controller
ga
Ġalk
ANT
Debug
water
ĠWilliams
World
Ġappellate
ĠDouglas
ĊČ
Ġpermission
rapper
ĠAccordingly
Ġcorporate
ĠKansas
Ġcriterion
mo
nov
unct
YP
Ġlob
Ġcompute
ĠGame
Ġinstruct
Ġwebsites
Ġarrays
ĠMa
)_
vector
including
125
Ġcrack
Ġhepatic
enes
oli
Ġagencies
Ġamb
Ġaddressed
Ġfee
140
ĠIsland
Ġmechanical
IZ
][@
Ġdimensional
Ġhall
criptions
Even
_>
yy
Ġcalculate
Ġlogic
Ġlaboratory
Ġaver
Ġswe
river
Ġopposition
Ġfault
Ġincomp
ĠCM
ĠJo
Ġcoupled
Ġcards
Ġyounger
Ġmalignant
Ġpredetermined
TEST
Ġstrains
ĠWho
Command
cpp
system
Ġkilling
Ġexpand
Ġcarrying
Ġexplo
Ġrefused
ÃŃa
Ġdedicated
Given
TL
Ġ111
Ġsuff
Ġsubsequently
Child
Ġcomputed
Ġluminosity
step
rug
Ġadvis
Ġvast
Ġhidden
Ġ\*
Ġrepresenting
Ġpromise
Ġcalculations
Frame
Ġdecomposition
ĠAlabama
Ġchromosome
Ġtrafficking
Ġcentre
Ġrecognize
Ġmigr
ĠPD
Also
Ġdealing
omorphism
Float
Ġos
ucle
Ġsatisfied
600
ader
ĠWall
aka
Ġdried
.;
draw
Ġintermediate
LL
acer
Ġsteel
join
Ġbacteria
ÎºB
ĠMexican
kes
Ġcrash
Ġrequests
ĠâĪ
Ġcutting
Ġslowly
ĠMat
Ġfinds
Ġinjured
Ġcoordinates
æķ°
'_
ĠSum
ĠCanadian
Ġimagine
Ġrehabilitation
Ġconce
Ġversions
Ġfirms
available
Cal
âĢĺ
ĠSM
Ġamplitude
ĠIg
Ġchest
Ġillness
Ġconsequence
reasonable
Ġcircles
Ġthromb
Ġbreaking
Ġbasically
Ġattempted
Length
Sort
Ġrenew
Ġ(âĢľ
Ġongoing
Ġinvent
Ġcavity
Ġcanonical
Ġincubation
mult
mean
Ġtort
Ġstrip
ĠLeg
Ġfails
Ġdependence
Ġvoters
Ġholes
ĠOper
ĠYet
Ġflag
ĠHREF
HA
etics
ĠAv
ĠText
Ġchapter
Ġquas
Ġherein
Ġaimed
Ġaggreg
ockMQTTClientObject
ARY
Ġemotions
ĠRespond
ĠJonathan
pin
Â®
usr
Ġamino
Ġradical
}-\
Ġfo
Ġhurt
Ġ73
ĠDisease
ĠVEGF
Ġenterprise
Ġbench
etal
ĠSP
ĠTop
Ġsleeve
Ġpancreatitis
rb
Ġgro
Thank
Ġment
ima
ancer
ĠMedia
VID
ĠSU
Ġstands
Ġstores
Ġcomplement
ĠLight
ipe
CG
ĠBush
}}^
Ġpermit
Ġclimate
Ġaudience
stop
Ġalert
ĠVan
Ġgran
Ġbacterial
Ġenrichment
rup
Ġ:)
Ġnecrosis
Ġtrajectories
mathsf
107
Ġdriven
ilder
utch
ĠProgram
Ġflux
```
Ġfinger
^{-\
Ġ1995
Ġpresentation
Ġterrible
Ġventricular
ĠSol
ĠCOM
Ġusage
aches
Ġ82
Ġ1980
Ġabnormal
Ġdifficulty
Ġpaying
ĠDiego
ãģĹãģ
Ġ250
Ġ>=
Ġmoral
Ġinstitutions
ellee
zero
Ġmill
Ġdict
Ġevident
ĠItaly
Ġdecline
Ġ98
Ġconsumer
Ġabsorb
potential
Ġtransaction
ellants
Ġoven
Ġcontributed
Ġcomparable
Ġconvenience
Ġpel
Ġfoods
>\
Ġlim
Ġsharing
ãĥ¼
ynamics
ĠCOURT
Tag
Ġenabled
prod
Ġapproximation
ĠShow
Ġenzyme
parallel
GET
asia
ĠDeb
Ġevening
offset
ĠRoad
access
Ġoperate
Who
umor
Ġfantastic
Ġdiscontin
Ġconvinced
Url
}^{(
device
.$
idel
Ġvectors
Ġchoices
Ã§
esides
Ġproducing
ĠHand
textrm
ĠMaybe
Ġelections
Ġprivacy
Ġheadquarters
CIT
iod
Ġbrown
response
Ġourselves
Ġclassified
Ġsettlement
Ġdrove
Ġhormone
Ġtrained
awa
Ġintegration
wait
report
Ġtranslation
Ġconversations
CB
Work
ĠAnalysis
ĠLast
Ġdecade
Update
2003
ĠJul
ĠVis
prov
Ġmodes
Ġwalked
Ġdistricts
Ġveter
ORE
Down
Factory
Ġprecise
ĠOregon
Ġartifacts
Cor
atform
Ġ===
ĠOld
Ġmarkers
Ġ\;
Ġquiet
Ġanywhere
ĠYOU
Ġroutine
Ġdensities
Ġdeterior
Protocol
support
then
ĠGrand
Ġsimulation
Ġsingular
nc
otypes
eman
ĠEU
Ġimposed
Ġanyway
Ġnewly
Theta
ĠNokia
ĠKevin
Ġindustries
Range
å®
Ġdish
Ġrepeat
Ġtheme
Ġfacing
Ġwinning
front
emic
ĠJeff
Ġcath
Ġduck
Init
128
Ġcrew
'),
ĠBlo
ĠFort
Web
Ġcreates
Ġshaft
.]
Case
yes
enant
berry
ĠRepublicans
Ġwonderful
Ingredients
Â§
Ġcircum
Ġrevenues
ĠFootball
ĠLewis
ĠEmpire
Ġoccasions
Ġcontends
raise
ĠKar
ĠVersion
*]{},
Like
ĠUt
Ġplanet
Ġregulatory
Health
outheast
ĠQuestionnaire
DNA
tra
ĠOK
1999
Ġgoods
Ev
Ġsoul
Ġdelete
Ġanomaly
har
iro
sv
Ġtank
imum
about
Ġtruck
Ġsatisfy
ĠConstitution
Ġthr
ĠFox
ĠFood
ĠÂ«
ĠProtein
etry
istant
Ġ91
Ġpara
Ġinvolve
ĠPath
}^{-
ĠAnthony
Ġstraightforward
ĠHollywood
Ġgel
umps
ophag
fg
amination
Ġ116
ĠBern
Ġpurchased
Ġextracted
Bundle
âĤ¬
ĠFuture
kt
å¤
Ġresc
AMP
Ġencoding
Ġdocumentation
Ġdisclosed
copy
vol
Ġess
Ġmissed
eds
Ġaged
Ġradius
Put
itations
Ġowned
Ġcommunications
Ġintroduction
Ġindependently
Ġobserve
ĠBureau
mathscr
Ġsatellite
Ġacoustic
enal
Ġmask
Ġlegs
Ġhell
Ġlat
Ġedges
Ġnursing
.^[@
Ġ\{
ĠHR
Ġcarrier
2004
ĠDO
ĠKey
Ġdiscover
Ġabundant
Ġentertainment
Ġencountered
Ġsubmucosal
""
Ġng
ĠPT
Ġrain
erving
Ġbowl
iag
idad
ĠBase
ĠInvest
ĠKn
Ġheader
Ġperfectly
Ġinhibitor
Top
she
Ġchose
Ġnurse
ted
wa
Ġsong
close
cludes
Ġ1992
Ġstrike
GT
Ġsummar
Ġstronger
Ġancest
ynchron
Ġinnocent
Ġdoc
Ġcorresponds
Ġyields
Ġ83
Ġwelfare
January
lie
ali
Ġ1994
era
------------
ĠBased
example
Ġcars
Ġmarginal
Most
umes
Ġ94
Ġfrequent
Ġmanufacturing
ĠArkansas
gress
}:
project
Ġtemporary
ji
aciÃ³n
Ġshouldn
Ġcarefully
Ġrounded
Ġtab
Ġhazard
ĠNetherlands
ĠAppendix
Ġmeta
illion
Mark
some
zo
ione
shot
Sl
meta
Ġcomplexity
Ġimproving
infinity
Ġbulk
Ġtroubles
ĠVancouver
anted
}_\
Ġmagnitude
Ġanalytical
va
Ġselling
Ġ115
Ġtele
2005
Under
Ġfunc
oplus
anol
Ġexerc
ictionary
Ġdataset
Ġfriction
Ġaggrav
ĠLIABILITY
rat
iana
Ġperforming
Ġprofiles
Ġopposed
ĠGM
expression
ĠÃ©
Ġseparation
ĠSpecial
BV
ja
make
ira
should
NAME
âĢĶâĢĶ
Ġmaternal
ĠHAVE
iform
Ġcomparing
','
ĠOrder
Ġseriously
Widget
aterial
Ġbringing
Ġexplicitly
Memory
Ġrelevance
Ġfeasible
Ġdiagrams
={
Ġmild
"}),
Ġparticipation
Ġquantity
Ġdoctors
Ġsurprising
Left
NR
retion
otox
Ġ87
Ġaccommod
Ġsufficiently
atisf
Ġyeast
Red
Script
ĠUV
Ġtransparency
ĠMike
008
Ġequally
Ġmetall
ĠBuild
Î³
Ġalb
Ġokay
Ġinstances
agan
ĠFed
Ġperp
Ġreader
Ġdomains
Ġcapture
ĠHilbert
(_
actic
Ġwherein
vin
EXT
holder
ĠMD
Configuration
ĠBGCOLOR
ĠIr
Ġcomfort
brace
Ġperiods
Ġwriter
ĠDigital
bro
ĠRam
ĠOh
ixed
Ġdisturb
Ġconsecutive
;</
dl
Ġwhenever
ĠCohen
ĠMedicare
VERSION
Vertex
)),
020
Ġmapping
thread
ĠBow
ilation
Ġactivated
ĠPrime
Ġmutation
Does
Hey
ĠCase
Ġprote
Once
ĠDoes
ropolitan
Dep
fi
person
uit
ĠTor
Ġelected
Ġrely
ĠSO
Ġ112
ĠLib
ĠCrohn
Ġ**(
Ġreferences
Did
Location
bell
Ġarmy
Ġsignature
Ġcrimes
Ġcontradict
two
Ġresolve
Ġvehicles
000000
AME
especially
His
Ġbin
Ġbear
Ġstolen
Ġenemies
ĠStephen
DOCTYPE
ĠSource
ĠNFL
"}](
Ġtargeted
Ġsuspect
Collection
Ġcited
imated
Ġgall
Ġ"(
Conn
Ġsurprise
Ġaluminum
ĠDVD
February
Good
echn
Ġchecked
MM
ĠInit
Ġauthent
inson
ĠMoscow
mes
Ġthrows
ĠED
ĠStudies
auth
Ġinclusion
ropy
Donald
ta
itr
ĠMich
ĠEff
Ġprovider
Nav
ador
izations
Ġcircle
Ġboost
omorphic
Ġneutrino
Sw
Ġbuying
Ġpassage
Container
Ġdirections
Ġlipid
Ġsister
ipher
Ġmasses
Ġforest
ĠTechnology
Further
havior
jango
INCLUD
Ġsyntax
such
Ġdominant
gi
hol
Ġwound
Ġproven
Ġnegot
description
Ġwisdom
Ġanticipated
cover
disc
west
ĠMake
adi
irection
Ġ600
Ġdrain
Ġubiqu
Ġreservoir
>,
Ġbatch
ĠLand
Ġok
Ġvariations
pace
åĲ
ibly
Ġverify
Ġtwenty
Japan
Ġbuttons
Appellant
!âĢĿ
Ġviral
Ġparadigm
Bo
Ġwine
Ġnum
Ġresection
Ġmixing
ĠNetwork
ĠFourier
Ġshrink
ĠScientific
Ġ------------------------------------------------------------------
Ġsulf
Ġfig
Ġinduce
âĢħ
Total
Ġexit
ĠNumber
Ġjson
Ġimprovements
help
Ġpartnership
Ġarrival
Ġvoluntary
ffffffffffffffffffffffffffffffffffffffffffffffffff
ĠRights
Ġplenty
Ġdiscrim
FD
Ġsad
External
when
remove
Only
Ġconsumers
Ġtangent
Ġproximal
ĠLi
Attribute
ĠLincoln
Tab
ĠEst
Ġ{{
Build
Ġcameras
Ġgrabbed
363774430
ĠManagement
Ġclusters
Car
nm
ila
Ġ130
ĠHam
vious
Ġcream
Ġsignatures
DEBUG
Ġmachinery
aid
Ġcab
Ġclassic
lier
Ġfatty
plus
ĠJac
Ġtechnologies
Ġbridge
ĠForce
Ġapartment
&=&
Ġ..
Ġtrib
oman
Ġ$-
Ġreserved
Ġ86
Ġ92
mediated
Ñĭ
Ġ$[
Ġ$|
ĠEvent
))/(
ĠNelson
olds
Ġarbitrary
Ġrobust
Ġresponded
Ġcommitment
ifndef
Ġrobbery
Ġhun
Ġcareful
Ġawareness
Ġreduces
ĠPS
ĠRight
Ġsoci
Ã©s
ĠÃł
Ġrestaurant
Ġcongressional
iac
Ġbomb
Ġlift
orship
Ġheads
Ġmonitor
Ġextraction
Ġmonitored
double
Ġ1993
Ġindirect
Ġ93
Ġhealthcare
Ġchallenging
Ġloaded
Ġphysics
ocutusOfBorg
Ġpour
Ġdisability
Ġattribute
Ġbarrier
Ġfibrin
Section
Ġtrace
rave
Ġthereof
Ġgreatly
Ġsurprised
ologically
Ġmothers
ASE
Ġstaining
ĠNC
Ġchlor
Ġremind
Ġbuildings
Ġcopies
Ġnanoparticles
ectomy
Ġhasn
127
render
ĠConn
Ġscalar
Ġsuspicion
UST
oved
Ġcaps
overs
icing
ĠSign
ĠRock
ĠEll
awn
Ġengage
Ġenabling
typename
Ġsubtle
---|---
conscious
Ġcurriculum
Draw
Ġalive
Ġ"#
ĠStart
loop
Ġminister
1000
800
Pa
Ġplug
Ġhash
Second
Ġelectrode
ĠDallas
CRIPT
Ġpeaceful
<?
High
TM
ĠMiddle
ivid
Ġintake
ĠHurricane
;;;;;;;;;;;;;;;;
lam
xb
Ġreward
ĠSi
uri
thal
ĠDan
aks
territory
Ġexperiencing
Ġmanufacturers
Ġmembranes
,$$
Tool
tmp
Ġheter
Ġlosing
avel
Ġ81
Ġblind
INTER
Ġcuts
LY
Ġwal
ĠCu
ĠBefore
Ġ&=&
eger
Ġhandling
anna
Ġargs
establ
Ġisopropyl
qquad
Ġtom
Ġnerve
osomes
Ġcolors
Core
xff
ĠSC
Ġstabil
ĠMult
Ġboys
Ġteachers
WS
them
Ġyellow
Ġpresents
ĠAgain
Ġunprecedented
ĠVALUES
Ġsaved
ĠEnt
130
Ġbrings
Ġcovering
Ġmetabolism
ÂĢÂ
Ġproducer
eral
env
ando
Ġpursu
Ġhydrogen
Ġthickness
Ġreveal
){\
OG
family
Ġfort
Ġdecay
ĠEconomic
Ġspontaneous
Ġsubstrates
Ġequivalence
./
:=
Ġeast
ĠSix
formed
Ġreviews
ĠEmploy
Server
Custom
Mon
cb
Ġwinter
ĠColl
there
Ġvalve
Ġhistorical
Ġtackle
emperature
PK
Ġstood
oped
Ġcomplet
Ġ})
jrwren
getElementById
Ġlb
Ġ180
ĠBook
ĠJim
ĠCommand
ĠAsian
Ġdivide
Ġhardware
Ġirregular
NAMESPACE
fire
ĠBY
ĠLine
Ġrefers
LD
Ġbanks
Ġdump
âĢ¯
Ġonset
Ġmeal
exists
Ġfiling
ĠOxford
ĠCurrent
Ġpartially
Ġscored
IGN
uan
Ġtheories
Ġnic
Ġlic
Ġisland
)$$
Ġmarketing
Ġproposals
Ġpsychiatric
Ġatmospheric
OB
ille
omp
Ġ((-
ĠMiller
Ġserial
Ġfewer
ĠSquare
Ġbankruptcy
Ġdinner
Ġundert
Ġsuppress
FT
Non
een
ĠMass
]{},
viously
ĠAdv
Ġsomewhere
ĠELISA
ĠmM
Ġbytes
}\\
Ġexecuted
Ġwatched
Ġomitted
AST
bon
vision
imp
ĠAust
iments
ĠRun
Ġwearing
Ġflight
Change
Ġodd
bool
Ġsed
ĠCustom
Ġdeposition
ĠTown
011
Ġanymore
Ġprofit
ĠHTML
ĠNY
master
ĠFM
).$$
ĠCommunity
Ġexecution
ĠSafety
ĠAntonio
Ġgravitational
)|
216
ĠPage
Ġmatching
Ġnumerical
ĠFunction
ĠGlobal
014
ĊĉĠĠĠ
IME
Ġwhilst
ĠPremier
Ġcollateral
Ġatheroscler
ogether
Ġpriority
Ġnewspapers
Ġreceiver
Ġconservative
gment
Menu
erk
aze
published
Ġtutorial
ĠBanach
Ġspoken
Op
uction
Ġfed
employ
Ġexpanded
ycle
Ġbits
imen
udio
Application
Ġbounded
Ġoutdoor
Ġsoluble
ĠProcedure
Ġrefusal
Long
SV
ĠSyria
Ġseeds
NP
inic
orial
ĠPa
ĠPers
Ġconvex
Ġdecedent
.(
Search
elect
req
ĠMot
012
Ġserves
Ġseparately
rees
ĠSL
quis
ocus
Ġvariance
container
GROUP
otropic
Ġischemia
ĠIoT
ĠManchester
istical
avi
ETH
UID
cean
Ġ\"
ĠNext
ĠUser
Ġpassion
Ġpeer
Ġcomputation
Pointer
ĠSydney
Ġdivorce
Ġpermitted
Ġdecreases
ĠmiRNA
Ġwindows
Ġriver
virtual
ĠGovernor
Ġenormous
Ġoutlined
mate
Ġdust
ĠMount
ĠRet
Ġ<-
Ġyards
Ġlocally
Ġbread
ĠAustralian
orted
Ġneural
Ġphotograph
ĠBlue
Graph
Ġwitnesses
mercial
Ġjavax
Ġadequately
Ġentrance
Will
Ã¿
edge
),\
ONE
Ġdiver
Ġpresidential
ĠTeam
250
}"
Ġcod
Ġresolved
Ġwrapped
.\[[@
/_
OUR
total
åħ
Ġfulf
asty
Ġadmission
Ġflash
Ġwalls
Ġepithelium
tw
enth
Ġproud
Ġuniversal
Ġdialogue
University
Ġsan
outer
utable
igin
ĠBest
ervation
OCK
\_\_\_\_\_\_
Mart
PG
look
ĠCur
enders
Ġ<!--
angular
Ġ102
Ġflour
David
ĠGonz
Ġpresumably
Ġcurvature
Ġhydrophobic
ĠLett
ĠPlay
Ġrestrictions
Ġintra
ĠChem
Ġ105
Ġsuppose
upload
ĠFifth
apolis
mapsto
Row
reams
Ġfake
Height
Ġmatches
Ġrib
Ġinhibitors
Ġkinase
phantom
rystal
HC
ĠDist
ĠGa
016
export
Ġmovies
Ġportions
During
TV
Ġicon
Ġgay
**.
1998
Ġcapac
Ġoccurrence
empty
Ġmeasurable
ĠBangladesh
tim
Ġsubgroup
params
Ġcontinuing
Ġinvestors
Ġguarantee
Ġpushed
Ġcheap
Ġprospective
iva
Ġcenters
Ġsimulations
Ġadherence
Ġml
Ġweigh
Ġjet
123
ĠSpain
Ġadjusted
çĽ£çĿ£
FP
dig
tn
will
Ġcache
ĠPL
ieve
Queue
oute
ĠElect
Ġ04
Thread
\_[
Ġphenomenon
ĠImage
Ġgalaxies
xsd
ĠBE
ĠJr
jackson
Ġprohibited
ĠDeputy
ĠPhoenix
stone
Ġcomposed
ĠObs
regulation
'}
Ġfired
angers
Ġcomo
ĠSpace
Ġtalked
åľ¨
ĠBASIS
Ġdiabetic
Ġforum
ĠPay
ĠBob
ional
Ġads
Ġblank
they
11111111
lat
Ġuncertainty
Warning
Ġconstrued
ÑĤÑĮ
Ġhorizon
Ġsen
Ġgrew
Ġ114
Ġshares
Ġinfinite
ascular
Ġmistake
uz
================
usp
ocial
Ġkeys
Ġconcomitant
ĠNintendo
oning
Ġattr
ĠRos
ĠLake
Ġcoast
Ġgeometry
DIR
feed
æĪ
Ġinterf
Pi
sy
Ġcompletion
ĠLocal
Ġunw
ĠÂĹ
Ġdiffraction
dy
mol
Ġdiverse
Project
Ġmetastasis
Ġeducational
Following
Ġundoubtedly
changed
ĠTal
Ġprevention
Ġscrew
102
108
129
Ġthinks
Ġmacro
Prop
hab
what
ĠJoe
margin
Ġrecombinant
nowledge
pres
Ġupload
Ġcontracts
hspace
Ġdb
ĠHig
note
Ġdeclare
}.$$
Ġallegations
Ġ&=
Ġexpectations
Ġtalks
Each
-----------
ĠBas
Ġtiming
Using
Ġfer
fd
ĠHy
ĠUC
Ġvalidity
cul
uct
Ġfa
ĠSQL
Ġ1991
Ġmodul
Ġelsewhere
Ġflexible
molecules
keep
Ġmarker
Ġadvent
Ġcourage
Ġcervical
Ġreleases
Ġadhesion
emptyset
found
matrix
ensity
DM
Ġdefines
Ġpacket
Ġspectral
Several
Ġunstable
Ġ^{
Ġsomehow
Ġdeliber
Ġfailing
Ġspecificity
ĠCharles
Ġsymmetric
versely
Ġspiritual
Equal
Ġnucleotide
Ġfluorescent
Ġjuvenile
priv
Ġ($\
Ġcoli
Ġmultipl
Ġcheese
Ġcrop
Ġwest
Ġorb
ĠRest
}})
Ġincorporated
010
Ġorganized
ARD
Ġrecommendations
ĠResults
_+
Ġ}\
Ġfly
Ġrevolution
ĠHotel
Ġqueries
Ġtwelve
fall
ni
connect
Cache
ĠRT
ĠEp
Ġfaced
offs
western
Ġanchor
dependency
ÏĢ
oured
ĠIBD
Ġquantitative
Ġmaintaining
Ġcollective
Ġdiffusion
ĠOl
Ġarchitecture
Ġforgotten
uals
plot
full
ĠWater
Ġclimb
Ġdeputy
ograms
ho
layer
etary
emble
jects
mons
arding
Ġjur
aws
Ġacet
Ġmodification
Ġfeelings
Ġperturb
Ġbrilliant
Ġuncomfortable
è¿
Ġoc
ĠCast
111
Ġproviders
Ġdenial
Ġpromoter
Ġrestriction
~,
Ġnearby
Ġdispute
Free
final
ĠCross
iously
ĠSciences
Ġphysicians
ĠRoman
uzz
Ġ119
ĠFamily
izz
Ġinfected
Ġderivatives
original
Ġinfectious
years
ãĢģ
Ġsight
ĠHE
acking
}}(\
Reference
ĊĠĠĠĠĠĠĠĠĠĠĠĠĠĠĠĠĠĠĠĠĠĠĠĠĠĠĠĠĠĠĠĠĠĠĠ
padding
Ġaqueous
Ġineffective
ãģĦãģ
ĠPUBLIC
namespace
Ġtoken
uclear
Ġcontrolling
Ġ"""
AE
}]
impl
Ġinfinity
Ġloading
Ġhonor
government
angasek
##################
Ġpartition
Ġexpenses
Ġoperated
Ġtopological
ĠUnivers
ĠRoosevelt
Option
Ġcodes
ĠAction
istence
ervices
conv
profile
Ġconvicted
ĠDescription
Ġfeeding
Ġprocedural
ĠWalker
Ġencompass
dehyde
OO
fill
åŃ
Ġ&&&&
Port
hom
æĸ
Ġsa
Ġ113
Ġmedi
Ġlosses
Ġscholars
Meanwhile
WIDTH
carbon
sys
onom
Ġshoulder
insert
ILL
oop
Ġmamm
Ġgeneric
Ġpersonally
contin
legate
ĠRepresent
ĠKingdom
SQL
acity
Ġchip
Ġgenerating
ĠWITHOUT
Ġmonoclonal
hep
Ãº
enger
images
ailing
Ġcoinc
oxide
Ġglut
Sorry
Ġelucid
pad
ĠAC
ĠDam
Ġadds
ergic
Expand
Ġpulse
Ġconverted
Ñı
eties
ĠSW
Ġreaders
Ġgentle
orph
Ġdat
oline
Ġaden
ĠCentre
iii
Description
Valid
Ġencourage
URE
_[
sip
esc
Ġcleaning
Ġignore
ĠError
Password
Ġbenign
Ġped
Ġgod
ĠPolicy
Ġworker
Ġrepresentations
Order
ĠEnterprise
Ã¢
ĠWil
ĠJava
leton
Ġcurrency
Ġcomprises
Ġutility
Ġproducers
allenge
Ġdiamond
Ġbiopsies
biomolecules
ĠMilwaukee
Ġstrings
ĠTer
Ġuniverse
Ġpredictive
Ġadvertising
Ġaboard
Ġhopefully
ãĥ¢ãĥĩãĥ«ãģ®ãģ¿ãĤŃãĥĥãĥĪãģ¯éĥ¨åĵģãģĮè¶£åĳ³ãģ®ãĥĦãĥ¼ãĥ«ãĤĴä½¿çĶ¨ãģĽãģļãģ«éģ®æĸŃãģĻãĤĭãģĵãģ¨ãģĮåı¯èĥ½ãģªçī¹åĪ¥ãģªãĥ©ãĥ³ãĥĬãĥ¼ãģĮä»ĺå±ŀãģ¨ãģĹãģ¦å®ĮæĪĲåĵģãĤĴå¾ĹãĤĭãģĵãģ¨ãģ¯éĿŀå¸¸ãģ«åŁºæľ¬çļĦãģªãĤ¢ãĤ»ãĥ³ãĥĸãĥªãģ®ãĤ¹ãĤŃãĥ«ãĤĴå¿ħè¦ģãģ¨ãģĻãĤĭãĤŃãĥĥãĥĪ
nes
~\
Ġfasc
Ġbeer
sex
}}}\
ĠAndroid
through
ĠChapter
Store
Ġreasonably
Ġconsisting
ĠMrs
Ġirradiation
Types
ĠFramework
Ġautoimmune
Copy
Ðº
}}}$
ĠCriminal
ĠiPhone
Ġextraordinary
BU
RA
ĊĊĠĠĠĠĠĠĠĠĠĠĠĠĠĠĠ
Ġatoms
Ġgovernments
Ġentering
ĠAssoci
his
uler
ĠPop
ĠCho
Ġjunior
Ġfeaturing
Ġhypoxia
lan
Ġalign
ĠDom
Ġintern
ocks
white
Ġanalyze
ĠRyan
ĊĠĠĠĠĠĠĠĠĠĠĠĠĠĠĠĠ
Ġconsiderable
Ġprotest
Ġbusy
Ġownership
Ġswimming
!\
PN
Ġboot
ington
Ġtrick
ĠJack
November
]"
Ġultrasound
ĠStandard
Ġbeneficial
Ġsky
Address
late
van
Ġtrav
Ġ1970
erty
ologist
Ġeverywhere
Ġcomputing
Ġchemotherapy
Ġclosing
Ġbowel
approved
ĠChakotay
Ġsand
Ġvo
Ġmarks
Ġqualified
Rad
Ġethyl
Ġrural
Ġfoundation
piece
Ġprolonged
ĠGordon
Ġride
Ġovercome
ĊĠĠĠĠĊĠĠĠ
Ġbroadcast
Ã±
ĠPK
116
ĠSudan
ĠRAssian
Ġsurveys
Ġextensively
450
GD
ito
entity
ĠCook
Ġcompens
Ġrush
Ġ1988
Ġsubmit
ĠComput
enna
Ġesc
Ġcontacts
ADVERTISEMENT
nl
è¯
idal
Ġtract
driven
Ġsubmarine
ĠWittgenstein
AK
hard
Ġsending
ati
Ġwaves
Ġboat
ĠValley
Ġcaptured
pred
ĠSher
======
ĠTotal
ĠGar
ĠStan
Ġassignment
Ġdiscussions
ĠApplication
Ġconstitute
Ġsovere
International
Ġcoordination
geqslant
Ġ104
super
Ġbroke
Expression
Mo
ĠMid
Ġrice
Ġteen
Ġreflection
Ġjudicial
Ġregularly
Ġunsigned
Ġdisappoint
Ġthroat
Ġmethamphetamine
Ġmas
imm
Ġstorm
Ġevil
VE
Ġ).
Ġcable
Ġlists
ĠDown
Ġprocessed
parse
Ġlateral
Ġresidues
Ġtomatoes
Ġhemorrhage
dict
Ġtips
Ġgut
ĠWin
}}^{\
Ġimplications
Num
\>
Ġwww
Ġfuck
imately
Ġvice
Ġentries
Ġexplains
Ġexcit
ELL
Ġdrinking
ĠSteve
Ġcenturies
Ġecosystem
Ġasthma
making
Ġhur
ĠChris
Product
ĠExt
Ġlarvae
ĠLagrangian
NT
game
pret
Ġreaching
Ġtongue
Ġscandal
;">
leep
eling
ĠConference
Ġprecision
Ġawarded
+^
MB
hash
ĠRoger
Ġdefeated
Attributes
ĠCharlotte
site
Ġtiny
Ġbon
ĠLtd
Ġtargeting
Ġpreserve
Ġdoctrine
dem
gmail
ucl
009
endor
Thus
Ġviewed
Ġsequencing
Private
Ġborders
'],
hex
Ġconsistently
Ġhabit
<!--
iest
otyp
cher
Ġexclusive
Ġarmed
Ġpasses
Ġkeeps
Ġsuddenly
âī¥
ĠHunter
Ġenlarg
Ġtablespoon
ĠUI
icker
Ġpepper
Ġrising
Ġassays
Ġcultures
ĠOTHER
fect
acet
104
Ġvariants
background
ĠContin
reference
Ġfaces
Ġfolder
Ġlemon
Ġhero
eek
ĠWhether
Ġphysician
Ġunlawful
Ġattitudes
Sign
Ġaer
oug
apply
Ġ117
ĠHal
ĠTra
Ġcompeting
oriented
Ġbargaining
Ġintegers
Ġintelligent
ĠKennedy
Ġsimplicity
pay
Ġtensor
arp
Ġabortion
ĠUnit
backs
Ġexpressions
Ġartery
Ġreb
ĠNBA
Ġtrading
ĠSouthern
Ġmolecule
ĠMilitary
Ġroyal
Ġdendritic
WR
olver
Ġships
commun
redit
Ġsatisfies
underline
Ġcord
urities
ruit
STAT
handle
ĠApache
{$
idx
ĠMap
riz
Ġsimilarly
Ġviolent
Ġdemands
Ġallegedly
ĠÐ¿
Ġdismissed
Ġaccumulation
ĠPuerto
Ġelev
keys
aste
Ġreturning
who
Ġmovements
Ġmutant
ï¿½
Ġseverely
Ġplasmid
Ġnevertheless
ĠNietzsche
Ġà¤
ĠSupport
ĠAut
ĠFar
Ġinterior
Ġalgorithms
Ġcompetitive
ĠValue
Mult
cam
015
Ġnotion
Ġmedication
textbf
Ġnucleus
Ġvotes
Ġkidney
ĠIMPLIED
à¥
Ġfilling
Ġdip
Ġclause
FOR
IX
try
Ġproduces
103
argo
Ġliterally
Ġappropriately
ĠHarvard
âľĵâľĵâľĵâľĵâľĵ
IAL
Ġdates
Ġlin
ĠLow
Ġ1989
ĠAndrew
API
Ġcrystall
Ġhypothetical
Okay
ws
Ġsatur
ĠGi
Ġmonthly
Ġcombine
ĠMinistry
Ġgradient
Parser
Ġpeptides
Ġoriented
ĠOMX
Ġphylogen
npm
Ġmere
Ġ160
ĠTake
Ġarc
}}$,
ĠTrue
Ġhoping
Ġlayout
Ġgang
ĊĠĠĠĠĠĠĠĠĠĠĠĠĠĠĠĠĠĠĠĠ
Ġcomplexes
Ġpoliticians
Ġsoldiers
Ġvillage
July
frequency
kernel
ĠVegas
Ġreceipt
patch
cho
Ġheating
()->
Ġmultip
Level
drop
Ġfusion
Ġdress
adium
Ġspons
Ġsystematic
ĠAnderson
fields
Ġgalaxy
Ġhockey
ifting
Ġrough
Ġorth
Ġunconstitutional
iol
Ġarise
ocker
))/
IGHT
plete
rooms
Entry
Ġcytoplasm
ĠPhilippines
Doc
Ġhorizontal
106
Ġeverybody
watch
Ġwet
ĠGard
oves
Ġcylinder
Ġpertinent
ht
ĠCreate
Ġenables
Ġvalidation
Ġerred
Ġwireless
ĠVari
Ġstruggle
Ġlaptop
olymer
Ġpassengers
Dialog
Json
Vari
Ġcoding
forms
Ġcolour
ymers
Ġpaths
Ġlegislative
Ġflavor
Ġtyrosine
Ð¼
itar
lean
Ġ<=
Ġsnow
Ġresidual
Ġvaccine
Ġdysfunction
DEFAULT
kn
rell
ĠPE
Ġrelating
Ġviolated
Ġaddresses
Ġultimate
Ġdelayed
Ġratios
Ġeggs
press
berries
Ġacceptable
ĠAbout
Ġera
President
Ġchampion
TRIBUT
Ġinstrumental
201803868
ĠMain
Ġtopics
Ġsensors
Ġinterpreted
Ġconstantly
handler
"))
'\
LT
pool
Ġterr
Ġ135
Ġspan
Exec
Ġstreets
ĠMuseum
Perhaps
Ġë
Ġinverse
Ġ(@
Ġoffensive
Ġcategor
Ġidentifying
ĠFaculty
DH
igate
Ġeffectiveness
Ġ1984
Ġcorporation
ĠVladimir
Ġwake
ĠThank
Ġaltered
ĠPres
Ġjoy
Ġcloud
Ġworldwide
Ġaffects
Ġintegrity
Ġparas
Ġfalling
Dir
Ġeff
Ġstuck
ĠPoint
formance
ĠYear
ĠPatent
Ġneurological
ĠLIMITED
Ġunfortunate
Match
Ġstudying
Ġequality
being
}({\
Ġbounds
ulin
Ġinterference
Ġsomebody
ova
Google
Ro
Sur
reh
channel
uming
ructure
Ġframes
Ġracial
Ġrhetoric
bibr
Ġ140
ĠDisc
ĠKelly
Ġdecent
Ġ108
ÂĹ
atically
Ġbic
pton
ĠIslamic
Ġslight
Ġclosest
Ġcampus
Ġtrends
Ġtouched
ĠTrilby
ĠFrancis
iprofloxacin
ĠAh
Ġlease
Ġbless
Ġfluorescence
Ġtape
Ġturb
elt
ĠDirect
ĠLead
ĊĠĠĠĠĠĠĠĠĠĠĠĠĠĠĠĠĠĠĠĠĠĠĠĠĠ
Ġpixel
lipse
Ġmoisture
gan
hot
address
Ġsmile
Ġdrag
Enc
Ġarrangement
bold
ĠPur
="../
spect
pmatrix
Ġaccessible
journal
Ġfatigue
ACKGROUND
tree
ĠMah
Ġimmunity
Ġabsent
missible
Ġimproper
Ġmounted
Ġcomprising
Ġparking
Ġstrictly
Ġvegetables
Come
vm
Ġglo
Ġinfl
Instead
Ġlawmakers
Ġresponsibilities
ĠIntelligence
Ġassemblies
wall
ĠCP
Ġrape
ĠHon
Ġmodules
Ġlabels
Mesh
iy
ĠElement
ĠIndex
Ġconcrete
ĠBruce
ĠLGBT
Ġinfrared
NET
ĠCost
Ġ-------
ĠTurn
117
Ġsurge
Ġextrem
Ġsuspected
Ġauthorized
ĠSeries
Ġengineering
Ġeosinoph
VC
fin
git
uis
environment
analysis
ĠDM
Ġnotation
Ġleaf
derived
ishes
Ġprofessor
Ġdisregard
Ġmicrobial
ea
aser
agger
ĠBa
Ġprogramming
Ġprotective
Ġmeetings
ĠCarl
Ġdebug
Mc
javascript
ĠSa
ĠDar
ĠDid
ĠNF
Ġdiscrete
Ġangi
Ġenzymes
Ġdestruction
Ġischemic
ĠNASA
ĠBuffalo
Ġelectrophoresis
1008476
CODE
Ġchr
Ġvarying
Look
anth
Ġbands
acon
Ġranging
Ġenjoyed
Ġinevitable
ĠBuddh
Ġ[âĢ¦]
Ġenriched
ertificate
Ġcondemn
Http
ĠĊĠĠĠĠĠĠĠ
Ġfung
Ġvital
Ġperf
Ġ106
uality
Ġ125
Ġindication
Ġautomatic
Ġodds
RP
rect
black
SET
Prefix
UPDATE
OF
xt
Ġmesh
ĠAge
ĠRequ
ĠProb
bullet
Ġnations
ĠThough
ĠFL
Ġjail
comment
Ġdestroyed
ĠÐ²
Params
Ġreversed
Ġfacilitate
ĠReference
language
orse
ĠGre
]{}]{}
Ġfrequencies
Ġcoordinate
Ġoxide
Reader
oned
Ġlunch
osomal
Ġproceeding
Ġappreciate
Ġflesh
Ġglobally
adjusted
Ġspherical
Ġechocardi
Ste
email
ĠChampionship
Ġdifficulties
Ġlimitation
Ġmaximal
Ġdrawing
Ġgorgeous
aryngeal
ĠOrthodox
cond
inct
ĠAB
irus
ĠConsequently
Engine
Ġluxury
Title
gp
install
ĠĠĠĠĠĠĠĠĠĠĠĠĠĠĠĠĠĠĠĠĠĠĠĠĠĠĠĠĠ
iano
Ġinvestigations
Ġdamaged
,$
Main
[$
\}$
irth
ĠMiss
ĠPass
ĊĠĠĠĠĠĠĠĠĠĠĠĠĠĠĠĠĠĠĠĠĠĠĠĠĠĠĠĠĠĠĠĠĠĠĠĠĠĠĠĠĠĠĠĠĠĠĠĠĠĠĠĠĠĠĠĠĠĠĠĠĠĠĠĠĠĠĠĠĠĠ
Ġending
256
Ġreflected
Ġfunny
Ġangular
represent
ĠChairman
Ġformulas
ĠANOVA
Ġsacrifice
dp
uated
Ġpas
sts
adder
ĠMir
Ġrub
ogens
Ġteeth
Ġearned
energy
Ġsupers
ĠPlaintiffs
April
Ġdosage
Ġadministrator
Ġerroneous
gov
Ġbunch
Ġda
Ġ$\{
amente
.).
HD
PRE
dest
each
Ġ(%)
ĠExper
ĠDoctor
THE
ĠfibM
Ġappointed
ï»¿
119
ĠCF
Ġrose
ennis
diff
Ġspecify
Ġnormalized
Ġchecking
ĠHepat
Ġassembled
smallcaps
Ġteaspoons
ĠAbbVie
.),
SK
SER
pgen
Ġbid
ĠLar
Ġsees
Ġages
criptor
Ġretain
Ġsubjected
cmd
Ġip
Ġ118
ĠFA
illary
Ġdecor
Ġcovers
Ġestimation
Ġpromising
Ġobjection
docs
Ġsampled
Ġprosper
ĠJenkins
Ġharassment
Auth
Has
dated
oving
Ġcycles
Impl
ĠHampshire
lers
Ġdegener
ĠNode
}}}}
trl
Ġ109
token
Ġshopping
Ġhesit
*(-
NE
cache
lower
|^
iser
Ġstone
ĠWild
Ġscales
Ġattitude
Ġbreach
ViewController
Ġdesigns
^)
roy
Ġprofessionals
ĠAgency
Ġcryptocur
Ġquestionnaires
ĠMelbourne
Ġdiaphragm
>.
}%
istance
ĠDem
Ġpsychological
ogenous
Ġaudio
Miss
pb
ĠIC
uration
ologists
Ġphenotype
Ġcake
Ġ{@
Ġovernight
Ġrepeatedly
Ġtolerance
Ġna
Ġ132
ĠOct
1997
genic
delete
Ġcreative
Ġugly
Ġcommerce
Ġdozens
Ġprevalent
Ġretrieve
ĠMedicaid
ulator
fileID
Ġlesion
Ġeliminate
Ġconjug
!)
ĠSon
Ġdefensive
United
Ġvoted
trivial
Ġsiblings
ãĤŃãĥ£ãĥ©ãĤ¯ãĤ¿ãĥ¼ãĥĩãĤ¶ãĤ¤ãĥ³
methyl
usc
ĠSn
Ġalignment
Ġscoring
Ġ1985
Ġpreventing
Ġvoting
gex
Ġexplos
ĠMitchell
Ġseventh
Ġoverseas
Ġreflux
Ġconvey
ĠLove
cli
ĠWeek
ugg
ĠStudy
ĠManhattan
Ġbull
Ġmom
Ġru
encia
ĠÂ°
aptic
Iterator
Ġellip
Ġpylori
Ġcompassion
ensitivity
ãģ£ãģ
JS
tar
ĊĊĠĠĠĠĠĠĠĠĠĠĠĠĠĠĠĠĠĠĠĠĠĠĠĠĠĠĠĠĠĠĠĠĠĠĠĠĠĠĠĠĠĠ
Ġtone
ĠRa
Ġharvest
Del
TG
ante
"));
Ġfalls
tikz
Ġvapor
ĠAlternatively
ĠBeijing
atopoietic
ĠMediterranean
Ġtun
olly
antly
Ġscaling
Ġdenotes
Ġrooms
inch
Ġtender
ĠGR
Ġ103
Ġinjected
Ġforever
Ġexhibited
ĠSingh
session
onomic
Ġdeals
ĠLuc
Ġphases
144
Ġqueue
Ġphysically
Ġaims
ĠNorwegian
Make
border
Ġlys
notation
Ġrandomly
CHAR
ĠSurgery
Ġtact
Ġboss
ami
Ġshorter
Ġgenerator
component
Ġlaid
Ġutilized
Have
Ġcraft
Ġpython
Ġgiant
ĠFair
ĠDR
Ġimper
away
118
Ġstrange
Grid
primary
Ġstakeholders
~)
documentclass
Ġli
Ġlean
Ġadmit
Ġrabbit
Ġdebris
Ġmystery
ĠOrleans
LV
Position
supp
imon
ĠFC
ĠFBI
aping
Ġputs
Ġpropose
Ġinevitably
Support
opes
ĠMun
Ġ''
Ġroots
echo
Module
Ġbatteries
las
uid
yard
Â½
acker
Ġfriendly
Ġsentencing
ãĤ¢ãĥĭãĥ¡
olving
Ġfavorable
Editor
Ġtalent
Ġligand
Ġfraudulent
ĠKaepernick
Aut
nn
iffer
Ġincorrect
ĠExample
Ġskill
Ġinserted
210
Dig
Ġjs
Ġcontin
Ġ[$
Ġdisabled
}}$.
Ġfocusing
Background
Ġreimburs
ĠFestival
Write
inates
arma
0018
115
USE
WD
deg
send
sample
olk
ĠRA
ĠJSON
figure
ĠIntroduction
Ġlabeled
Activity
Ġtonight
plugins
Ġhorrible
Ant
zi
oups
Ġhide
ĠBal
ĠRather
aki
Ġkg
Ġtea
Hello
NM
ĠSA
ĠCOL
Ġmodeling
(){
Ġsubsid
Ġkilomet
Ġinfarction
Ġdisappeared
ĠTurkish
ĠâĻª"
Ġobstacles
VP
bp
Ġmat
ĠProp
ĠDB
closure
Ġgrass
Ġattributed
Ġoccurring
patient
="../../../../
Created
Ġconstr
ĠHard
ĠRub
Three
Ġsilver
Western
Ġbeneath
2040620719882822
Ġsystemic
Ġobtaining
okes
Ġaffecting
aska
Show
Ġinspired
Ġtemporal
ĠBrooklyn
atile
Ġfits
Ġclamp
Ġyeah
255
Ġtexture
Ġobstruction
orandum
Ġnodded
pragma
Ġdescribing
Ġlights
apsed
Ca
Ãª
Ġstations
Ġprojection
Ġprocessor
137
Ġdeeply
Ġholidays
ĠSwedish
ĠZimbabwe
Ġperspectives
custom
uber
Ġpa
Ġ01
ĠProcess
Ġaccurately
Ġrarely
050
ĠMatt
1996
Ġabstract
Ġindices
shift
blue
Ġdefinitions
Edit
Ġthyroid
Names
Tree
Ġ('
ĠTa
Ġfactory
Ġexecute
[[
gin
pur
ĠRound
Ġattended
oking
Ġantigen
ĠUnfortunately
Ġtransitions
ĠProgramm
uce
abstract
Ġ\+
Ġdisput
Stack
Ġdonor
Ġparse
Ġhardly
eh
-----------------------------------------------------
idity
ĠKen
Ġ::
attribute
Ġsmoke
Ġpotatoes
orable
Ġgained
ĠSym
Ġbyte
Ġleuk
Ġappend
Ġvariant
Ġinsight
Ġsalary
UNT
days
orous
Ġhy
Ġpanels
rophy
ĠMurphy
UV
~*
replace
ĠThird
Ġmanual
ĠIsraeli
hour
Ġtall
Ġele
ĠSat
anti
ĠServer
Ġrecovered
Ġshelter
Ġpenalties
bind
ario
ĠRich
riving
Ġmanufacturer
Ġ![
ummy
Ġshots
because
ĠClearly
Ġlemma
ĠLorentz
Ġunacceptable
1744806918781259
700
izable
Ġroof
rench
Expr
Ġexpectation
ĠTHIS
Ġignored
bn
etter
Ġ+\
Ġdevelopers
grid
Ġreadily
ĠBrad
Ġsoccer
Ġdessert
ĠAIDS
ĠRowBox
Ġintimid
,{\
may
Ġbenz
Ġactor
Ġantagon
Ġmuscles
Ġprosecutor
Entity
>();
Author
omial
ĠLim
Ġtracking
held
IFLA
ĠNATO
Ġincent
Ġhang
109
also
ĠÂ»
Ġcorrelations
Ġarranged
ĠAsh
Ġrid
ocon
ĠĠĠĠĠĠĠĠĠĠĠĠĠĠĠĠĠĠĠĠĠĠĠĠĠĠĠĠĠĠĠĠĠ
Ġamended
Ġblow
Ġsnap
Ġdeviations
ĠarXiv
Ġundesirable
.*]{}
GP
menu
Ġ,\
amd
ĠTri
ĠGL
Ġelectrons
Express
rank
widget
ĠHay
eway
Ġtransportation
Ġlapar
Ġstimulated
Ġovarian
oglobin
Insert
zy
Ġreject
amil
Ġplates
Ġfibers
Access
Jo
round
Ġtel
illy
ĠTax
Ġunlike
ĠProduct
Ġartist
ĠPolit
Ġaugment
ĠTbsp
Ġpreparations
Ġquarters
binding
čĊĠĠĠĠ
Ġble
Ġcancel
Ġanswered
Ġvisits
Ġfitness
WE
Ïģ
ĠME
Ġ\#
ogram
Ġadopt
Ġ128
Ġslices
haus
||||
Ġattractive
Ġvelocities
TrcFlag
Ġschizophren
âĢĭâĢĭâĢĭâĢĭâĢĭâĢĭâĢĭâĢĭâĢĭâĢĭâĢĭâĢĭ
Ġpm
ĠHa
ensing
raham
Ġcombat
Ġsearching
Ġpeaks
bolic
Ġmock
ĠAz
ĠBell
_{-
appy
Ġcombinations
Ġchildhood
ĠDesign
Ġstromal
rencies
Ġcombustion
Ġanniversary
Ġdescriptions
045
Font
GM
{$\
Ġ134
ĠHistory
ĠLev
Ġdoors
CRE
Ġinstallation
Ġhopes
bottleneck
čĊĉĉĉĉ
ĠML
Ġdehydr
Ġsole
Ġphones
ĠGrant
ĠNorthern
Ġknife
Ġadapted
Ġprojections
Ġchaos
Ġchunks
Ġnod
acher
Ġnobody
Ġdenying
Hi
worth
Ġnit
Ġquot
ĊĊĊĊĊ
Ġexciting
Ġillustrated
ĠGuard
Ġinequalities
Ġhorses
Ġamygd
Ġincurred
)}*+
Ġredistribute
ĠAlzheimer
ĠGlasgow
fake
Ġsaving
omed
ĠFlo
Ġhadn
olding
Ġtransparent
Ġconstants
Ġpublicly
240
Ġdeclined
ĠEnvironment
ä¸Ģ
Ġdestination
DER
Ġum
Ġwing
ĠMeg
Ġsizeof
Ġchoosing
Welcome
@"
Ġsink
arse
iley
Ġ1983
Ġnonlinear
Users
Ġreflects
Ġauxiliary
NG
Ġinline
ĠThrough
Ġproph
ĠTNF
Ġtrig
Ġdipl
ĠReact
Ġcomputers
Ġblocked
Ġprogressive
licenses
Equals
Ġisolation
Ġprotesters
Ġsimultaneous
ĠPrimary
zed
ìĿ
Ġ$.
ĠMC
resource
ĠBC
ialize
Ġregulated
shell
Ã©e
Ġrendered
MAX
Values
Ġdescending
-*
Ang
ĠMen
ĠRelations
Ġsidew
lysis
ĠCraig
ĠCleveland
ĠNetflix
ĠCongressional
Advertisement
ĠMontgomery
ĠSacramento
save
Ġ"/
Ġshapes
Ġpermissions
Ġmini
ORY
Ġvisited
Ġsuspension
===========
Ġsupplied
Ġrip
Ġbab
ĠNA
ĠGreek
Ġjunction
ĊĠĠĠĠĠĠĠĠĠĠĠĠĠĠĠĠĠĠĠĠĠĠĠĠĠĠĠĠĠĠĠĠĠĠĠĠĠĠĠ
Ġvaried
ounce
Ġprinting
BEGIN
Ġpockets
Ġfermion
ĠUntil
ĠReuters
FE
uer
rent
isp
Ġhits
stage
ĠPI
angel
Ġ107
ometer
Ġaggressive
Ġdietary
Ġsurvive
Ġblo
ĠSK
ĠBio
Ġkm
Ġkit
Ġdifferently
Ġprogramme
ĠWithout
ĠQuant
Ġswitching
circle
ĠHousing
Ġantioxidant
Ġroutinely
ĠHausdorff
âĢ¦âĢ¦âĢ¦âĢ¦âĢ¦âĢ¦âĢ¦âĢ¦âĢ¦âĢ¦âĢ¦âĢ¦âĢ¦âĢ¦âĢ¦âĢ¦âĢ¦âĢ¦âĢ¦âĢ¦âĢ¦âĢ¦âĢ¦âĢ¦âĢ¦âĢ¦âĢ¦âĢ¦âĢ¦
/.
Î¸
arious
ĠHave
ĊĉĠ
Ġbaseball
ĠSystems
Ġimmigration
Ġsupplies
Task
Ġdoses
Ġ07
}}}(
Ġbonds
respond
Ġbeside
Ġcontaminated
Ġemerge
ĠPoisson
Ġdehydrogenase
SF
Ġhat
ĠDue
andy
ĠEC
ĠKat
ikes
Ġelectrodes
Ġmagic
Ġbird
rose
ĠMess
izers
phen
âĪŀ
Ġdisplays
Ġfestival
aque
Ġoste
screen
ĠIndust
Ġcomplaints
ĠAdditional
ĠImages
Ġconcepts
VvCYP
cadherin
?)
Ġsatisfaction
Ġreasoning
ĠDefense
Ġinfluenced
ĠLearning
ILE
éĢ
Ġ133
Ġperception
1995
114
short
ĠPlace
Parameter
Ġwedding
ĠPrior
âĢĻ.
Stud
Ġconfident
Ġparticipated
Ġraising
Ġtoxicity
Sometimes
Ġdropping
ĠFreedom
Rule
isen
Ġattempting
Ġquantities
Ġwondering
green
Ġundefined
126
ĠHead
Ġblocking
Ġpneum
Ġfertil
Ġbubble
Ġtokens
ĠHitler
Ġamplitudes
Ġvoluntarily
$).
eno
Ġlying
irk
Ġrs
antic
aware
medi
Ġpromoting
Ġmellitus
oxobutanoate
Bytes
km
Ġsew
Ġbatt
ĠÂ¶
Ġrandomized
Ġweights
Ġinputs
Ġcotton
encephal
Ġcolleges
^^^^^
NdrFcShort
)_{
DK
vy
ĠmL
Ġmath
Ġease
Ġanal
ĠGames
activity
Ġbrush
rett
ĠProperty
xc
season
ĠDocument
Ġshipping
Ġtransmitted
Ġtransactions
135
minimal
Ġcultured
Ġeryth
Ġolfactory
itoneal
Ġhungry
clinical
Ġexponent
Ġendeav
four
xl
Ġions
Ġinduces
oping
Ġ\|
Ġbeliefs
emale
ĠWat
Ġ1987
parison
,...,
Ġuniquely
rig
Ġregarded
Ġsilicon
Ġbizarre
ĠTherapy
Ġphosphorylated
'+
utils
ĠMaster
ĠResource
Ġdeeper
Ġtreating
à¯į
Ġmelanoma
}'
Ġbaking
ifiers
ĠDiv
ĠOUT
Ġresidence
131
Ġdenoted
TABLE
Ġcub
Ġfif
iden
ĠFeb
Ġmembership
Ġangry
queue
Ġwrites
Ġmountain
ĠSanta
mysql
arcoma
Ġtoilet
ĠWagner
Ġmerchandise
Ġhelicopter
Ġpill
area
Ġenact
Ġundergo
Ġprinted
Document
Ġhint
agent
ĠGC
Ġpreference
Ġparticipating
Ġpersu
Ġharder
Ġduplic
Ġminority
Ġresistant
Î¹Î
ĠLiberal
Ġgrocery
enum
Ġ\-
Ġhealing
athy
Ġinvited
Ġrecipes
HTML
Ġassociations
Ġcinnamon
ĠSF
Ġstent
aya
Ġcontest
Ġinterfer
Ġ1986
ĠComb
ĠBelfast
tk
Ġpocket
ĠSir
Ġunexpected
Ġintense
Ġlimiting
Ġdimin
coll
rical
}[
Ġtur
aga
ĠFisher
Ġtransit
riting
Ġeveryday
Ġfract
Ġadjustment
pntd
ĠðŁ
Ġcarbohydr
Ġsupernat
ĠParticipants
Ġundisputed
vv
Ġcry
phosph
Ġclosure
ĠChild
prob
Ġfounded
Ġpredictions
ĠExpression
enable
Ġdur
ĠJun
Ġdefect
Ġselective
connected
Ġprospect
sensors
[\*](#
ĠVillage
999999
unnumbered
Her
bc
Ġgest
opol
Ġ",
Ġpray
etheless
ilibrium
ĠJeremy
ĠQUESTION
lay
uity
aco
ĠPriv
Ġsecured
Example
Ġsouthern
Ġliked
youtube
ĠâĤ¬
Ġcredentials
=>
Gen
PF
Ġloud
ĠSort
ĠFat
113
Ġreveals
ĠNavy
MAP
Ġtension
standard
admin
--------
Ġvariability
domain
Ġmatched
Ġreconstruction
unsigned
Ġconjecture
Ġalumni
Ġentanglement
ĠINTRODUCTION
Ð¿Ð¿Ð¿Ð¿Ð¿Ð¿Ð¿Ð¿Ð¿Ð¿Ð¿Ð¿Ð¿Ð¿Ð¿Ð¿Ð¿Ð¿Ð¿Ð¿
hang
ols
ĠAward
ĠPython
Ġune
Ġdefend
124
Ġcoat
Ġequipped
PER
joint
ĠPack
ĠGOP
icket
Ġrifle
ĠTODO
ĠStewart
ãĤ·ãĥ
/-
Ver
je
utors
Ġbearing
Ġanger
ĠLA
ĠOw
Ġexport
133
Ġguest
ĠUnless
reme
Ġtemp
Ġinterviews
ĠTivahr
don
ĠFall
Ġ1981
apper
Ġenvironments
ĠSpe
Ġsuspended
Ġmagnet
Ġdesperate
Ġheritage
Ġextinction
AddRtAttr
âĸĶâĸĶâĸĶâĸĶâĸĶâĸĶâĸĶâĸĶâĸĶâĸĶâĸĶâĸĶâĸĶâĸĶâĸĶâĸĶâĸĶâĸĶâĸĶâĸĶâĸĶâĸĶâĸĶâĸĶ
=-
aire
oco
ĠES
ĠPrice
Ġultr
Ġphilosophy
execute
Maybe
:</
Gastroenterology
Ġtied
Ġdefining
Ġregulate
Ġestablishing
Common
Ġpromotion
Unit
ĠAccess
Ġmirror
00978
Ġpermeability
Ġtaxpayer
ĠSeyfert
320
Rect
dm
dash
Ãł
ĠPot
overrightarrow
Ġbehaviors
Ġdiscount
Ġengagement
auto
ĠSTAT
Ġpending
aron
Ġthirty
Ġnamespace
Ġplacement
Ġasset
Ġblame
Ġprobable
ĠInterestingly
pulse
Ġexterior
Ġrocks
ĠChristopher
Ġlongevity
ASHINGTON
gly
vn
inv
onomy
Ġdent
irl
words
Ġpointer
Ġimplicit
Ġolig
Layer
ele
Ġren
stand
ĠImp
ĠInternal
ĠAppl
Ġplacebo
clear
btn
Ġtimely
Ġgarbage
Ġproportions
ĠPharmaceuticals
ç±»åŀĭ
-$
kind
mal
eled
ados
Ġconcur
agment
ĠNE
asted
Ġintens
obacter
Ġendoscopy
Ġbike
Ġcookies
Ġproportional
Ġpremium
Ġtired
aton
rob
Ġgraft
Ġimpaired
Ġarising
Ġentities
Step
entially
Ġphysiological
Ġprolifer
ĠszÃ³tag
Ġvulnerability
Ġsubscriber
ButterKnifeProcessor
member
Ġtill
Ġwages
aro
agic
Ġspray
Ġ{"
ATED
Ġextending
Christ
Ġ>>
Ġpushing
BT
ĠMP
ĠOs
ĠĠĠĠĠĠĠĠĠĠĠĠĠĠĠĠĠĠĠĠĠĠĠĠĠĠĠĠĠĠĠĠĠĠ
Ġjustify
ools
Ġbills
Ġguns
Ġpotent
Ġfantasy
Ġseizure
Session
Take
čĊĠĠĠĠĠĠĠĠĠĠĠĠĠĠĠ
Ġtweet
Ġhex
Ġtrim
0164222
Ġdiarrhea
Symbiodinium
jud
works
è¡
Ġpounds
Ġsphere
017
Ġdeveloper
Ġguests
party
Ġconvincing
Eff
Head
Ġdating
ĠTitle
arts
Ġseats
Ġ02
achine
Ġcarriers
echan
Ġexpressing
Ġthreatened
[**
Ġdies
article
ĠStill
Ġtransient
():
Ġchallenged
ĠGraph
Ġparticipant
cycl
ĠBeach
clusions
September
olerance
Internet
Ġgenuinely
global
åĬ
atar
ĠSem
---------
Ġresident
Ġbreaks
Ġclinic
Ġlikes
VM
move
ancies
Ġacceptance
Ġmethylation
Facebook
ĠSamsung
Ġexchanges
Ġantigens
Met
NL
atum
three
ĠHas
Ġshoes
ĠRay
ĠOp
asts
Ġsupporters
Methods
Ġsurvived
Ġemploys
225
shall
byte
Ġaffordable
Mutex
puppet
ëĭ¤
Ġsurvivors
Ġchromatography
({{\
Both
|_{
ogs
Ġresidential
Ġagon
Ġconserved
Ġsolved
ãĥ³
Ġbarriers
Ġmeaningful
NOW
rated
anal
ptic
Ġconnecting
airo
Sequence
ĠMathematics
Ġcoherent
Ġalphabet
ĠGitHub
ĠCaribbean
mb
tor
Ġorbit
sey
Ġdecimal
},$$
Convert
Ġworried
ĠHamiltonian
Ġelectricity
Ġbelongs
)</
Lim
Î´
Ġlect
Ġimpressive
Ġdemonstrates
Ġconsistency
eatures
Ġconvergence
Ġpricing
ĠGospel
StaticResource
ĠCommerce
XML
tp
Ġmsg
udo
Ġleak
Ġseeks
Ġretro
Ġwelcomed
ĠLebanon
BF
HO
bus
çĶ
ĊĠĠĠĠĠĠĠĠĠĠĠĠĠĠĠĠĠĠĠĠĠĠĠĠĠĠĠĠĠĠĠĠĠĠĠĠĠĠĠĠĠĠĠĠĠĠĠĠĠĠĠĠĠĠĠĠĠĠĠĠĠĠĠĠĠĠĠĠĠĠĠĠĠĠĠĠĠĠĠĠĠĠĠĠĠĠĠĠĠĠĠĠĠĠĠĠĠĠĠĠĠĠĠĠĠ
Ġmood
ĠTM
ensus
Ġtries
Ġshortly
Import
igenous
Ġenvelope
ernandez
Ġmixtures
Ġcounterparts
ĠMitkanos
oro
Ġcontention
1991
Ġattenu
amsmath
Ġrestrict
desc
Ġconstitu
Ġinhibited
mM
mask
sen
seq
Ġarrive
oxic
Ġreferring
Ġneighbors
Ġintracellular
Ġassistant
Ġprotocols
Ġappreciated
Ġinstitutional
Utils
Ġmargins
ĠThailand
Ġpolyps
Ġintravenous
Ġpotassium
ISCUSSION
MAT
Ġgross
Ġreporter
Ġacted
}{-
Ġsentenced
++;
Ã³n
ĠRadio
Based
random
Ġwage
Ġpit
Ġmilit
Ġexpense
))?
Ġprescribed
Ġstimulus
01758
ĠPractice
Pos
Ġpap
Ġdense
Ġbeach
Ġorange
ĠInf
ugs
Ġblot
Ġdistances
transform
Member
good
ĠMethod
ĠFarm
ĠHim
ĠGreg
phenyl
Ġaging
Ġ_<
Ġreliability
Ġmediated
Ġparam
Ġrestore
Ġemerging
BASE
Ġwashed
Analysis
Court
rceil
Ġexacerb
Ġcorpus
ijerph
TF
ĠCC
Ġsteal
oser
Ġ$('
qual
018
0002
Ġfunded
Ġdocumented
ĠÑģ
Ġfitting
ĠLibrary
phys
Ġedit
Ġpleas
Ġfarmers
Ġdairy
protein
Wednesday
Ġmunicipality
ĠAmsterdam
Ġhook
etc
Ġestablishment
ynth
)\,
Ġdeny
ymmetry
Ġexisted
ĠOverall
General
Ġexcessive
hh
Ð´
Ġtags
ĠSoc
ĠCam
ĠMg
ĠFull
ĠWay
ĠEs
ĠĠĠĠĠĠĠĠĠĠĠĠĠĠĠĠĠĠĠĠĠĠĠĠĠĠĠĠĠĠ
Ġcharacterization
Ġcallback
Ġloans
ĠScale
Ġprofits
ĠCLASS
Ġounces
ĠSusan
Ġplausible
315
Body
had
ĠâĢĻ
Ġbuck
Ġthrown
ĠCAN
Ġquote
health
Ġemphasis
Ġinitiated
Ġconstitution
Found
cence
Ġtends
ĠHop
Ġ1960
1993
Ġdiscloses
rupted
Ġdebtor
Ġcytokines
threshold
ĠFALSE
Sk
bas
ĠTerm
ĠGall
Ġreset
Ġ[],
iah
Ġdefects
Ġbelie
Ġlistening
Ġdisclosure
Ġpuls
Na
SY
fc
mates
Ġcere
omics
ĠLy
setlength
Ġacknowledge
Ġcooked
Ġvisitors
LINK
Ġtariff
Ġstunning
Ġintentions
brousch
Ġsupervised
ScoreDistribution
mus
inth
itter
ĠSS
Ġanybody
202
Ġweekly
!!!
Ġcopper
determ
ĠTurkey
np
Ġ145
Ġconfer
Ġsuicide
Ġenrolled
132
ĠAdam
Ġcorporations
Upload
ĠSERVICES
itarian
Ġmad
Ġ"<
ĠTan
1990
Ġequity
Ġreceives
llllllllllll
Ġ136
ĠDu
Ġgenerations
Ġcoating
shop
Ġtopology
Ġcomputational
Ġbirths
Ġbriefly
ĠArticle
Ġmotions
ĠHillary
Ġorchest
Ġtrademark
ĠMalaysia
FB
_,
Îµ
ÎĶ
Ġtech
oupl
igma
Ġpresenting
Ġdetermines
Cap
čĊĠĠĠĠĠĠĠĠĠ
Ġsir
Ġ(âĪĴ
atever
ĠMas
oga
ERR
Ġcapabilities
Ġsettled
Ġstriking
Ġvolunteers
Ġflexibility
Ġscanning
Ġtertiary
Ġmurine
ĠDakota
Ġpermanently
Ptr
Root
Ġmerc
Ġproposition
Ġ09
Ġplugin
ĉĉĉĉ
Ġapps
âĢĿ)
Ġbron
}{{\
vertical
Ġmanaging
cost
lbrack
ä¹
urg
Ġrating
ĠĠĠĠĠĠĠĠĠĠĠĠĠĠĠĠĠĠĠĠĠĠĠĠĠĠĠĠĠĠĠĠĠĠĠ
Ġdesignated
Interface
Ġnegligence
Ġsubstitute
FROM
Ġlazy
Ġgotta
ĠHangul
ĠUrban
Conflict
Fore
á»
Ġsle
ĠDer
Ġmanually
ĠĠĠĠĠĠĠĠĠĠĠĠĠĠĠĠĠĠĠĠĠĠĠĠĠĠĠĠĠĠĠĠ
register
Ġ$${\
ĠManager
Ġpositively
Ġvirtually
Save
Ġbases
Ġbother
ĠSports
ĠCNN
Ġconstraint
ĠHo
Ġplots
Ġfunctionality
Ġdefeat
rowth
ãģ«
Ġacknowledged
interface
Additional
Ġthreats
Ġduct
Ġsuggestions
ĠSpring
Ġgarlic
aeda
Ġbundles
ographer
Ġoutrage
Ġambiguous
aintenance
iat
ago
Ġrepresentatives
printf
println
sun
Ġcow
Ġtherein
ĊĊĠĠĠĠ
}$-
letter
Ġhumanity
Ġedition
Ġheading
ISH
Ġorgans
Ġcontroversial
KEY
Ġcriticism
Ġlogarith
Ġmisleading
ĠCollaboration
Ġaneurys
Template
made
Ġ^{\
ĠTour
ready
Ġsynthetic
$]{}
900
Cost
Ġcul
Ġbra
Ġms
Ġ137
ĠĠĠĠĠĠĠĠĠĠĠĠĠĠĠĠĠĠĠĠĠĠĠĠĠĠĠĠĠĠĠ
Ġ123
ãģ§
Release
Ġstayed
ĠHoly
Ġelegant
ĠCitiz
Ġcooperate
Ġwhatsoever
Ġfeasibility
apeutic
instance
ulg
ĠFord
Ġchampionship
âĢĻ,
Ġ800
Ġevaluating
Changed
flags
Ġpersistent
subseteq
ĠALL
Ġremarkable
Ġmotivation
Ġcollaboration
ĠMargaret
44444444
%%
RES
Ġexclude
ĠTen
ĠLC
ĠKr
Ġintersection
ĠYeah
lessly
Ġmuseum
VI
cases
Ġatom
Inc
Ġpersonality
Ġcorruption
ĠShould
record
ĠSea
-----------------------------------------------
ĠdÃ©
etime
ĠSearch
ĠLook
Ġweird
verted
Ġprevented
Ġconstructor
password
Ġenhancement
Ġlubric
ĠImperial
ĠAadhaar
Ġarrhythm
Ġamyloid
isa
ĠSav
013
Ġrelies
atories
039
Parent
zone
}>
ĠFri
Ġcommands
expr
Ġclaiming
Ġpublications
ĠPhot
Ġvaccination
opathy
Ġticket
coholic
Ġimplantation
AAAAAAAAAAAAAAAAAAAAAAAAAAAAAAAAAAAAAAAAAAAAAAAAAAAAAAAAAAAAABBBBBBBBBBBBBCCCCCCCCCCCCCCCCCDDDDDDDDDDDDDDDDDDDDDDDDEEEEEEEEEEEEEEEEEEEEEEEEEEEEEEEEEEEEEEEEEEEEEEEEEEEEFFFFFFGGGGGGGGGGGGGGGGGGGGHHHHHHHHHHHHHHHHHHHHIIIIIIIIIIIIIIIIIIIIIIIIIIIIIIIIIIIJJJJJJKKKKKKKKKKKKKKLLLLLLLLLLLLLLLLLLLLLLLLLLMMMMMMMMMNNNNNNNNNNNNNNNNNNNNNNNNNNNOOOOOOOOOOOOOOOOOOOOOOOOOOOOOOOOOOOOOOOOOOOOOOOOOOOOOOOOOOOOOOOOOOOOOOOOOOOPPPPPPPPQQQRRRRRRRRRRRRRRRRRRRRRRRSSSSSSSSSSSSSSSSSSSSSSSTTTTTTTTTTTTTTTTTTTTTTTTTUUUUUUUUUUUUUUUUUUUUUUUUUUUUUUUUUUUUUUUUUUUUUUUUUUUUUUUUUUUUUUVVVVVVVVWWWWWWWWWWWWWWWXXXXXXYYYYYYYYYYYYYYYYYYYYYYYZZZZZZZZZZZZZZZZZZZZZ
Ga
jar
uf
Ð²
Ġfurn
Ġdance
ensation
Ġdelicious
Ġobjectives
Ġencounter
Ġhydrocarbons
BY
`,
Ġsched
ĠPerson
ĠLD
ĠNaz
Ġintact
ĠVector
ENCE
Ġadvised
Ġcompete
Ġnorthern
Human
ĠMueller
ĠBDNF
ĠJOIN
Ġspectrometry
Ġgym
Ġstating
ĠNations
ĠGP
INFO
Ġsatisfying
Ġparliament
important
ĠCoast
Ġattacked
Ġrespondent
Files
ked
Ñĩ
oming
Ġ"$
Ġcomplain
ĠPrinc
parameter
Ġembry
ĠParliament
Selected
risk
Ġreplied
Ġorigins
ĠOptional
Ġscientist
Ġsuperficial
ĠColumbus
Ġbitcoin
Ġanatomical
hd
hbar
sort
Ġgains
odot
ĠTGF
Ġadmin
Star
Ġinvestigating
Ġcontinuously
Ġprotecting
Trump
Ġtraits
Ġdemocracy
AX
Av
Hash
lg
ply
Ġhoney
2020
ĠColor
Ġallele
è¦ģ
Ġbottles
Ġankle
ĠEXPECT
Ġbiomarkers
Cr
ti
urance
ĠPubl
ĠBoy
ĠBrian
ĠHor
Ġopens
Ġundergoing
oven
Ġsilent
Ġnavigation
Ġpancreas
scherichia
rv
Î½
Ġinch
utter
cha
ĠBible
1986
anny
switch
Ġprejudice
Media
Ġinaug
ĠSettings
ĠProfessional
Factor
wave
wrap
arth
ĠHart
Ġmayor
Ġpromised
Ġsimulated
Ġexpertise
ĠLI
spring
175
Ġaffil
ĠRelease
Ġalongside
Ġearnings
typedef
Ġreproductive
Ġperpendicular
iseconds
Ġfiduciary
Ġaminotransferase
Sal
Ġbags
ĠSR
Ġvag
Ġquoted
Ġrelied
application
Ġfinance
Ġparams
Ġsuppression
220
rbrack
ĠPhoto
Ġplatforms
Ġefficiently
Ġtitles
Ġrhythm
Ġadhesive
Ġorganisations
ĠAssessment
KL
Ġbip
owers
ĠShort
Ġviolations
Ġglad
ĠPHP
repository
none
Ġconvention
emat
ĠWord
Ġfactual
Ġ|\
NAL
Ġapproximate
Ġcollapse
ĠSmall
Record
Ġbranches
Ġreleasing
Ġunlimited
Ġawkward
ĠBayesian
Ġsympathetic
Ġingredient
ĠSchrÃ¶dinger
Tim
ĠSeven
Ġasks
quot
esty
ĠNi
ĊĠĠĠĠĠĠĠĠĠĠĠĠĠĠĠĠĠĠ
Ġheaded
ĠÎ¼g
&=
Discussion
five
orption
Ġflying
Ġmort
yme
167
Ġdownstream
ĠDirac
Ġreconstructed
Matthew
ĠCauchy
GN
Life
Ġpic
Ġprobation
ĠIndiana
Ġunfair
fx
python
Ġgear
Ġprostate
ultural
ribution
Ġoffices
Ġendors
aza
Ġaffinity
Ġtransformed
Ġscratch
ĠTibet
ucleotide
ĠOpportunity
temp
Ġnons
1992
Ġ***
ĠConsider
ĠCincinnati
0098791
Ġpie
ĠPen
ĠPear
ĠLyn
Ġreson
phase
iaz
Ġprovince
ĠCommissioner
Ġinnovation
August
stderr
Ġgriev
ancellor
]=
Ġptr
Ġ"%
atern
Ġconfusion
Ġsubsets
ĠEditor
Ġemerged
âĢ²-
Ġpixels
Icon
roke
sters
Ġey
Ġscroll
Ġremission
Ġcapability
Ġminds
Screen
Ġcaptain
Ġscholar
oracic
Ġwheels
ĠTypically
Ġsubstantive
Ġpresidency
Ġspectacular
Ġforfeiture
Ġframeworks
Ġcytochrome
ãģĬãĤĪãģ³ä»»æĦıãģ®å¿ħéłĪãģ®çµµãĤĴéģ¿ãģĳãĤĭãģŁãĤģãģ«ãĤ¹ãĥĨãĥĥãĤ«ãĥ¼ãģ®å¤ļãģıãĤĴè§£æĶ¾ãģĻãĤĭãģĵãģ¨ãģ§ãģĻãģĿãĤĮãģ¯ãģ¾ãģłèī¯ãģĦè¦ĭãģ¦è£½åĵģãģ®ãģŁãĤģãģ«å¿ħè¦ģãģ¨ãģķãĤĮãģ¦ãģĦãģ¾ãģĻ
Div
Ġnut
ĠASS
expl
Ġdrama
enny
)*-
Ġbreakfast
Ġoverlap
ĠMoore
WORD
idine
Ġovert
1994
Ġcorn
136
ANG
Ġjoining
Ġinitiative
Ġcooling
Ġearliest
ĠBrexit
LocalizedString
TI
condition
å¼
aled
ocyt
Ġchances
}}_{\
Ġactively
Ġmicrobi
ĠCollection
peer
Mac
wd
Ġwins
Ġmature
Ġrear
ĠFactor
Ġdebut
ĠGer
rah
Ġdistribute
ika
ĠAnal
Ġvisiting
Ġdominated
Art
]{.
Ġboxes
Question
ĠHebrew
ĠConservative
ĠDefinition
both
tbl
arter
Ġgolf
Ġexclusion
ĠRS
}}=
Ġreply
Ġethnic
omon
than
ĠMill
ryption
closed
Ġrecurs
eval
Ġoxidative
agreement
Ġsafegu
Ġepilepsy
Ġsocket
Ġliable
ĠNick
uda
Ġupset
ĠOPA
/âĪĴ
alg
ĠLatin
ogene
Ġadip
Ġroutes
ĠKeep
ĠMaryland
invasive
ativistic
Ġexemption
ĠNevada
Ġdisposal
Ġsubdivision
Ġescaped
ĠBarcelona
Ġjeopard
ĠCSPBCSSMLNDSMDVRSNSMVSMQLIVB
iop
arity
omat
Ġlands
Ġasync
Ġvibr
-------
ĠGil
Ġarises
Ġgenotype
Ġfeatured
Ġextracellular
Ġlocked
Ġtheoretically
conjugated
California
:_
Ġou
Ġkiss
Ġlogical
Introduction
market
Ġgovernor
Ġdisappear
Ġbodily
Ġupdating
Ġcorrobor
Ġfrustration
Ġapoptotic
Ġexceptions
Ġshield
Ġ_,
Ġphoton
Ġboundaries
Parameters
ĠCRC
TX
hu
Ġaqu
rection
Ġho
Ġhired
users
ĠFR
ĠFalse
Ġsentences
Ġmerit
Selection
Ġcousin
Ġpandemic
ĠCzech
Ġchambers
ĠTransportation
ĠBelgium
Americans
Ġxenograft
hss
Ġtsp
ectin
Ġreporters
Ġsubm
Ġlocalized
Ġannouncement
Ġmobility
bow
rum
would
Ġcomply
Ġrum
145
Collect
Ġloves
Display
Ġsymbols
Ġmaturation
Ġrecombination
AI
CY
Ġdial
ĠCV
aden
igg
ĠMoh
Ġfunctioning
Ġrepe
ĠRegister
)/((-
Ġwarned
Ġpesticides
ĠBirmingham
ĠFlorence
Global
your
ĠBon
ishop
ugar
Ġgradually
ĠMarket
Ġdaughters
graber
Vol
iel
rically
Ġsectors
Ġranges
Ġimpression
Ġclothing
Ġdistal
156
,\,
Ġguilt
ãģ¯
Ġpoison
Ġxmlns
MY
ÏĦ
æĹ
Ġpace
Ġfitted
usive
eme
estamp
ĠHu
ĠĠĠĠĠĠĠĠĠĠĠĠĠĠĠĠĠĠĠĠĠĠĠĠĠĠĠĠĠĠĠĠĠĠĠĠĠ
Ġaccounting
umble
Ġwinner
linux
Primary
Ġmerged
Ġstochastic
Ġvicinity
Ġconfirms
ĠConsidering
ĠLieutenant
Ġskeletal
åı¯ä»¥
Fil
West
å°
ĠSy
Ġalarm
ĠBL
ĠBor
ORS
ANCE
modules
Space
Ġpreferably
.:
211
PORT
bd
best
Ġnose
agg
riage
Ġshit
Ġpointing
ĠShare
Ġdissolved
Abstract
Ġmucosal
Ġinactivation
ĠOscar
Ġfundamentally
Ġtraumatic
InverseMellin
âĶĢâĶ´âĶĢâĶ¬âĶĢâĶ´âĶĢâĶ¬âĶĢâĶ´âĶĢâĶ¬âĶĢâĶ´âĶĢâĶ¬âĶĢâĶ´âĶĢâĶ¬âĶĢâĶ´âĶĢâĶ¬âĶĢâĶ´âĶ
WI
stock
ilic
Ġappointment
ENCODING
Ġimmunofluorescence
"?
Full
`.
Ġpist
ĠWatch
icture
Ġexplored
Ġcommunicate
Ġlegend
Ġpipeline
Ġopioid
Ġdeficient
ozygous
$_{
'_{
Ġcher
abc
Ġ220
ĠPri
acked
athers
165
Ġimportantly
Ġdonors
Ġcrush
Ġdispatch
Ġpremises
ĠMusic
Ġvitamin
Day
LICENSE
lm
success
tre
Ġdx
Ġlicensed
ĠMotion
ĠBR
ĠTE
ĠLess
Ġscatter
Ġgray
OME
Ġrobot
Ġmorphology
Ġcriminals
ĠAdmiral
Ġembodiments
Ġpleadings
Ġretrospectively
Ġappliances
Ġarithmetic
DO
gal
uj
Ġ">
ĠPV
profit
Ã©t
Ġmutual
Ġflows
children
Four
dfrac
twitter
ĠSimilar
Active
Ġwhisper
Ġdeficits
ĠâĢ²(
Ġcontradiction
flex
oor
avis
___
Ġpoorly
Ġclinically
ĠBerlin
Ġisolates
FFIRMED
è®
Ġbat
ĠAst
ctrl
Ġintensive
Ġ1982
Ġsigning
panel
Windows
Ġmandatory
moment
Ġmathematics
Ġencrypted
Ġtaxpayers
Ġinheritance
Ġindistinguishable
&#
:'
Bs
rx
anie
selected
elli
323
umpy
Ġpseudo
Ġcosm
History
Imp
bed
Î¿
Ġsys
Ġmil
Ġlum
quality
ĠLLC
Ġ<?
Ġtestify
325
Until
Ġalbeit
Ġbackgrounds
Ġmedicines
edit
Ġham
eces
ĠAI
Ġchiral
ortic
Ġ06
Ġimply
Ġimpose
Ġspinal
issue
Ġ127
Ġconsisted
Ġrelaxation
022
<<
bur
Ġfate
Ġlact
olin
estine
ĠBall
ĠLED
Ġservers
aux
Ġconcert
ĠReturns
Ġencouraged
GPIO
schemas
Ġremedies
attributes
Card
rint
zip
==================================================================================
Ġwider
Ġ240
ĠRail
Ġchains
Ġpartly
170
Items
Ġletting
Ġrealistic
Ġ255
connection
Ġpipe
Ġantidepress
ĠShanghai
ĠObamacare
*\<
Ġfav
abe
ĠMM
ĠFive
ĠLat
ĠStation
Ġelastic
proof
Ġordering
manif
agnetic
ĠAllen
Ġapolog
protected
Ġcortex
INSERT
Ġsignalling
,âĢĻ
Pe
Ġschem
Ġdot
Ġhip
Ġactors
Ġrelate
Ġinflation
Ġmodifications
people
ç»
inator
Ġpostoperative
Ġcrossing
Ġladies
Ġperceive
Ġeligibility
Ġcarboxyl
Ġprecipit
Ġpenetration
UITableView
Ġchoriocapillaris
Ap
mass
Ġcure
ĠĠĠĠĠĠĠĠĠĠĠĠĠĠĠĠĠĠĠĠĠĠĠĠĠĠĠĠĠĠĠĠĠĠĠĠ
Ġemotion
shared
ĠPlus
Ġlengths
Adapter
Ġhistoric
\{\
ĠCher
ĠBat
Ġnoting
asting
century
Ġstops
Ġsilence
Ġgraphs
Ġtragedy
ĠKlein
Ġrookie
Ġfiltration
Round
dk
isan
ecal
Ġliber
ĠRod
Ġconfused
ĠException
require
ĠINCLUDING
marcusjoshuarecruitment
MIN
brief
wing
ĠCas
ĠHz
ĠTask
ĠLind
allow
Ġresin
Stop
Ġtherapies
Ġsuppressed
Ġimmigrants
Ġsuggestion
Ġspokesman
ĠSanders
ĠAppellate
ĠOrlando
ĠCalgary
Ġdevastating
ĠUkrainian
ĠTreasury
Ġspots
Ġhanded
386
ergy
Ġgraduate
ĠUkraine
Watch
cit
hole
sem
Ġmim
ĠBox
integr
Ġqui
Ġgenerates
Ġconsiderations
ĠXML
Ġexcitation
Ġtracks
Ġglyc
Ġoccasionally
ĠProfessor
ĠEspecially
ĠArgentina
Ġhabeas
Ġscrutiny
ĠMortgage
Ġink
role
168
Ġ121
Ġcarries
views
ÐµÐ½
Ġminimize
212
bid
Ġpetroleum
),$$
Ġdeficiency
operation
Ġbrothers
iciary
Ġflowers
Ġbedroom
Bottom
MASK
Ġanomalous
ffffff
Ġadopting
="..\..\
Ġparadox
ĠIndonesia
ĠRespons
Ġgeographical
]}
^[
fish
names
ensis
1984
ĠBlock
ĠSyrian
Ġgravity
mc
Ġtap
Ġstere
Ġcommut
Ġmining
ĠExpl
umbers
Ġrestaurants
Ġroads
*~*
Similarly
Ġunanim
Ġpeoples
å¦Ĥæŀľ
ĊĠĊĠĊĠĊĠĊĠĊĠĊĠĊĠĊĠĊĠĊĠĊĠĊĠĊĠĊĠĊĠĊĠĊĠĊĠĊĠĊĠĊĠĊĠĊĠĊĠĊĠ
deb
goto
Ġeq
ĠCond
ista
ĠEric
Ġoutstanding
ĠKong
ONG
147
READ
Ġretained
Ġsurely
ammer
Ġneighbour
Ġcontributing
Ġwriters
Ġconfigured
metadata
Ġ-----------
$;
MK
jp
oft
Ġul
enabled
stud
ĠAli
ĠTy
Ġ03
ĠKIND
Ġmedications
aughter
Ġacquire
Ġcorrections
Ġhorse
âĨĴ
Ġdorsal
Ġevapor
assembly
ĠAcademic
RelativePath
Ġnominee
Ubuntu
antibodies
Ġhepatocellular
ĠtambiÃ©n
Bit
think
results
ĠWas
ĠTex
ĠNR
Ġoh
ĠOil
Ġdozen
Ġsimilarity
Ġsquad
required
Ġcatalyst
Remove
Gl
IQ
Ig
dump
Ġpad
Ġgre
ĠMAP
ĠTreatment
ĠRES
ĠLO
Ġ["
ressor
ORK
ĠChristians
Ġmemories
Ġutilize
Ġhosts
Ġconcurrent
Callback
Ġmetastatic
ĠIOException
Ġanonym
ĠHindu
Ġcommodity
Ġpractitioners
bits
instein
ĠOP
ĠJean
ermal
186
Ġxe
shore
Ġcalm
Ġimpacts
filename
Flags
Ġlivestock
ĠIllegal
ĠEuclidean
Ġmisdemeanor
Ġsymplectic
Ġmesenchymal
BER
done
lon
mac
Ġcov
ĠNK
Ġcann
Ġdisposed
Ġarrow
Ġsheets
Ġdiscussing
Ġhandler
Ġprescription
ĠClark
ĠActiv
Ġcollision
Ġpropri
bmatrix
Ġderive
Html
ĠSPVL
Ġorphan
Ġenforced
agnostic
Ġcleavage
aver
reation
Ġpiv
Ġscenes
Ġemployers
Ġdetecting
)));
Ġinsights
ARN
367
Ġretention
Ġproceeds
Ġbirthday
igration
Ġconflicts
Ġlacking
Render
Wait
íķ
Ġwaters
Ġincl
olves
Ġupcoming
ĠInvention
Ġ450
owned
Ġtransmit
Ġmoder
Ġmodulation
Ġverified
Ġbroader
ĠCategory
Ġbrutal
ĠHawaii
Ġoverruled
Ax
[:
rost
oton
ĠTry
ĠStock
Ġtermination
income
Ġcultiv
ĠSelect
Ġhearts
Ġcalibration
ĠIntegr
holding
_*
ĠMR
ells
Ġdisposition
speed
toString
Ġbackup
Ġediting
Ġachieving
network
Ġdatasets
POST
Ġtendency
ĠArabia
ĠComplaint
Ġhomeostasis
Ġignorance
Ġlevodopa
aur
ĠSTR
Ġcompression
Ġexpanding
Ġgenomic
Ġslope
azz
Ġreportedly
Ġreaches
ĠSeattle
Ġdissent
ĠSUMMARY
ĠDAMAGES
ĠAPPEALS
IE
SYS
ju
Ġsel
unes
ĠHS
Ġoutbreak
Ġslide
Ġlocalization
Ġasymptotic
wartz
Ġreconsider
ĠVermont
Ġpeppers
ĠRevenue
tri
vable
yer
ĠBP
Ġenforce
190
Ġdistant
Ġdetermin
ãĤĭ
Ġairport
Ġkinetic
Ġlitigation
laration
Java
hidden
rf
charg
ĠHCV
ĠNatural
ĠGA
Ġimped
Ġrod
Ġslice
Ġconducting
ĠSmart
Ġtranslate
Ġprevents
Ġneuronal
Ġpermits
Sebastian
flocculant
æĸĩä»¶
ģæĥħåł±
Bre
bat
oda
Ġdisaster
-->
Ġindicator
Ġofficially
ĊĠĠĠĠĠĠĠĠĠĠĠĠĠĠĠĠĠĠĠĠĠĠĠĠĠĠĠĠĠ
âĶĤ
)^{-
Ġtie
arms
osome
Ġ"-
Ġ1973
Ġinvari
Ġmutants
ĠBrazilian
Ġmerits
Ġstocks
Ġpromoted
Interval
activated
oluble
Ġdiscomfort
Ġsystolic
Ġdiscriminatory
icating
ĠSelf
Ġ------
ĠNothing
Ġblockchain
Ġuniversities
Drosophila
Ġspontaneously
Li
PUT
ĠStatus
^{*
}$$\
ĠRelated
FILE
ĠQueen
èĥ½
achelor
ĠBarbara
ben
bad
Ġsli
Ġcoun
etically
omm
ĠARE
ĠCy
ĠMart
Ġrecurrent
Inv
Ġdetector
price
Ġcorrected
Ġdynamical
GFR
Ġnecessity
Ġsake
Ġcock
ĠĠĊ
ĠIBS
ĠCE
Ġ\!
Ġspark
ĠChange
spin
Ġpreserved
containing
initely
Ġsurrounded
Ġrevenge
Ġexplanations
jjawad
Ġtransmembrane
PreprocessorDefinitions
ĠTD
Ġadoption
ongo
Ġcounting
relation
Ġbehavioral
Ġassociate
KD
hop
schema
Ġfatal
Ġgerm
ĠCore
Ġ139
ĠWT
ĠWould
ĠRome
Ġcancell
Ġmyel
Ġwrap
Ġvaries
ĠStudent
Ġmitochondrial
Ġathletes
Ġpizza
Ġfossil
Ġpresumed
Ġarguably
FFFFFF
Ġmicrowave
iating
neg
Âµ
atomic
Ġmol
Ġdad
ĠPEG
reset
Ġdefer
prove
Ġpurified
Ġesp
Ġraises
Ġ------------
Ġmotivated
čĊčĊč
åĩ½æķ°
ĠKashmir
360
FM
Ġfool
Ġbegun
uling
ĠMK
ĠFather
iph
ĠĠĠĠĠĠĠĠĠĠĠĠĠĠĠĠĠĠĠĠĠĠĠĠĠĠĠĠĠĠĠĠĠĠĠĠĠĠĠĠĠĠ
Ġemails
Ġintroducing
ĠNotice
ĠParam
Ġoptional
Ġcompatibility
usions
acts
1988
203
134
))\
ships
277
controlled
minute
Enter
ĠEdward
Ġsecretary
ĠCapital
Offset
tools
RR
[(
Ġacres
143
ãģª
Ġ%>
respons
LOG
Ġinnovative
fessional
Ġforbidden
Ġsuppliers
Ġmammalian
driver
sect
Ġfetch
Ġinference
Ġdw
ĠCAP
ifdef
ĠHong
Ġlovely
Ġcontroversy
Ġoptimization
Ġchemicals
localhost
Ġpolarization
Microsoft
owski
Ġ08
Ġinsertion
Ġrespondents
Ġballs
Super
Ġoccupied
Ġhighlighted
Europe
Ġaromatic
Ġcarpet
breviations
omers
igger
ĠESD
ĠUpon
Ġgrain
Ġyard
ITE
sky
Ġinterleukin
vation
Ġstyl
rowser
Properties
Args
Defendant
Ġalterations
Ġtumours
Ġdementia
ĠBaptist
Ġmysterious
ĠCorollary
Cur
IES
Public
Ġaligned
ĠPP
quant
ĠNight
Ġjam
Ġplacing
Ġ'/
Ġflags
Ġwanting
Ġapproached
equals
Ġarbitration
Ġcertified
ĠCells
ĠArea
)}{\
122
obl
ĠLeft
Ġhomeless
rocyte
elihood
Ġambitious
ĠExercise
ĠReynolds
Ġinaccurate
ĠSullivan
Ġglyphosate
Ġmarch
Ġdf
ĠSEM
ĠDutch
Ġdefinite
components
121
REE
Ġmanagers
ĠRecently
Ġguaranteed
Ġsustainable
Ġtrailer
itol
amar
ĠSummary
ĠAuthor
ĠHan
Ġrepository
1985
Ġsubstitution
ãģĻ
Ġforecast
Ġcouples
Ġfluor
Ġstimuli
Ġbreathing
Ġworms
Ġhormones
ĠHughes
rength
Ġincarcer
Ġskillet
Ġannoying
bury
enh
ĠMother
ĠNeg
="_
ritical
Guest
Ġ---------
ĠpelÃŃculas
Ġjurisdictions
gel
kr
rogen
Ġalien
outing
ĠEM
rait
Ġpossibilities
Ġflower
Ġoperational
Ġretired
Ġillustrate
Ġasserted
Network
Ġlobby
Ġfinitely
ĠArthur
ĠApparently
CPPFLAGS
ĠSELECT
ĠTaliban
Lock
Ts
_-
à²
ĠBull
Ġinterven
Ġthereafter
1980
ĠâĢ¢
Ġcharacterize
ashing
Ġelementary
Byte
username
ĠHoward
Ġremarks
029
kit
ĠMerc
quoting
Ġshadow
plane
ĠVery
Ġattending
Ġcircular
Ġinsured
Ġcombining
ãĤ¹
Ġsynthesized
Ġimplementing
Ġpleasure
Ġstaying
ĊĠĠĠĠĠĠĠĠĊĠĠĠĠĠĠĠ
Ġsometime
ĠESPN
Ġlaundry
ĠCarowest
Ġpalliative
Ġluciferase
olangiocarcinoma
ãĤ·ãĥªãĥ¼ãĤºæ§ĭæĪĲ
Bank
Loc
Power
[*
edu
Ġrejection
ĠCro
adv
Ġ170
Ġabroad
heart
Ġblend
Ġproductivity
ĠÐ½
Ġconservation
Ġoxidation
ĠForeign
DATA
ĠMic
ĠNob
Ġcolitis
0005
Ġrecommendation
cheme
Ġgeneralized
eqn
ĠMcG
Ġradial
Ġburning
Ġ-------------
Ġlucky
Sunday
minded
Ġberries
Ġbovine
Ġunemployed
Ġperforation
Ġattributable
Ġjudgments
UK
Ġbolt
ĠSong
ĠCub
Ġ1979
184
IDE
lesssim
Ġgranting
Ġrevised
ĠDefault
Ġrental
BugFix
ĠEclipse
Ġadulthood
Ġenergetic
ĠShakespeare
Ġbilirubin
2045894018776489
ĠAth
ĠMY
perp
Ġscar
Ġ1978
ega
Ġjustified
Ġattachment
ĊĠĠĠĠĠĠĠĠĠĠĠĠĠĠĠĠĠĠĠĠĠĠĠĠ
ĠConvention
ãĤĴ
Ġpacked
Ġsafely
Ġmotif
Ġconstitutes
Ġobsc
Ġstenosis
Ġclouds
Ġinvisible
Ġimmunosupp
ĠBenjamin
GI
una
ifiable
ĠRO
Ġunity
Ġupstream
Ġneopl
comes
Ġviewing
Ġreplacing
Ġappearing
ĠImport
ĠDisney
Ġterrorist
Ġhepatitis
pg
tail
via
Ġdrying
amide
ĠCIA
Ġrally
ĠTheory
Ġcarcin
Ġhandled
Ġmetals
Ġadvances
375
Ġesophageal
Ġillustrates
ĠBrand
Obj
Ġcourtesy
Ġsubunits
Assembly
Ġcatastroph
Ġbiomarker
Ġjewelry
SB
bg
kl
items
ĠBab
Ġdispar
heat
INST
365
Ġamongst
Alt
without
terminal
.[]{
Ġconverges
amera
Ġbathroom
ĠsiRNA
Ġquasi
'(
Di
onder
Ġcompromise
ĠGI
ĠOpt
oblast
bridge
ĠColumn
transfer
Ġweakness
ĠTHAT
ĠSurvey
Ġadaptation
ï½ŀ
ĠBudget
Ġknees
ĠEmergency
Ġextrapol
**^**,**
boy
})$.
Ġgently
ĠNature
Ġ350
Ġ1975
ĠChe
Ġremedy
ashi
contract
Ġimplements
Ġinspection
Ġrival
Ġcredibility
ĠAffairs
Requ
nia
prom
sent
Ġties
ĠMut
ĠPBS
Ġlets
Ġgrants
Ġremand
Ġfocuses
ĠWithin
simple
account
Ġinhibitory
Ġconsciousness
Ġrigid
Ġrescue
ĠCOPD
ĠOakland
Ġarrives
Ġundergone
Ġelaborate
ä½¿çĶ¨
ĠMagazine
Host
fail
ÂĴ
Ġbold
Ġmold
ĠAk
ĠACC
ulates
Ġ\$
ĠLas
=""
Ġmyth
Ġbelt
ĠZn
ĠResponse
prep
Ġpreferences
ĠTestament
$),
Ġtet
Ġtwe
omen
ounding
ĠLiver
train
Ġconsolid
alking
Ġposting
Enabled
{.}
channels
Israel
Ġchondrocytes
Ġunpredictable
ĠIndependence
Ġdexamethasone
HI
cg
itness
asi
ĠATP
ĠCt
ĠCome
Ġexhibits
Ġ1976
Ġaccordingly
ĠOnline
prev
Ġinvestments
Ġshifted
ĠAlexander
Best
hw
rays
wer
amous
ĠTag
192
Ġinfants
Ġministry
ITION
Ġboil
cycle
Ġsixth
locked
Print
Register
ĠCoulomb
propto
Ġeternal
Ġviscosity
Friday
ĠDISEASE
\@
ativity
itic
essed
ĠNeed
ĠJam
owner
Ġoffenses
Ġabilities
Ġengaging
Ġspeaks
ĠStatement
ĠBroad
Pan
VA
YY
\,\
ÅĤ
ĠAug
igm
ĠBO
ĠEP
ophys
ĠSubs
Ġaddressing
MSG
half
named
large
èĩª
Ġfermions
Ġreagents
ĠLearn
Ġchapters
ĠGarcia
Ġhearsay
Ġpurported
Ġbasket
ĠArctic
Ġcartilage
Ġrheumatoid
_;
lab
icit
vee
Ġexert
ĠStore
Close
Design
Ġpurely
Ġconnectivity
gadgetgangster
$^{-
Normal
æī
Ġlady
Ġiso
Ġ(<
Ġ175
ching
emen
ĠBBC
ĠWales
Ġclip
ĠKal
ĠĠĠĠĠĠĠĠĠĠĠĠĠĠĠĠĠĠĠĠĠĠĠĠĠĠĠĠĠĠĠĠĠĠĠĠĠĠĠĠĠ
Ġcurrents
ittle
ĠAlbert
blank
Ġexcuse
Share
Timeout
Ġconfirmation
Ġadvertis
Ġretrospective
Business
åĴĮ
ĠFermi
Ġunambig
ĠOpinion
Ġunderneath
Ġcellulose
Ġreferendum
ĠAgriculture
Ġcondemned
ĠAvailable
Ġimprisoned
ĠRedistributions
ĠPortuguese
sized
imed
ĠMRI
ĠFlu
ĠTB
ĠLicensed
Ġtriangle
Ġpositioned
ĠÎĶ
Ġstruggling
Ġveteran
ICT
pic
ĠCBD
irts
ĠPy
esting
Ġsuck
Ġquark
Ġdevelopments
153
ritis
Ġinfant
ãģ¨
ĠArg
âĢ¦.
ĠPatrick
Ġphosphate
Ġfallen
Ġstationary
Ġthrowing
ĠConsultancy
Ġreciprocal
ĠHeritage
"\
>::
JSON
LI
ders
inine
Ġfishing
Ġdans
Ġanimation
umm
Ġdeleg
ĠEval
="@
Ġinterrog
241
ĠExecutive
Ġlegally
Ġmanufactured
models
Ġvalidate
Ġinstanceof
ĠSenior
Ġgolden
0015854
Ġsphincter
ĠScythian
OLYGON
430
fight
hn
uy
amy
ĠDifferent
ĠRoss
ĠChamp
Ġdesktop
138
162
Ġinvestigators
Ġlessons
effect
surf
Ġincomplete
COPY
Monday
ĠOften
Ġspleen
Ġconfinement
ĠIndividual
ĠClaims
Ġmerchant
0046662
Ġdont
Ġhire
Ġshifts
}}}}\
195
Ġflip
shape
336
Ġloops
Ġopposing
Subject
ĠRemove
ĠAccount
LP
MAN
inos
Ġtons
eding
ĠeV
iones
Ġbypass
Ġdeleted
ĠJay
Ġshower
Ġquestioned
Ġphenomena
necess
Ġliquor
ĠLopez
Ġtypedef
Ġhygiene
oproteins
Ġtamoxifen
AW
Ã´
Ġfn
ĠSY
illin
ĠWars
ĠGastroenterology
Ġformulation
Ġexplaining
Ġsuperconduct
disp
Ġcrystals
currency
Ġabandoned
Ġinherent
Statement
ĠSummer
citing
ois
uest
åĽ
ĠIron
Ġonion
iful
Ġriding
ĠUP
ĠJon
Ġmeets
angles
Ġnovo
Ġ1972
Ġconfidential
Ġbasal
Ġreviewing
Should
Ġbelonging
Ġoverwhelming
Ġreplication
Government
POWER
Ġprestig
Pop
written
atre
ĠSEC
ĠABC
ematic
ĠEN
ĠâĢľ[
Ġallocation
Ġsecretion
Ġ126
229
ĠIncre
Ġethical
iamond
ĠUpdate
Ġascending
ĠFerguson
Ġshredded
bsolutely
ĠAristotle
lsdunhideused
bled
Ġfiring
Ġtooth
story
uture
ĠNic
1987
Ġdece
Those
Ġaffairs
054
Ġlesson
does
linked
Ġwarranty
bundle
Ġowe
Ġnasal
emporal
ĠRogers
Ġgraduates
ĠPortugal
*=
symbol
Î»
ĠCSS
utf
Ġatomic
Ġ360
Ġprefix
obic
parser
Ġmanufacture
ĠContent
Ġuniformly
Opt
separ
Ġclubs
Ġscream
uple
Ġneedle
Ġvolumes
ĠAssistant
UND
Ġprofound
Ġsleeping
Ġunitary
ĠRecord
Ġstepped
Ġcascade
Ġevidenced
Ġrecreational
Ġdeprived
ĠPharmac
Speaking
MODULE
sel
aml
formula
argument
Ġ?>
Ġgeometric
Ġspeaker
xxxxxxxxxxxxxxxx
)}(
Direct
Rest
Vs
tile
Ġbos
Ġdock
forming
Ġendpoint
Ġsolving
245
Ġdevelopmental