{
  "version": "1.0",
  "truncation": null,
  "padding": null,
  "added_tokens": [
    {
      "id": 0,
      "content": "[UNK]",
      "single_word": false,
      "lstrip": false,
      "rstrip": false,
      "normalized": false,
      "special": true
    },
    {
      "id": 1,
      "content": "[CLS]",
      "single_word": false,
      "lstrip": false,
      "rstrip": false,
      "normalized": false,
      "special": true
    },
    {
      "id": 2,
      "content": "[SEP]",
      "single_word": false,
      "lstrip": false,
      "rstrip": false,
      "normalized": false,
      "special": true
    },
    {
      "id": 3,
      "content": "[PAD]",
      "single_word": false,
      "lstrip": false,
      "rstrip": false,
      "normalized": false,
      "special": true
    },
    {
      "id": 4,
      "content": "[MASK]",
      "single_word": false,
      "lstrip": false,
      "rstrip": false,
      "normalized": false,
      "special": true
    }
  ],
  "normalizer": null,
  "pre_tokenizer": {
    "type": "SplitByteLevel"
  },
  "post_processor": null,
  "decoder": null,
  "model": {
    "type": "BNE",
    "dropout": null,
    "unk_token": "[UNK]",
    "continuing_subword_prefix": null,
    "end_of_word_suffix": null,
    "fuse_unk": false,
    "byte_fallback": false,
    "ignore_merges": false,
    "vocab": {
      "[UNK]": 0,
      "[CLS]": 1,
      "[SEP]": 2,
      "[PAD]": 3,
      "[MASK]": 4,
      "!": 5,
      "\"": 6,
      "#": 7,
      "$": 8,
      "%": 9,
      "&": 10,
      "'": 11,
      "(": 12,
      ")": 13,
      "*": 14,
      "+": 15,
      ",": 16,
      "-": 17,
      ".": 18,
      "/": 19,
      "0": 20,
      "1": 21,
      "2": 22,
      "3": 23,
      "4": 24,
      "5": 25,
      "6": 26,
      "7": 27,
      "8": 28,
      "9": 29,
      ":": 30,
      ";": 31,
      "<": 32,
      "=": 33,
      ">": 34,
      "?": 35,
      "@": 36,
      "A": 37,
      "B": 38,
      "C": 39,
      "D": 40,
      "E": 41,
      "F": 42,
      "G": 43,
      "H": 44,
      "I": 45,
      "J": 46,
      "K": 47,
      "L": 48,
      "M": 49,
      "N": 50,
      "O": 51,
      "P": 52,
      "Q": 53,
      "R": 54,
      "S": 55,
      "T": 56,
      "U": 57,
      "V": 58,
      "W": 59,
      "X": 60,
      "Y": 61,
      "Z": 62,
      "[": 63,
      "\\": 64,
      "]": 65,
      "^": 66,
      "_": 67,
      "`": 68,
      "a": 69,
      "b": 70,
      "c": 71,
      "d": 72,
      "e": 73,
      "f": 74,
      "g": 75,
      "h": 76,
      "i": 77,
      "j": 78,
      "k": 79,
      "l": 80,
      "m": 81,
      "n": 82,
      "o": 83,
      "p": 84,
      "q": 85,
      "r": 86,
      "s": 87,
      "t": 88,
      "u": 89,
      "v": 90,
      "w": 91,
      "x": 92,
      "y": 93,
      "z": 94,
      "{": 95,
      "|": 96,
      "}": 97,
      "~": 98,
      "¡": 99,
      "¢": 100,
      "£": 101,
      "¤": 102,
      "¥": 103,
      "¦": 104,
      "§": 105,
      "¨": 106,
      "©": 107,
      "ª": 108,
      "«": 109,
      "¬": 110,
      "®": 111,
      "¯": 112,
      "°": 113,
      "±": 114,
      "²": 115,
      "³": 116,
      "´": 117,
      "µ": 118,
      "¶": 119,
      "·": 120,
      "¸": 121,
      "¹": 122,
      "º": 123,
      "»": 124,
      "¼": 125,
      "½": 126,
      "¾": 127,
      "¿": 128,
      "Â": 129,
      "Ã": 130,
      "Ä": 131,
      "Å": 132,
      "Æ": 133,
      "Ç": 134,
      "È": 135,
      "É": 136,
      "Ê": 137,
      "Ë": 138,
      "Ì": 139,
      "Í": 140,
      "Î": 141,
      "Ï": 142,
      "Ð": 143,
      "Ñ": 144,
      "Ò": 145,
      "Ó": 146,
      "Ô": 147,
      "Õ": 148,
      "Ö": 149,
      "×": 150,
      "Ø": 151,
      "Ù": 152,
      "Ú": 153,
      "Û": 154,
      "Ü": 155,
      "Ý": 156,
      "Þ": 157,
      "à": 158,
      "á": 159,
      "â": 160,
      "ã": 161,
      "ä": 162,
      "å": 163,
      "æ": 164,
      "ç": 165,
      "è": 166,
      "é": 167,
      "ê": 168,
      "ë": 169,
      "ì": 170,
      "í": 171,
      "î": 172,
      "ï": 173,
      "ð": 174,
      "Ĉ": 175,
      "ĉ": 176,
      "Ċ": 177,
      "Č": 178,
      "č": 179,
      "Ġ": 180,
      "ġ": 181,
      "Ģ": 182,
      "ģ": 183,
      "Ĥ": 184,
      "ĥ": 185,
      "Ħ": 186,
      "ħ": 187,
      "Ĩ": 188,
      "ĩ": 189,
      "Ī": 190,
      "ī": 191,
      "Ĭ": 192,
      "ĭ": 193,
      "Į": 194,
      "į": 195,
      "İ": 196,
      "ı": 197,
      "Ĳ": 198,
      "ĳ": 199,
      "Ĵ": 200,
      "ĵ": 201,
      "Ķ": 202,
      "ķ": 203,
      "ĸ": 204,
      "Ĺ": 205,
      "ĺ": 206,
      "Ļ": 207,
      "ļ": 208,
      "Ľ": 209,
      "ľ": 210,
      "Ŀ": 211,
      "ŀ": 212,
      "Ł": 213,
      "ł": 214,
      "Ń": 215,
      "ĠĠĠ": 216,
      "Ġf": 217,
      "an": 218,
      "Ġt": 219,
      "in": 220,
      "er": 221,
      "on": 222,
      "en": 223,
      "Ġa": 224,
      "Ġthe": 225,
      "Ġs": 226,
      "à¤": 227,
      "at": 228,
      "Ð°": 229,
      "Ġm": 230,
      "re": 231,
      "Ġn": 232,
      "Ġp": 233,
      "Ġfa": 234,
      "or": 235,
      "Ġd": 236,
      "al": 237,
      "ar": 238,
      "Ġc": 239,
      "Ġfgoi": 240,
      "ĠÐ": 241,
      "es": 242,
      "is": 243,
      "Ġb": 244,
      "it": 245,
      "Ġk": 246,
      "Ġffta": 247,
      "Ġof": 248,
      "le": 249,
      "Ġw": 250,
      "as": 251,
      "ĠĠĠĠĠĠĠĠĠ": 252,
      "Ġh": 253,
      "Ġfanc": 254,
      "Ġfho": 255,
      "Ġfazm": 256,
      "Ġl": 257,
      "ou": 258,
      "Ġand": 259,
      "Ð½": 260,
      "ing": 261,
      "am": 262,
      "Ð¸": 263,
      "ÑĢ": 264,
      "Ðµ": 265,
      "ti": 266,
      "Ġe": 267,
      "ro": 268,
      "ed": 269,
      "un": 270,
      "ÑĤ": 271,
      "Ġin": 272,
      "et": 273,
      "ic": 274,
      "el": 275,
      "áĢ": 276,
      "Ð¾": 277,
      "Ð»": 278,
      "Ġg": 279,
      "il": 280,
      ".Ċ": 281,
      "om": 282,
      "à¥": 283,
      "Ġi": 284,
      "ol": 285,
      "st": 286,
      "ation": 287,
      "Ġv": 288,
      "ra": 289,
      "ent": 290,
      "Ġy": 291,
      "âĢ": 292,
      "ch": 293,
      "Ġto": 294,
      "Ñģ": 295,
      "ak": 296,
      "Ñĥ": 297,
      "Ñĭ": 298,
      "Ġà¤": 299,
      "à¦": 300,
      "ad": 301,
      "ut": 302,
      "im": 303,
      "Ġfax": 304,
      "us": 305,
      "id": 306,
      "Ġth": 307,
      "Ð°Ð": 308,
      "ot": 309,
      "Ġ(": 310,
      "ul": 311,
      "ĠT": 312,
      "ĠS": 313,
      "Ġre": 314,
      "Ø§": 315,
      "um": 316,
      "ur": 317,
      "ag": 318,
      "ĠĠĠĠĠĠĠ": 319,
      "ĠA": 320,
      "ang": 321,
      "em": 322,
      "os": 323,
      "ab": 324,
      "ig": 325,
      "à¤¾à¤": 326,
      "ay": 327,
      "ĠC": 328,
      "Ġo": 329,
      "ec": 330,
      "ir": 331,
      "Ð´": 332,
      "ac": 333,
      "Ġj": 334,
      "ĠM": 335,
      "ĠI": 336,
      "od": 337,
      "Ġ=": 338,
      "Ġis": 339,
      "à¥įà¤": 340,
      "ĊĊ": 341,
      "ap": 342,
      "Ġà": 343,
      "qu": 344,
      "he": 345,
      "ik": 346,
      "Ðº": 347,
      "à¼ĭà": 348,
      "Ġwith": 349,
      "ĠØ": 350,
      "Ġr": 351,
      "Ġan": 352,
      "ow": 353,
      "ĠP": 354,
      "ve": 355,
      "Ġde": 356,
      "tion": 357,
      "áĥ": 358,
      "Ġ\"": 359,
      "ri": 360,
      "ĠÑ": 361,
      "ce": 362,
      ";Ċ": 363,
      "ĠÙ": 364,
      "Ð¼": 365,
      "ĠB": 366,
      "Ð³": 367,
      "Ġfor": 368,
      "Ġch": 369,
      "ĠD": 370,
      "ah": 371,
      "ai": 372,
      "te": 373,
      "Ġon": 374,
      "Ġbe": 375,
      "ĠN": 376,
      "Ġá": 377,
      "se": 378,
      "ion": 379,
      "ter": 380,
      "ĠĠĠĠĠĠĠĠĠĠĠ": 381,
      "----": 382,
      "Ġu": 383,
      "Ġpro": 384,
      "and": 385,
      "ly": 386,
      "Ã©": 387,
      "Ġst": 388,
      "ok": 389,
      "Ġna": 390,
      "ĠE": 391,
      "Ġen": 392,
      "Ã¡": 393,
      "ate": 394,
      "op": 395,
      "Ø§Ù": 396,
      "ist": 397,
      "Ð°ÑĢ": 398,
      "Ġal": 399,
      "ers": 400,
      "ĠâĢ": 401,
      "ĠL": 402,
      "àª": 403,
      "th": 404,
      "ia": 405,
      "Ð°Ð½": 406,
      "Ġ{Ċ": 407,
      "Ġse": 408,
      "Ġwh": 409,
      "ight": 410,
      "Ġle": 411,
      "de": 412,
      "Ġcon": 413,
      "ĠK": 414,
      "Ġ'": 415,
      "ĠH": 416,
      ")Ċ": 417,
      "à¸": 418,
      "Ġz": 419,
      "ÑĮ": 420,
      "ta": 421,
      "Ø±": 422,
      "Ġdi": 423,
      "ĠÐº": 424,
      "ub": 425,
      "Ġne": 426,
      "Ġas": 427,
      "à½": 428,
      "ct": 429,
      "ĠÃ": 430,
      "ere": 431,
      "à°": 432,
      "à¤¿à¤": 433,
      "og": 434,
      "est": 435,
      "ÉĽ": 436,
      "aw": 437,
      "ĠR": 438,
      "Ð²": 439,
      "Ġthat": 440,
      "ĠF": 441,
      "âĢĻ": 442,
      "res": 443,
      ",Ċ": 444,
      "ver": 445,
      "ÛĮ": 446,
      "Ġte": 447,
      "ĠG": 448,
      "à¬": 449,
      "Ñį": 450,
      "Ġit": 451,
      "ort": 452,
      "ĠJ": 453,
      "ga": 454,
      "ĠÐ±": 455,
      "ib": 456,
      "Ġ-": 457,
      "pe": 458,
      "uk": 459,
      "ine": 460,
      "ud": 461,
      "iz": 462,
      "êŀĮ": 463,
      "Ġfrom": 464,
      "ĠĠĠĠĠ": 465,
      "Ġma": 466,
      "à®": 467,
      "ÙĪ": 468,
      "ue": 469,
      "oc": 470,
      "ÙĨ": 471,
      "iv": 472,
      "our": 473,
      "ĠĠĠĠĠĠĠĠĠĠĠĠĠĠĠ": 474,
      "pl": 475,
      "wa": 476,
      "nd": 477,
      "ie": 478,
      "Ð¹": 479,
      "Ð·": 480,
      "ha": 481,
      "ĠW": 482,
      "Ð°Ð»": 483,
      "Ġme": 484,
      "à´": 485,
      "Ġun": 486,
      "ya": 487,
      "ÑĪ": 488,
      "ess": 489,
      "Ġex": 490,
      "ame": 491,
      "Ġor": 492,
      "Ġat": 493,
      "Ġsa": 494,
      "à§": 495,
      "if": 496,
      "ong": 497,
      "ng": 498,
      "à¥ĩà¤": 499,
      "ip": 500,
      "ĠO": 501,
      "Ä±": 502,
      "up": 503,
      "Ġx": 504,
      "ant": 505,
      "ore": 506,
      "à²": 507,
      "end": 508,
      "áĢºáĢ": 509,
      "ÉĶ": 510,
      "ÙĬ": 511,
      "Ġhave": 512,
      "ĠÑĤ": 513,
      "Ã¤": 514,
      "Ñħ": 515,
      "Ġka": 516,
      "stitutas": 517,
      "form": 518,
      "ĠÑģ": 519,
      "Ð¿": 520,
      "áĪ": 521,
      "Ñı": 522,
      "Ġla": 523,
      "Ġsh": 524,
      "ff": 525,
      "Ġcom": 526,
      "ould": 527,
      "la": 528,
      "áŀ": 529,
      "na": 530,
      "ek": 531,
      "ï¼Į": 532,
      "ÑĬ": 533,
      "ata": 534,
      "ÃŃ": 535,
      "Øª": 536,
      "Ð±": 537,
      "Ġus": 538,
      "Ġqu": 539,
      "ne": 540,
      "ge": 541,
      "ts": 542,
      "É¨": 543,
      "ity": 544,
      "Ġare": 545,
      "Ð¸Ð½": 546,
      "\\\"": 547,
      "ana": 548,
      "á»": 549,
      "Ġ$": 550,
      "ich": 551,
      "Ġby": 552,
      "we": 553,
      "Ġpar": 554,
      "ma": 555,
      "Ġescort": 556,
      "Ñĩ": 557,
      "ft": 558,
      "ind": 559,
      "//": 560,
      "ĠÐ´": 561,
      "ĠĠĠĠĠĠĠĠĠĠĠĠĠĠĠĠĠĠ": 562,
      "ÙĦ": 563,
      "age": 564,
      "ill": 565,
      "ov": 566,
      "Ġhe": 567,
      "ans": 568,
      "ÐµÐ½": 569,
      "out": 570,
      "ob": 571,
      "Ġ×": 572,
      "Ġwe": 573,
      "ĠØ§ÙĦ": 574,
      "ment": 575,
      "tr": 576,
      "ass": 577,
      ");Ċ": 578,
      "ction": 579,
      "ÓĻ": 580,
      "Ã¶": 581,
      "',": 582,
      "Ġà¦": 583,
      "à¼ĭà½": 584,
      "Ø¯": 585,
      "Ġki": 586,
      "ĠThe": 587,
      "Ġke": 588,
      "ase": 589,
      "Ùħ": 590,
      "av": 591,
      "eng": 592,
      "all": 593,
      "Ġ<": 594,
      "ect": 595,
      "ure": 596,
      "Ġar": 597,
      "ĠY": 598,
      "ari": 599,
      "Ġta": 600,
      "ÐµÑĢ": 601,
      "à¥ģà¤": 602,
      "×Ļ×": 603,
      "ug": 604,
      "ile": 605,
      "to": 606,
      "ĠU": 607,
      "ĠV": 608,
      "ÉĻ": 609,
      "Ð°Ð¹": 610,
      "Ġyou": 611,
      "àµįà´": 612,
      "Ġ*": 613,
      "...": 614,
      "ann": 615,
      "turn": 616,
      "ung": 617,
      "ath": 618,
      "ell": 619,
      "âµ": 620,
      "Åĭ": 621,
      "ye": 622,
      "àº": 623,
      "čĊ": 624,
      "ĠÐ¿": 625,
      "Ġra": 626,
      "ÑĭÐ½": 627,
      "à¯į": 628,
      "ĠÐ¼": 629,
      "áģ": 630,
      "ĠÐ¸": 631,
      "ua": 632,
      "Ġthis": 633,
      "Ð°ÑĤ": 634,
      "xt": 635,
      "tic": 636,
      "Ġ}": 637,
      "ÑģÑĤ": 638,
      "Ġni": 639,
      "ãģ": 640,
      "ach": 641,
      "Ġtr": 642,
      "per": 643,
      "ll": 644,
      "âĢĿ": 645,
      "ont": 646,
      "à«": 647,
      "Ġab": 648,
      "int": 649,
      "Ùĩ": 650,
      "Ġcan": 651,
      "ord": 652,
      "able": 653,
      "ite": 654,
      "ost": 655,
      "Ã³": 656,
      "Ġap": 657,
      "Ġti": 658,
      "ens": 659,
      "du": 660,
      "Ġng": 661,
      "ack": 662,
      "ode": 663,
      "Õ¡Õ": 664,
      "other": 665,
      "hi": 666,
      "á±": 667,
      "Ġim": 668,
      "Ġno": 669,
      "Ġdo": 670,
      "ty": 671,
      "port": 672,
      "Ġnumber": 673,
      "Äģ": 674,
      "ka": 675,
      "Ġpl": 676,
      "ãĢĤ": 677,
      "ke": 678,
      "à¤¾": 679,
      "ough": 680,
      "Ø³": 681,
      "aj": 682,
      "cl": 683,
      "Ġad": 684,
      "ĠÐ¾": 685,
      "ĉĉ": 686,
      "ĠÚ©": 687,
      "wo": 688,
      "ust": 689,
      "Ġam": 690,
      "ard": 691,
      "ĠÐ½": 692,
      "à¤°": 693,
      "nt": 694,
      "au": 695,
      "Ûķ": 696,
      "Ġ:": 697,
      "ys": 698,
      "ple": 699,
      "Ã¼": 700,
      "à¥Ģ": 701,
      "à±": 702,
      "ide": 703,
      "Ġnot": 704,
      "áĬ": 705,
      "ĠÐ²": 706,
      "Ġsp": 707,
      "Ġàª": 708,
      "Ġpe": 709,
      "Ġwas": 710,
      "ial": 711,
      "à§įà¦": 712,
      "li": 713,
      "ystem": 714,
      "×ķ×": 715,
      "Ġlo": 716,
      "Ġpa": 717,
      "à¦¾à¦": 718,
      "Ġro": 719,
      "**": 720,
      "me": 721,
      "ome": 722,
      "áĭ": 723,
      "áī": 724,
      "Ð¾Ð»": 725,
      "Ġtime": 726,
      "ĠâĢľ": 727,
      "Ġku": 728,
      "di": 729,
      "ati": 730,
      "â²": 731,
      "Ġres": 732,
      "Ġ+": 733,
      "Þ¦Þ": 734,
      "ies": 735,
      "ru": 736,
      "ÑĥÑĢ": 737,
      "Ð¾Ð½": 738,
      "one": 739,
      "Ġif": 740,
      "ary": 741,
      "ĠIn": 742,
      "ĠTh": 743,
      "ĠÙħ": 744,
      ".ĊĊ": 745,
      "()": 746,
      "Ã«": 747,
      "à¥ĭà¤": 748,
      "Ġ.": 749,
      "ba": 750,
      "Å¡": 751,
      "ara": 752,
      "Ġya": 753,
      ">Ċ": 754,
      "Ġwork": 755,
      "art": 756,
      "Ġso": 757,
      "Ì±": 758,
      "ina": 759,
      "Ġman": 760,
      "Ġko": 761,
      "ala": 762,
      "Ø¨": 763,
      "ond": 764,
      "ni": 765,
      "Ġ|": 766,
      "lo": 767,
      "In": 768,
      "áĥĲáĥ": 769,
      "Ð¶": 770,
      "ast": 771,
      "put": 772,
      "à³": 773,
      "Ġper": 774,
      "Ã¢": 775,
      "so": 776,
      "\"Ċ": 777,
      "ho": 778,
      "Ġsu": 779,
      "cc": 780,
      "ition": 781,
      "ij": 782,
      "Ð¾ÑĢ": 783,
      "Ġ{": 784,
      "Ãł": 785,
      "ound": 786,
      "Ñĸ": 787,
      "Ġfunction": 788,
      "Ò¯": 789,
      "pa": 790,
      "Ġ[": 791,
      "Ġba": 792,
      "gr": 793,
      "à¦¿à¦": 794,
      "'s": 795,
      "der": 796,
      "\",": 797,
      "be": 798,
      "Ġer": 799,
      "ace": 800,
      "con": 801,
      "Ġcl": 802,
      "ĠĠĠĠ": 803,
      "ama": 804,
      "ated": 805,
      "Ġà¤ķ": 806,
      "à·": 807,
      "ene": 808,
      "à¤¨": 809,
      "Ġda": 810,
      "iy": 811,
      "ake": 812,
      "Ò¥": 813,
      "NAME": 814,
      ":Ċ": 815,
      "àŃ": 816,
      "ih": 817,
      "à¥ĩ": 818,
      "ations": 819,
      "ign": 820,
      "ult": 821,
      "ĠTangerang": 822,
      "ente": 823,
      "Ð¸Ð»": 824,
      "Ð°Ð´": 825,
      "ep": 826,
      "ĠØ¨": 827,
      "ence": 828,
      "),": 829,
      "ÑĨ": 830,
      "ress": 831,
      "Ġwa": 832,
      "ree": 833,
      ").": 834,
      "Ġwhich": 835,
      "Ãª": 836,
      "da": 837,
      "Ġall": 838,
      "ual": 839,
      "Ġ\\": 840,
      "ance": 841,
      "Ġq": 842,
      "Ġbo": 843,
      "Ġ//": 844,
      "Ã¨": 845,
      "Ð°Ð¼": 846,
      "enc": 847,
      "Ġval": 848,
      "àª¾àª": 849,
      "Ġgo": 850,
      "ph": 851,
      "Ð¸ÑĢ": 852,
      "ish": 853,
      "Ġes": 854,
      "Ġsi": 855,
      "bo": 856,
      "Ð°Ðº": 857,
      "ä¸": 858,
      "Ġfft": 859,
      "áº": 860,
      "olor": 861,
      "ane": 862,
      "ĠÑĥ": 863,
      "pro": 864,
      "ith": 865,
      "com": 866,
      "Ġpo": 867,
      "ical": 868,
      "Ø§ÙĨ": 869,
      "va": 870,
      "à¶": 871,
      "ks": 872,
      "ontroller": 873,
      "go": 874,
      "Ġmo": 875,
      "Ġmethod": 876,
      "Ġbetween": 877,
      "ry": 878,
      "ini": 879,
      "Ġmu": 880,
      "ani": 881,
      "ous": 882,
      "ublic": 883,
      "erm": 884,
      "val": 885,
      ";ĊĊ": 886,
      "ize": 887,
      "ents": 888,
      "ice": 889,
      "yn": 890,
      "red": 891,
      "Ġdis": 892,
      "Ġel": 893,
      "Ð°Ð³": 894,
      "Ġfollow": 895,
      "##": 896,
      "á»į": 897,
      "sa": 898,
      "Ġye": 899,
      "ÐµÐ»": 900,
      "Ãº": 901,
      "ja": 902,
      "Ġproblem": 903,
      "Ð°Ñģ": 904,
      "Ð¾Ð²": 905,
      "par": 906,
      "pos": 907,
      "Ø§Ø": 908,
      "ER": 909,
      "ĠÂ": 910,
      "Ġmat": 911,
      "Ġli": 912,
      "Ĥà¤": 913,
      "hu": 914,
      "->": 915,
      "====": 916,
      "ko": 917,
      "ĠÕ": 918,
      "à¨": 919,
      "ring": 920,
      "pt": 921,
      "ki": 922,
      "Fabbro": 923,
      "ecause": 924,
      "ale": 925,
      "))": 926,
      "çļĦ": 927,
      "ĠÐ³": 928,
      "ser": 929,
      "ber": 930,
      "Ùī": 931,
      "get": 932,
      "Ġwill": 933,
      "Ġpr": 934,
      "pon": 935,
      "tt": 936,
      "=\"": 937,
      "à¹": 938,
      "Ġop": 939,
      "ĠÑħ": 940,
      "ix": 941,
      "Ġfirst": 942,
      "Ġhas": 943,
      "ex": 944,
      "}Ċ": 945,
      "Ġinter": 946,
      "Ġgr": 947,
      "olution": 948,
      "Ġà¬": 949,
      "je": 950,
      "Ð¸ÑĤ": 951,
      "----------------": 952,
      "à±įà°": 953,
      "no": 954,
      "ĠâĢĵ": 955,
      "ory": 956,
      "ĠáĢ": 957,
      "Ġdiffer": 958,
      "Ġtu": 959,
      "bu": 960,
      "Ð´Ð°": 961,
      "áĢ¯áĢ": 962,
      "io": 963,
      "yo": 964,
      "ĠÑį": 965,
      "The": 966,
      "sh": 967,
      "aka": 968,
      "Ġcalcul": 969,
      "Ġâ": 970,
      "ele": 971,
      "ÑĥÐ»": 972,
      "Ð°Ð·": 973,
      "ÑĥÐ½": 974,
      "||": 975,
      "ĠÑĢ": 976,
      "Ġone": 977,
      "ield": 978,
      "ku": 979,
      "vel": 980,
      "à¾±à½": 981,
      "Ð°Ð²": 982,
      "ĠÙĪ": 983,
      "Ġpre": 984,
      "oh": 985,
      "ÐµÑĤ": 986,
      "fer": 987,
      "sp": 988,
      "ĠÎ": 989,
      "IN": 990,
      "ÅŁ": 991,
      "Ġha": 992,
      "ĠCh": 993,
      "(\"": 994,
      "áŁĴáŀ": 995,
      "ors": 996,
      "ÑĭÐ»": 997,
      "Ġà¤¸": 998,
      "ĠÑĩ": 999,
      "Ġbut": 1000,
      "Ġdes": 1001,
      "Ùİ": 1002,
      "Ġà°": 1003,
      "String": 1004,
      "ĠÐ°": 1005,
      "Ġny": 1006,
      "uc": 1007,
      "enti": 1008,
      "::": 1009,
      "ss": 1010,
      "zi": 1011,
      "áĥĶáĥ": 1012,
      "imensional": 1013,
      "eg": 1014,
      "own": 1015,
      "ĠáĬ": 1016,
      "à¤ķ": 1017,
      "ose": 1018,
      "ype": 1019,
      "si": 1020,
      "Ġnou": 1021,
      "ĠÄ": 1022,
      "ick": 1023,
      "Ùĥ": 1024,
      "Ġnga": 1025,
      "áĢ¬áĢ": 1026,
      "</": 1027,
      "Ġup": 1028,
      "ull": 1029,
      "Ġnu": 1030,
      "Ġnew": 1031,
      "Ġcont": 1032,
      "ena": 1033,
      "Ð¸Ðº": 1034,
      "Ìģ": 1035,
      "rac": 1036,
      "eb": 1037,
      "Ê¼": 1038,
      "ym": 1039,
      "tain": 1040,
      "Ġlike": 1041,
      "za": 1042,
      "amb": 1043,
      "Ó©": 1044,
      "ona": 1045,
      "Ġol": 1046,
      "Ġem": 1047,
      "Ã§": 1048,
      "Ã±": 1049,
      "ew": 1050,
      "sc": 1051,
      "ĠÞ": 1052,
      "ali": 1053,
      "ÞªÞ": 1054,
      "àµ": 1055,
      "Ġyour": 1056,
      "Ġout": 1057,
      "áĥĺáĥ": 1058,
      "Ġser": 1059,
      "à³įà²": 1060,
      "uh": 1061,
      "min": 1062,
      "Ã£": 1063,
      "ĠØ¯": 1064,
      "Box": 1065,
      "ĠZ": 1066,
      "ven": 1067,
      "ÐµÐº": 1068,
      "ĠÐ»": 1069,
      "Ä«": 1070,
      "ÖĢÕ": 1071,
      "Ġve": 1072,
      "Ġ`": 1073,
      "Ġmi": 1074,
      "ÜµÜ": 1075,
      "ĠÐ·": 1076,
      "âĤ": 1077,
      "ze": 1078,
      "ĠĠĠĠĠĠĠĠĠĠĠĠĠĠĠĠĠĠĠĠĠĠĠĠĠĠĠ": 1079,
      "ĠÜ": 1080,
      "vi": 1081,
      "wh": 1082,
      "à«įàª": 1083,
      "Ġele": 1084,
      "à¬¾à¬": 1085,
      "ES": 1086,
      "tim": 1087,
      "Ġob": 1088,
      "fa": 1089,
      "ps": 1090,
      "wn": 1091,
      "É©": 1092,
      "Ġco": 1093,
      "Ġmod": 1094,
      "ise": 1095,
      "à¯ģ": 1096,
      "ener": 1097,
      "Ġga": 1098,
      "ink": 1099,
      "rit": 1100,
      "Ġak": 1101,
      "Äĥ": 1102,
      "Ġver": 1103,
      "Ġmon": 1104,
      "ĠØª": 1105,
      "ÒĽ": 1106,
      "ive": 1107,
      "Ġprostitutas": 1108,
      "Ġsc": 1109,
      "Ã®": 1110,
      "ire": 1111,
      "Diente": 1112,
      "Ġmin": 1113,
      "àŃįà¬": 1114,
      "man": 1115,
      "ÏĦÎ": 1116,
      "ount": 1117,
      "ÑĭÑĢ": 1118,
      "pression": 1119,
      "Ġà¤®": 1120,
      "*Ċ": 1121,
      "ui": 1122,
      "×¢×": 1123,
      "are": 1124,
      "Ġmar": 1125,
      "les": 1126,
      "Ġklungel": 1127,
      "à¤¤": 1128,
      "Ð´Ð¸": 1129,
      "iss": 1130,
      "ĠSt": 1131,
      "Ã´": 1132,
      "ÙĤ": 1133,
      "?Ċ": 1134,
      "ier": 1135,
      "oun": 1136,
      "ãĤ": 1137,
      "ÐµÐ¼": 1138,
      "ray": 1139,
      "und": 1140,
      "Ġhigh": 1141,
      "mo": 1142,
      "aa": 1143,
      "à§ĩà¦": 1144,
      "anc": 1145,
      "Ġtwo": 1146,
      "Ġà®": 1147,
      "â´": 1148,
      "\\\":": 1149,
      "led": 1150,
      "tu": 1151,
      "Ġ/": 1152,
      "orm": 1153,
      "ws": 1154,
      "Ġset": 1155,
      "line": 1156,
      "wi": 1157,
      "ars": 1158,
      "\\\\": 1159,
      "äº": 1160,
      "Ð¾Ð¼": 1161,
      "po": 1162,
      "ates": 1163,
      "old": 1164,
      "á¹": 1165,
      "ÌĢ": 1166,
      "Ġmore": 1167,
      "yon": 1168,
      "ild": 1169,
      "à¤®": 1170,
      "ash": 1171,
      "ian": 1172,
      "pr": 1173,
      "Ð¸Ñı": 1174,
      "Ġ}Ċ": 1175,
      "à¥¤": 1176,
      "Ġang": 1177,
      "Ġph": 1178,
      "ĠAn": 1179,
      "lu": 1180,
      "set": 1181,
      "à°¾à°": 1182,
      "Ã¦": 1183,
      "Ġbu": 1184,
      "Ġom": 1185,
      "ĠDios": 1186,
      "Ø§Ø±": 1187,
      "Ġet": 1188,
      "Ġac": 1189,
      "Þ¬Þ": 1190,
      "of": 1191,
      "urrent": 1192,
      "Ø´": 1193,
      "Ġequ": 1194,
      "Ġany": 1195,
      "Ġpor": 1196,
      "Ã¿": 1197,
      "ee": 1198,
      "ons": 1199,
      "à¥įà¤¯": 1200,
      "Ġri": 1201,
      "ON": 1202,
      "ita": 1203,
      "Ġ&": 1204,
      "ela": 1205,
      "Ġà²": 1206,
      "êŀ": 1207,
      "arch": 1208,
      "ĠØ³": 1209,
      "à®¿à®": 1210,
      "ric": 1211,
      "ange": 1212,
      "Ġsim": 1213,
      "à¬¿à¬": 1214,
      "Ġ,": 1215,
      "Ġtrans": 1216,
      "Ġprogram": 1217,
      "Ġtra": 1218,
      "Ġà¤ª": 1219,
      "áĵ": 1220,
      "Ø¹": 1221,
      "Ġdet": 1222,
      "-s": 1223,
      "Ø©": 1224,
      "à¤²": 1225,
      "Ú©": 1226,
      "ada": 1227,
      "Ð¸Ð¹": 1228,
      "app": 1229,
      "amp": 1230,
      "ËĪ": 1231,
      "ino": 1232,
      "--": 1233,
      "Å¾": 1234,
      "Ġà¤¹": 1235,
      "ally": 1236,
      "Ġbl": 1237,
      "ays": 1238,
      "ator": 1239,
      "Ġ@": 1240,
      "Ã¬": 1241,
      "ÐµÑģ": 1242,
      "Õ¸ÖĤ": 1243,
      "ĠPro": 1244,
      "à¤¸": 1245,
      "à¥ĭ": 1246,
      "Ġget": 1247,
      "ject": 1248,
      "ĠĠ": 1249,
      "Ġreturn": 1250,
      "Ġknow": 1251,
      "Ġthey": 1252,
      "ĠCikupa": 1253,
      "Ġadd": 1254,
      "Ġge": 1255,
      "Ġform": 1256,
      "áĢºáĤ": 1257,
      "Ġinformation": 1258,
      "dd": 1259,
      "fo": 1260,
      "anga": 1261,
      "Ê»": 1262,
      "Ġhi": 1263,
      "que": 1264,
      "Þ°Þ": 1265,
      "Þ¨Þ": 1266,
      "ĠÑĪ": 1267,
      "Ð°Ð±": 1268,
      "Ġag": 1269,
      "its": 1270,
      "Ġmy": 1271,
      "ten": 1272,
      "Th": 1273,
      "Ġhis": 1274,
      "Ġho": 1275,
      "Ð´Ñĭ": 1276,
      "Ġnumbers": 1277,
      "ating": 1278,
      "ĠÐĲ": 1279,
      "ĠCibadak": 1280,
      "Ñİ": 1281,
      "Ġ#": 1282,
      "Ġpos": 1283,
      "Ġkh": 1284,
      "elf": 1285,
      "Ã¹": 1286,
      "era": 1287,
      "Ġts": 1288,
      "Ġthrough": 1289,
      "Ġfe": 1290,
      "Ġend": 1291,
      "ied": 1292,
      "ank": 1293,
      "cha": 1294,
      "Ġáĥ": 1295,
      "Ġbi": 1296,
      "Ð½Ñĭ": 1297,
      "ĠĠĠĠĠĠĠĠĠĠĠĠĠĠĠĠĠĠĠ": 1298,
      "nl": 1299,
      "una": 1300,
      "à¦¾": 1301,
      "Ġmay": 1302,
      "à¸²à¸": 1303,
      "ci": 1304,
      "ption": 1305,
      "ning": 1306,
      "Ġsome": 1307,
      "ev": 1308,
      "oj": 1309,
      "Ġgirl": 1310,
      "ĲÖ·×": 1311,
      "Ġsub": 1312,
      ")ĊĊ": 1313,
      "oth": 1314,
      "Ġthere": 1315,
      "act": 1316,
      "ock": 1317,
      "Ø§ÙĦ": 1318,
      "Ġid": 1319,
      "ika": 1320,
      "à¯įà®": 1321,
      "EN": 1322,
      "áĢ¹áĢ": 1323,
      "ely": 1324,
      "Ġmulti": 1325,
      "text": 1326,
      "Ð¸Ð¼": 1327,
      "à´¿à´": 1328,
      "Ð°ÑĪ": 1329,
      "Ġuse": 1330,
      "ins": 1331,
      "Ġáĭ": 1332,
      "âĢĻs": 1333,
      "ement": 1334,
      "ule": 1335,
      "Ġdist": 1336,
      "Ġpeople": 1337,
      "Ġpou": 1338,
      "Ġacc": 1339,
      "Ġalso": 1340,
      "Ġthen": 1341,
      "Ġkon": 1342,
      "áĢŃáĢ": 1343,
      "ny": 1344,
      "Ġafter": 1345,
      "fig": 1346,
      "Ġover": 1347,
      "áį": 1348,
      "Ã²": 1349,
      "Ġsup": 1350,
      "Ġà¤¬": 1351,
      "Ġsw": 1352,
      "aya": 1353,
      "eth": 1354,
      "ular": 1355,
      "eh": 1356,
      "Ġtheir": 1357,
      "Ġ_": 1358,
      "Ġja": 1359,
      "INSERT": 1360,
      "\":": 1361,
      "-d": 1362,
      "Ġother": 1363,
      "ings": 1364,
      "à½¼à½": 1365,
      ".c": 1366,
      "]Ċ": 1367,
      "Ġprivate": 1368,
      "log": 1369,
      "ĠÐ¿ÑĢ": 1370,
      "ĠVALU": 1371,
      "Ġil": 1372,
      "ater": 1373,
      "Ġexample": 1374,
      "à°¿à°": 1375,
      "Ġwhen": 1376,
      "Ġprocess": 1377,
      "itu": 1378,
      "ĠINTO": 1379,
      "Ġdan": 1380,
      "mi": 1381,
      "ĠÚ": 1382,
      "Äĵ": 1383,
      ".âĢĿ": 1384,
      "ror": 1385,
      "Ġdef": 1386,
      "ÑĦ": 1387,
      "ns": 1388,
      "à«ĩ": 1389,
      "Ġusing": 1390,
      "Ġdec": 1391,
      "Ġabout": 1392,
      "('": 1393,
      "à¤¾à¤°": 1394,
      ".Back": 1395,
      "ÐµÐ´": 1396,
      "Ġà´": 1397,
      "Ġje": 1398,
      "AR": 1399,
      "Ġits": 1400,
      "ĠáĪ": 1401,
      "AN": 1402,
      "Ġannan": 1403,
      "Î±": 1404,
      "ĠThis": 1405,
      "ĠIt": 1406,
      "oy": 1407,
      "à¥įà¤°": 1408,
      "any": 1409,
      "ww": 1410,
      "Ġca": 1411,
      "ÄŁ": 1412,
      "ĠĊ": 1413,
      "St": 1414,
      "Ãµ": 1415,
      "Ð°Ñħ": 1416,
      "à¾": 1417,
      "type": 1418,
      "áĬķ": 1419,
      ",\\\"": 1420,
      "Name": 1421,
      "ade": 1422,
      "Ġgu": 1423,
      "gebra": 1424,
      "Ġvar": 1425,
      "ji": 1426,
      "ues": 1427,
      "Ġclass": 1428,
      ".C": 1429,
      "lar": 1430,
      "ĠÒ": 1431,
      "wm": 1432,
      "..": 1433,
      "ats": 1434,
      "name": 1435,
      "atic": 1436,
      "Ġevery": 1437,
      "áĮ": 1438,
      "Ġganny": 1439,
      "orld": 1440,
      "eta": 1441,
      "Ġ)": 1442,
      "ef": 1443,
      "Ġva": 1444,
      "Ð½Ð¾": 1445,
      "clude": 1446,
      "ca": 1447,
      "Ġenergy": 1448,
      "Ã¡n": 1449,
      "Ã¸": 1450,
      "Ġint": 1451,
      "áĳ": 1452,
      "ula": 1453,
      "Ġwould": 1454,
      "ĠAl": 1455,
      "Ð½Ð¸": 1456,
      "aga": 1457,
      "oo": 1458,
      "wan": 1459,
      "à¤¹": 1460,
      "Ġtak": 1461,
      "Ġdu": 1462,
      "ĠÙĦ": 1463,
      "Ùģ": 1464,
      "Ġhow": 1465,
      "Ġkan": 1466,
      "áŀ¶áŀ": 1467,
      "Ġsecond": 1468,
      "Ġque": 1469,
      "rom": 1470,
      "vo": 1471,
      "bi": 1472,
      "ĠQ": 1473,
      "cri": 1474,
      "ength": 1475,
      "Ġá±": 1476,
      "Ġconsider": 1477,
      "áº¹": 1478,
      "Ġmak": 1479,
      "AT": 1480,
      "ili": 1481,
      "Ġconst": 1482,
      "Ġah": 1483,
      "Â»": 1484,
      "Ġreg": 1485,
      "ID": 1486,
      "asi": 1487,
      "Ð°Ð¿": 1488,
      "Ġgiven": 1489,
      "hat": 1490,
      "Ġhelp": 1491,
      "à§ģà¦": 1492,
      "ero": 1493,
      "ection": 1494,
      "\",Ċ": 1495,
      "áĢ±áĢ": 1496,
      "work": 1497,
      "Ġum": 1498,
      "Text": 1499,
      "Ġhu": 1500,
      "}ĊĊ": 1501,
      "arg": 1502,
      "als": 1503,
      "Ġnd": 1504,
      "ĠâĢĺ": 1505,
      "iri": 1506,
      "Ð¾Ð´": 1507,
      "Ġinto": 1508,
      "Ð¾Ñģ": 1509,
      ".cloud": 1510,
      "á±Łá±": 1511,
      "Ġok": 1512,
      "Êī": 1513,
      "Ã¥": 1514,
      "Ġcu": 1515,
      "ime": 1516,
      "atu": 1517,
      "row": 1518,
      "let": 1519,
      "Pro": 1520,
      "Ġek": 1521,
      "ĠÙĨ": 1522,
      "ĠJesÃºs": 1523,
      "mer": 1524,
      "'t": 1525,
      "ĠÐµ": 1526,
      "eni": 1527,
      "pi": 1528,
      "Ġwhere": 1529,
      "Ġthan": 1530,
      "ative": 1531,
      "ãĢ": 1532,
      "vid": 1533,
      "Ex": 1534,
      "ĠÐļ": 1535,
      "px": 1536,
      "Ä±n": 1537,
      "iti": 1538,
      "ema": 1539,
      "Ġbas": 1540,
      "def": 1541,
      "æľ": 1542,
      "ÐµÐ³": 1543,
      "Ġwho": 1544,
      "ote": 1545,
      "Ġsex": 1546,
      "à¥Ī": 1547,
      "ml": 1548,
      "yi": 1549,
      "ource": 1550,
      "Ġwere": 1551,
      "Ġrec": 1552,
      "Ġinclud": 1553,
      "à²¾à²": 1554,
      "Ġonly": 1555,
      "oup": 1556,
      "ool": 1557,
      "à§ĭà¦": 1558,
      "Äį": 1559,
      "Ġunder": 1560,
      "åı": 1561,
      "ble": 1562,
      "ÛĴ": 1563,
      "Ð¾Ðº": 1564,
      "Âł": 1565,
      "Î½": 1566,
      "ado": 1567,
      ".s": 1568,
      "ju": 1569,
      "Con": 1570,
      "ain": 1571,
      "_{": 1572,
      "gan": 1573,
      "Ġ=>": 1574,
      "plic": 1575,
      "ĠCom": 1576,
      "Ð¾ÑĤ": 1577,
      "ht": 1578,
      "br": 1579,
      "Ġrel": 1580,
      "Ûģ": 1581,
      "Ġbefore": 1582,
      "Ġ}ĊĊ": 1583,
      "Ġfrequenc": 1584,
      "Ð¸Ð·": 1585,
      "ano": 1586,
      "ĠÂ«": 1587,
      "ØŃ": 1588,
      "ĠSpeaker": 1589,
      "Ġvari": 1590,
      "Å«": 1591,
      "Ġsol": 1592,
      "ØĮ": 1593,
      "Ġpossible": 1594,
      "Ã½": 1595,
      "Ġass": 1596,
      "àµģà´": 1597,
      "ĠAr": 1598,
      "Ġmet": 1599,
      "add": 1600,
      "Ġsur": 1601,
      "ey": 1602,
      "iew": 1603,
      "Ġou": 1604,
      "ms": 1605,
      "ÑģÐº": 1606,
      "isa": 1607,
      ";čĊ": 1608,
      "ĠX": 1609,
      "-b": 1610,
      "code": 1611,
      "Ġâµ": 1612,
      "ÑįÑĢ": 1613,
      "Ġvalue": 1614,
      "Ġdata": 1615,
      "Ġhad": 1616,
      "Ġfin": 1617,
      "ami": 1618,
      "Ġfgoin": 1619,
      "Ġanswer": 1620,
      "Ġà¤ħà¤": 1621,
      "Ġshow": 1622,
      "Ø¬": 1623,
      "Ġmen": 1624,
      "Ü²Ü": 1625,
      "Ġdiente": 1626,
      "Ġpol": 1627,
      "ax": 1628,
      "Ġos": 1629,
      "Ġname": 1630,
      "olog": 1631,
      "uri": 1632,
      "{Ċ": 1633,
      "Ġyu": 1634,
      "¯à¦¼": 1635,
      "â´°âµ": 1636,
      "OR": 1637,
      "Ġcor": 1638,
      "import": 1639,
      "Ġcol": 1640,
      "che": 1641,
      "Ø²": 1642,
      "ÃŃÌµ": 1643,
      "Ð¾Ð³": 1644,
      "Ġlet": 1645,
      "fe": 1646,
      "uth": 1647,
      "Ġlong": 1648,
      "ÑĭÐ¿": 1649,
      "ute": 1650,
      "Ġbel": 1651,
      "til": 1652,
      "rist": 1653,
      "Ġrepresent": 1654,
      "eri": 1655,
      "tive": 1656,
      "ments": 1657,
      "Ø§Øª": 1658,
      "ila": 1659,
      "Ġà¤ľ": 1660,
      "ä»": 1661,
      "Ġspecif": 1662,
      "wr": 1663,
      "¸áĢ": 1664,
      "âĢľ": 1665,
      "ĠÏ": 1666,
      "ãĥ": 1667,
      ";;": 1668,
      "Re": 1669,
      "ĠĠĠĠĠĠĠĠ": 1670,
      "fl": 1671,
      "ron": 1672,
      "à¤¿": 1673,
      "atch": 1674,
      "wy": 1675,
      "ĠString": 1676,
      "ĠÐĳ": 1677,
      "Ġbeen": 1678,
      "},": 1679,
      "cre": 1680,
      "Ġgra": 1681,
      "tern": 1682,
      "ĠÐ±Ð¾Ð»": 1683,
      "ĠÐ¡": 1684,
      "Ġia": 1685,
      "isi": 1686,
      "à²¿à²": 1687,
      "ï¼": 1688,
      "Ġà¨": 1689,
      "Ġsin": 1690,
      "Ġáī": 1691,
      "],": 1692,
      "Ã°": 1693,
      "ese": 1694,
      "Ġfl": 1695,
      "pp": 1696,
      "Ġwhat": 1697,
      "udi": 1698,
      "Ġcomm": 1699,
      "ĠÐľ": 1700,
      "itt": 1701,
      "Ġkar": 1702,
      "Ġ!": 1703,
      "Ġlist": 1704,
      "-m": 1705,
      "Ġay": 1706,
      "áĢ½áĢ": 1707,
      "Ġperson": 1708,
      "Ġfalse": 1709,
      "vice": 1710,
      "ves": 1711,
      "vent": 1712,
      "ets": 1713,
      "duct": 1714,
      "Ġsuch": 1715,
      "Ġmas": 1716,
      "áģ£áĢºáĢ": 1717,
      "Ġinst": 1718,
      "áĥĿáĥ": 1719,
      "ĠAs": 1720,
      "ĠWe": 1721,
      "read": 1722,
      "Ġfil": 1723,
      "áŁ": 1724,
      "Ð¸Ñģ": 1725,
      "ima": 1726,
      "Ġau": 1727,
      "Ġresults": 1728,
      "tions": 1729,
      "Value": 1730,
      "|Ċ": 1731,
      "ages": 1732,
      "ST": 1733,
      "wv": 1734,
      "aba": 1735,
      "Ġfer": 1736,
      "Ð¾Ð¹": 1737,
      "DDDD": 1738,
      "Õ¶": 1739,
      "Output": 1740,
      "Ġfind": 1741,
      "Ġá»į": 1742,
      "Æ¡": 1743,
      "Ġog": 1744,
      "Ġline": 1745,
      "co": 1746,
      "áĢº": 1747,
      "ger": 1748,
      "ÐµÐ¹": 1749,
      "ÙĲ": 1750,
      "à»": 1751,
      "Ø§Ùħ": 1752,
      "ymbol": 1753,
      "Ġmed": 1754,
      "ĠUn": 1755,
      "olo": 1756,
      "duc": 1757,
      "gi": 1758,
      "Ġsystem": 1759,
      "áĴ": 1760,
      "Ġ->": 1761,
      "à¹Ģà¸": 1762,
      "ĠÃ©": 1763,
      "ĠØ¹": 1764,
      "-t": 1765,
      "********": 1766,
      "Ġdevelop": 1767,
      "jo": 1768,
      "Ġpi": 1769,
      "âĢĶ": 1770,
      "Ġsch": 1771,
      "adi": 1772,
      "ĠIf": 1773,
      "à±ģà°": 1774,
      "Id": 1775,
      "Ġden": 1776,
      "Ġnam": 1777,
      "ark": 1778,
      "Ġher": 1779,
      "yr": 1780,
      "ÄĹ": 1781,
      "use": 1782,
      "Ġsmall": 1783,
      "Ġsam": 1784,
      "Ġà¦ħà¦": 1785,
      "Ġstud": 1786,
      "Î¿": 1787,
      "param": 1788,
      "yp": 1789,
      "Ġà¤¨": 1790,
      "uma": 1791,
      "gin": 1792,
      "Ġchi": 1793,
      "bl": 1794,
      "à½¦": 1795,
      "Ġà¤¤": 1796,
      "Ġused": 1797,
      "Ġstruct": 1798,
      "eter": 1799,
      "Ġed": 1800,
      "åĪ": 1801,
      "))Ċ": 1802,
      "à®¾à®": 1803,
      "Ò£": 1804,
      "aha": 1805,
      "Ġpresent": 1806,
      "-f": 1807,
      "ÑĤÐ¸": 1808,
      "pre": 1809,
      "Ġaw": 1810,
      "à¸Ńà¸": 1811,
      "ĠÐ°Ð»": 1812,
      "Ġmag": 1813,
      "Ġagain": 1814,
      "div": 1815,
      "by": 1816,
      "Ġji": 1817,
      "à´¾à´": 1818,
      "ĠRe": 1819,
      "Ġrequ": 1820,
      "Ġ?": 1821,
      "Ġcharacter": 1822,
      "Ñĺ": 1823,
      "ibrary": 1824,
      "áĤ": 1825,
      "uz": 1826,
      "Ġbann": 1827,
      ").Ċ": 1828,
      "Ġmga": 1829,
      "à¤¾à¤¨": 1830,
      "Þ§Þ": 1831,
      "Ġkw": 1832,
      "ÄĽ": 1833,
      "rect": 1834,
      "Ð½Ð°": 1835,
      "Ð»Ð°ÑĢ": 1836,
      "ida": 1837,
      "),Ċ": 1838,
      "à©": 1839,
      "ĠÑı": 1840,
      "Ó§": 1841,
      "ower": 1842,
      "ĠâĢĶ": 1843,
      "asa": 1844,
      "Ġeach": 1845,
      "Ġdownload": 1846,
      "Ð´Ðµ": 1847,
      "($": 1848,
      "Ġkom": 1849,
      "Ġà¶": 1850,
      "list": 1851,
      "Ġzot": 1852,
      "Ġneed": 1853,
      "Ġ>": 1854,
      "ĠTe": 1855,
      "ĠĠĠĠĠĠĠĠĠĠĠĠĠĠĠĠĠĠĠĠĠĠĠ": 1856,
      "Ġsl": 1857,
      "mp": 1858,
      "Ġà¤¦": 1859,
      "wg": 1860,
      "wj": 1861,
      "ĠÐ´Ðµ": 1862,
      "ÜĿÜ": 1863,
      "();Ċ": 1864,
      "wx": 1865,
      "ert": 1866,
      "ura": 1867,
      "eck": 1868,
      "Ġavailable": 1869,
      "Êĭ": 1870,
      "åħ": 1871,
      "abil": 1872,
      "Ø§ÛĮ": 1873,
      "dex": 1874,
      "à½²": 1875,
      "_d": 1876,
      "Ġdel": 1877,
      "wd": 1878,
      "Ġour": 1879,
      "ÑĭÐº": 1880,
      "_s": 1881,
      "wz": 1882,
      "Ġcre": 1883,
      "Ã³n": 1884,
      "Õ¥": 1885,
      "Ġà¤Ĩà¤": 1886,
      "Ġmal": 1887,
      "Â³": 1888,
      "Ġsign": 1889,
      "å¤": 1890,
      "ature": 1891,
      "oa": 1892,
      "à¯": 1893,
      "uj": 1894,
      "Ġhai": 1895,
      "Ġent": 1896,
      "ĠHe": 1897,
      "Ġstr": 1898,
      "Ġ*/Ċ": 1899,
      "Ġsk": 1900,
      "Ġexp": 1901,
      "ner": 1902,
      "âĢ¦": 1903,
      "Ġcirc": 1904,
      "ike": 1905,
      "_st": 1906,
      "Type": 1907,
      "-c": 1908,
      "Ġthem": 1909,
      "zy": 1910,
      "Ġvo": 1911,
      "ract": 1912,
      "ĠÐ½Ð°": 1913,
      "ful": 1914,
      "Ġav": 1915,
      "Ġext": 1916,
      "wq": 1917,
      "To": 1918,
      "Ġkap": 1919,
      "Ġstring": 1920,
      "ved": 1921,
      "ĠCase": 1922,
      "ĠØ±": 1923,
      "ÑĤÐ°": 1924,
      "Õ«": 1925,
      "ush": 1926,
      "ÙĢÙĢ": 1927,
      "Ġfr": 1928,
      "Ġoff": 1929,
      "âĢĻn": 1930,
      "ira": 1931,
      "SE": 1932,
      "wen": 1933,
      "Ġcomp": 1934,
      "Ð³Ð°Ð½": 1935,
      "oto": 1936,
      "ĠCon": 1937,
      "wl": 1938,
      "ĠIs": 1939,
      "son": 1940,
      "ĉĉĉ": 1941,
      "Ġshould": 1942,
      "Ø§Ø³": 1943,
      "ĠâĨĴ": 1944,
      "ĲÖ¸×": 1945,
      "Îµ": 1946,
      "esu": 1947,
      "wk": 1948,
      "Ġthese": 1949,
      "AL": 1950,
      ".com": 1951,
      "Color": 1952,
      "ĠÐ¶": 1953,
      "af": 1954,
      "Ð»Ð¸": 1955,
      "å®": 1956,
      "ern": 1957,
      "gu": 1958,
      "Ch": 1959,
      "Ġbr": 1960,
      "ĠÐ´Ð°": 1961,
      "Î¹": 1962,
      "Ġtre": 1963,
      "°Ð": 1964,
      "yl": 1965,
      "ä½": 1966,
      "áĢ®": 1967,
      "Ð³ÑĬ": 1968,
      "Ġnon": 1969,
      "Ġlu": 1970,
      "Ġik": 1971,
      "wb": 1972,
      "Ġbar": 1973,
      "Ġir": 1974,
      "ody": 1975,
      "Ġpublic": 1976,
      "Ġche": 1977,
      "æĪ": 1978,
      "Ġcase": 1979,
      "ĠØ¬": 1980,
      "áģ¢": 1981,
      "Ġcondition": 1982,
      "Ġdon": 1983,
      "land": 1984,
      "Ä©": 1985,
      "ÐĲ": 1986,
      "gh": 1987,
      "Ã»": 1988,
      "men": 1989,
      "ume": 1990,
      "Ġgener": 1991,
      "ily": 1992,
      "ting": 1993,
      "ÐµÐ²": 1994,
      "Ġcha": 1995,
      "Ġmeasure": 1996,
      "Ġtar": 1997,
      "_t": 1998,
      "://": 1999,
      "lish": 2000,
      "Ġput": 2001,
      "pend": 2002,
      "els": 2003,
      "Ġvi": 2004,
      "Ð³Ð°": 2005,
      "à«Ģ": 2006,
      "Data": 2007,
      "ola": 2008,
      "Ġjust": 2009,
      "Ġfree": 2010,
      "ĉreturn": 2011,
      "Ġtest": 2012,
      "à¤¯": 2013,
      "ĠÐ¢": 2014,
      "uto": 2015,
      "æĺ¯": 2016,
      "ions": 2017,
      "%%%%": 2018,
      "ÑĥÐ±Ð»Ð¸Ðº": 2019,
      "ton": 2020,
      "Ġà¤²": 2021,
      "Ġ×Ķ×": 2022,
      "ĠĠĠĠĠĠĠĠĠĠĠĠĠĠĠĠĠĠĠĠĠĠĠĠĠĠĠĠĠĠĠ": 2023,
      "wf": 2024,
      "Ġpoints": 2025,
      "do": 2026,
      "ined": 2027,
      "Ġmai": 2028,
      "ines": 2029,
      "RE": 2030,
      "Ġtem": 2031,
      "()Ċ": 2032,
      "Ð°Ð¶": 2033,
      "fun": 2034,
      "ÌĪ": 2035,
      "ÐµÐ·": 2036,
      "âĢ¢": 2037,
      "Ġkas": 2038,
      "ii": 2039,
      "nu": 2040,
      "admin": 2041,
      "lan": 2042,
      "ĠOnorab": 2043,
      "Ġdistribution": 2044,
      "Ġvideo": 2045,
      "ply": 2046,
      "Ġmb": 2047,
      "áĲ": 2048,
      "ector": 2049,
      "Ú¯": 2050,
      "Ġmake": 2051,
      "ÑĭÐ¼": 2052,
      "ĠUniversity": 2053,
      "ember": 2054,
      "à¤µ": 2055,
      "IT": 2056,
      "Ġkam": 2057,
      "ahi": 2058,
      "ities": 2059,
      "ffici": 2060,
      "Ġder": 2061,
      "wc": 2062,
      "ĠÐ°ÑĢ": 2063,
      "az": 2064,
      "ĠWh": 2065,
      "Ġsame": 2066,
      "ynamic": 2067,
      "ls": 2068,
      "âĤĤ": 2069,
      "Ñī": 2070,
      "__": 2071,
      "uv": 2072,
      "war": 2073,
      "Ø§ÙĪ": 2074,
      "alo": 2075,
      "Ìĥ": 2076,
      "Ġà¤µ": 2077,
      "ĠColor": 2078,
      "ational": 2079,
      "ÙĪØ±": 2080,
      "ape": 2081,
      "ĠHowever": 2082,
      "à¤Ĥà¤": 2083,
      "Ġbil": 2084,
      "apa": 2085,
      "àª¿àª": 2086,
      "wt": 2087,
      "awa": 2088,
      "çĶ": 2089,
      "à¥įà¤¤": 2090,
      "àº²àº": 2091,
      "Ġmost": 2092,
      "bs": 2093,
      "à¦¨": 2094,
      "ĠÙģ": 2095,
      "Ġut": 2096,
      "Error": 2097,
      "ox": 2098,
      "Ġà¤Ĺ": 2099,
      "ĠFor": 2100,
      "à³Ĩà²": 2101,
      "```": 2102,
      "Ġlife": 2103,
      "Ġfu": 2104,
      "Ġdem": 2105,
      "LE": 2106,
      "oe": 2107,
      "su": 2108,
      "ery": 2109,
      "áĢŃáĢ¯áĢ": 2110,
      "à¼ĭà½ĳà½": 2111,
      "Ġterm": 2112,
      "ĠTr": 2113,
      "aki": 2114,
      ".p": 2115,
      "face": 2116,
      "Ġalgorith": 2117,
      "atis": 2118,
      "oro": 2119,
      "Ġtype": 2120,
      "Ġorigin": 2121,
      "ponse": 2122,
      "Ð°Ò": 2123,
      "ĠseÃ§eneÄŁ": 2124,
      "var": 2125,
      "Ġfra": 2126,
      ".chao": 2127,
      "Ġword": 2128,
      "yu": 2129,
      "lect": 2130,
      "amm": 2131,
      "ĠEx": 2132,
      "ete": 2133,
      "Ġread": 2134,
      "atus": 2135,
      "vis": 2136,
      "è¡¨": 2137,
      "ĠÐ±Ñĥ": 2138,
      "Ġju": 2139,
      "wp": 2140,
      "entif": 2141,
      ",\"": 2142,
      "ÜĺÜ": 2143,
      "Ġsomething": 2144,
      "ersion": 2145,
      "_p": 2146,
      "ackground": 2147,
      "ocal": 2148,
      ".Chaudiere": 2149,
      "Ġcar": 2150,
      "à«ĭàª": 2151,
      "¡áĢ": 2152,
      "ĠĠĠĠĠĠ": 2153,
      "Ġà¤°": 2154,
      "$$": 2155,
      "Ġest": 2156,
      "Ġlanguage": 2157,
      ");ĊĊ": 2158,
      "Ġsaid": 2159,
      "Ġway": 2160,
      "DUDU": 2161,
      "SI": 2162,
      "num": 2163,
      "Ġresult": 2164,
      "Ġavek": 2165,
      "êŀĭ": 2166,
      "ako": 2167,
      "Ġbet": 2168,
      "ĠÙĥ": 2169,
      "áģ¤áĢ": 2170,
      "ren": 2171,
      "tiv": 2172,
      "Ġ==": 2173,
      "àŃĩà¬": 2174,
      "ĠÙĩ": 2175,
      "Ġcorrespond": 2176,
      "\">": 2177,
      "mod": 2178,
      "ĠÃ¶": 2179,
      "ĢáĢ": 2180,
      "Ġyo": 2181,
      "á»¥": 2182,
      "ams": 2183,
      "ulu": 2184,
      "anda": 2185,
      "ica": 2186,
      "Úº": 2187,
      "Ġhar": 2188,
      "Ġcal": 2189,
      "chi": 2190,
      "Ġpass": 2191,
      "ible": 2192,
      "!Ċ": 2193,
      "ľ×": 2194,
      "'a": 2195,
      "Ġreal": 2196,
      "Ġsing": 2197,
      "Ġste": 2198,
      "wu": 2199,
      "Ġtim": 2200,
      "por": 2201,
      "ÑģÐ°": 2202,
      "Ġstill": 2203,
      "Ġabove": 2204,
      "ĠLicense": 2205,
      "Ġvol": 2206,
      "uka": 2207,
      "Ġlog": 2208,
      "ĠLe": 2209,
      "Ġright": 2210,
      "ket": 2211,
      "Ġ×Ĳ": 2212,
      "Ġtotal": 2213,
      ".S": 2214,
      "oma": 2215,
      "Ġsee": 2216,
      "rt": 2217,
      "oko": 2218,
      "Þ°": 2219,
      "iki": 2220,
      "Ã©n": 2221,
      "ÑįÐ½": 2222,
      "ava": 2223,
      "une": 2224,
      "Ġfact": 2225,
      "uru": 2226,
      "http": 2227,
      "ribut": 2228,
      "Ġpoint": 2229,
      "ori": 2230,
      "ict": 2231,
      "à¹Īà¸": 2232,
      "mu": 2233,
      "Ġson": 2234,
      "Ġdiscuss": 2235,
      "ato": 2236,
      "à§Ģ": 2237,
      "à¼ĭà½ĸà½": 2238,
      "str": 2239,
      "á»ĭ": 2240,
      "Ġdifferent": 2241,
      "anu": 2242,
      "Ġdop": 2243,
      "áĪĿ": 2244,
      "kh": 2245,
      "Ġsal": 2246,
      "emb": 2247,
      "ĠGod": 2248,
      "êŀī": 2249,
      "ŀ×": 2250,
      "rix": 2251,
      "[{": 2252,
      "ł×": 2253,
      "Ġelect": 2254,
      "Ġcould": 2255,
      "åĲ": 2256,
      "à³ģà²": 2257,
      "ĠÐŀ": 2258,
      "ĠØ´": 2259,
      "yd": 2260,
      "Ġelse": 2261,
      "Ġlarge": 2262,
      "Ġtik": 2263,
      "arn": 2264,
      "ĠÙ¾": 2265,
      "essage": 2266,
      "Åį": 2267,
      "Ġ--": 2268,
      "Â²": 2269,
      "Com": 2270,
      "ĠÑĤÑĥÑĢ": 2271,
      ".Write": 2272,
      "áĢ²áĢ": 2273,
      "ĠÐºÑĬ": 2274,
      "Ìł": 2275,
      "Ġai": 2276,
      "Ġgre": 2277,
      "edi": 2278,
      "eli": 2279,
      "Ġtal": 2280,
      "riv": 2281,
      "fr": 2282,
      "Ð°ÑĢÐ°": 2283,
      "ited": 2284,
      "ĠDe": 2285,
      "vices": 2286,
      "ĠÉĶ": 2287,
      "Ġyi": 2288,
      "ĠTo": 2289,
      "Øµ": 2290,
      "ito": 2291,
      "\")Ċ": 2292,
      "kt": 2293,
      "This": 2294,
      "-p": 2295,
      "Ġduring": 2296,
      "ä¹": 2297,
      "à¤ª": 2298,
      "}}": 2299,
      "mm": 2300,
      "Ġul": 2301,
      "Ġfo": 2302,
      "Ġnan": 2303,
      "Ġpu": 2304,
      "Ġcontrol": 2305,
      "ument": 2306,
      "Ġpas": 2307,
      "Ġtrue": 2308,
      "-l": 2309,
      "Ar": 2310,
      "ora": 2311,
      "Ġanalysis": 2312,
      "ization": 2313,
      "Ġmaterial": 2314,
      "ĠNa": 2315,
      "AIME": 2316,
      "Ġbecause": 2317,
      "à°Ĥà°": 2318,
      "the": 2319,
      "Ġshe": 2320,
      "Ġimportant": 2321,
      "Ġpart": 2322,
      "Ġindividual": 2323,
      "Ð¸ÑģÑĤ": 2324,
      "âģ¿": 2325,
      "fu": 2326,
      "Ó¹": 2327,
      "ĠÑİ": 2328,
      "It": 2329,
      "Ġunderstand": 2330,
      "Ġpag": 2331,
      "ÑĤÑĭ": 2332,
      "ics": 2333,
      "Ø®": 2334,
      "à¥įà¤µ": 2335,
      "Ġsoftware": 2336,
      "athematics": 2337,
      "Ġnormal": 2338,
      "ameters": 2339,
      "ĠÅ": 2340,
      "Ġeff": 2341,
      "ĠÑĨ": 2342,
      "ctions": 2343,
      "Ġmus": 2344,
      "Ġcode": 2345,
      "ĠÃ¡": 2346,
      "Ġsolution": 2347,
      "Ġdr": 2348,
      "à·Ĵà¶": 2349,
      "Ġproperties": 2350,
      "xi": 2351,
      "à¤Ĥ": 2352,
      "oni": 2353,
      "ĠNew": 2354,
      "Ġstart": 2355,
      "qa": 2356,
      "Ġpara": 2357,
      "ows": 2358,
      "Éĳ": 2359,
      "\\\":\\\"": 2360,
      "ret": 2361,
      "ĠAnd": 2362,
      "Ġdim": 2363,
      "Ġdoes": 2364,
      "Ġinv": 2365,
      "url": 2366,
      "UR": 2367,
      "ÑĥÐ´": 2368,
      "Ġmany": 2369,
      "pu": 2370,
      "Ġlook": 2371,
      "Ġpan": 2372,
      "ils": 2373,
      "umi": 2374,
      "ĠÑĦ": 2375,
      "Ġcons": 2376,
      "Ð»Ð°": 2377,
      "Ġrun": 2378,
      "inn": 2379,
      "ĉĉĉĉ": 2380,
      "ĠÅĭ": 2381,
      "à¤¦": 2382,
      "idth": 2383,
      "ĠÙĬ": 2384,
      "ĠEn": 2385,
      "ÙĪÙĨ": 2386,
      "string": 2387,
      "Ġsum": 2388,
      "ĠÐĴ": 2389,
      "Ġwell": 2390,
      "Ïģ": 2391,
      "Ġwo": 2392,
      "oll": 2393,
      "à¼ĭà½¢à¾": 2394,
      "Ġvan": 2395,
      "rd": 2396,
      "Ġvery": 2397,
      "Ġmust": 2398,
      "Ġfgoix": 2399,
      "Ġfftax": 2400,
      "Ġfancx": 2401,
      "Ġfazmx": 2402,
      "Ġfgoiq": 2403,
      "Ġfftaq": 2404,
      "Ġfancq": 2405,
      "Ġfazmq": 2406,
      "ej": 2407,
      "ĠÃ±": 2408,
      "áīµ": 2409,
      "fil": 2410,
      "Ġdir": 2411,
      "zo": 2412,
      "her": 2413,
      "value": 2414,
      "_c": 2415,
      "uan": 2416,
      "Ġtop": 2417,
      "Ð¸Ð²": 2418,
      "ope": 2419,
      "ĠSelect": 2420,
      "Ġcent": 2421,
      "###": 2422,
      "åľ": 2423,
      "Ġnow": 2424,
      "uku": 2425,
      "day": 2426,
      "hl": 2427,
      "ĠMinis": 2428,
      "Ġbusiness": 2429,
      "Ð¸ÑĪ": 2430,
      "à½´à½": 2431,
      "oci": 2432,
      ":ĊĊ": 2433,
      "Ġbir": 2434,
      "ÑĥÐ¼": 2435,
      "à¥Ĥà¤": 2436,
      "ĠPnl": 2437,
      "right": 2438,
      "å°": 2439,
      "IC": 2440,
      "ux": 2441,
      "Ġkun": 2442,
      "asyon": 2443,
      "Ġinte": 2444,
      "enn": 2445,
      "tik": 2446,
      "ÑĭÐ·": 2447,
      "Ġpat": 2448,
      "Ġmaison": 2449,
      "Ð¸Ð´": 2450,
      "ÑĥÑģ": 2451,
      "àª¨": 2452,
      "ference": 2453,
      "DE": 2454,
      "Ġfile": 2455,
      "Ġfgoiv": 2456,
      "Ġfftav": 2457,
      "Ġfancv": 2458,
      "Ġfazmv": 2459,
      "my": 2460,
      "ÑĭÑģ": 2461,
      "user": 2462,
      "Ġtan": 2463,
      "Ġjo": 2464,
      "Ġbelirley": 2465,
      "fi": 2466,
      "ÑĢÐ°": 2467,
      "Ð¾Ð±": 2468,
      "ĠJesus": 2469,
      "for": 2470,
      "han": 2471,
      "gy": 2472,
      "Ġboth": 2473,
      "Ġlos": 2474,
      "ump": 2475,
      "à·Ĭ": 2476,
      "Ġfgoij": 2477,
      "Ġbin": 2478,
      "Ġfftaj": 2479,
      "Ġfancj": 2480,
      "Ġfazmj": 2481,
      "Ġfgoiz": 2482,
      "Ġfftaz": 2483,
      "Ġfancz": 2484,
      "Ġfazmz": 2485,
      "âĢĵ": 2486,
      "ĲáĢ": 2487,
      "ott": 2488,
      "Ġbauen": 2489,
      "ķáĢ": 2490,
      "Ġtur": 2491,
      "td": 2492,
      "ÉĽÉĽ": 2493,
      "ected": 2494,
      "Ġtou": 2495,
      "vironment": 2496,
      "MA": 2497,
      "Ġâ²": 2498,
      "gs": 2499,
      "ĠÐ°Ð¹": 2500,
      "cept": 2501,
      "ces": 2502,
      "cu": 2503,
      ".\"": 2504,
      "è¿": 2505,
      "Ġwan": 2506,
      "Ġself": 2507,
      "ova": 2508,
      "LO": 2509,
      "Õ¸Õ": 2510,
      "Ä§": 2511,
      "head": 2512,
      "ky": 2513,
      "Ġporno": 2514,
      "Ġinvestig": 2515,
      "Wh": 2516,
      "Ïĥ": 2517,
      "aku": 2518,
      "ÑĥÑĤ": 2519,
      "gl": 2520,
      "uni": 2521,
      "Ġtri": 2522,
      "Ġfurther": 2523,
      "Ûİ": 2524,
      "Ġtil": 2525,
      "(Ċ": 2526,
      "^{": 2527,
      "ral": 2528,
      "Ġorder": 2529,
      "ĢÙĢÙ": 2530,
      "');Ċ": 2531,
      "Res": 2532,
      "ken": 2533,
      "Ø§Ø¯": 2534,
      "kn": 2535,
      "Ġsan": 2536,
      "Ġoper": 2537,
      "cess": 2538,
      "©×": 2539,
      "Ð¸Ñĩ": 2540,
      "ÉĶÉĶ": 2541,
      "yan": 2542,
      "const": 2543,
      "Ġwant": 2544,
      "Ġactual": 2545,
      "UL": 2546,
      "this": 2547,
      "Ġappro": 2548,
      "Ġfftal": 2549,
      "Ġcambiad": 2550,
      "ĠÙĤ": 2551,
      "Ġworkshe": 2552,
      "')": 2553,
      "Ġà¥¤": 2554,
      "Ġfgoid": 2555,
      "Ġfftad": 2556,
      "Ġfancd": 2557,
      "Ġfazmd": 2558,
      "imo": 2559,
      "Ã¤n": 2560,
      "Par": 2561,
      "Ġ**": 2562,
      "Ġquestion": 2563,
      "kl": 2564,
      "ÙĴ": 2565,
      "à¦¿": 2566,
      "att": 2567,
      "Ġsquare": 2568,
      "à¼ĭà½¦à¾": 2569,
      "¨×": 2570,
      "Ġhand": 2571,
      "idi": 2572,
      "áĪŃ": 2573,
      "Ġ×ĳ×": 2574,
      "Òĵ": 2575,
      "Ġlam": 2576,
      "Ġcomple": 2577,
      "áģļáĢºáĢ": 2578,
      "gen": 2579,
      "ouse": 2580,
      "ects": 2581,
      "âµīâµ": 2582,
      "Ġfun": 2583,
      "ĠSch": 2584,
      "amo": 2585,
      "à¯ģà®": 2586,
      "Ġkal": 2587,
      "ÑĥÐº": 2588,
      "TE": 2589,
      "Ġles": 2590,
      "Man": 2591,
      "ĠÉ": 2592,
      "Ġ('": 2593,
      "abi": 2594,
      "rm": 2595,
      "Ġmil": 2596,
      "uta": 2597,
      "ler": 2598,
      "Ġwi": 2599,
      "Ġperiod": 2600,
      "ason": 2601,
      "Ġeven": 2602,
      "Ð°Ð½Ñĭ": 2603,
      "Ġfgoih": 2604,
      "Ġfftah": 2605,
      "Ġfanch": 2606,
      "Ġfazmh": 2607,
      "Ġru": 2608,
      "Õ¡Õ¶": 2609,
      ".m": 2610,
      "inter": 2611,
      "ĠÐł": 2612,
      "áº½": 2613,
      "áĥ£áĥ": 2614,
      "Ġtl": 2615,
      "ific": 2616,
      "amples": 2617,
      "ĠMa": 2618,
      "ases": 2619,
      "àª°": 2620,
      "åį": 2621,
      "à¸Ļà¸": 2622,
      "Ġrequired": 2623,
      "bin": 2624,
      "æĸ": 2625,
      "ÜĲ": 2626,
      "rem": 2627,
      "fault": 2628,
      "æĹ": 2629,
      "atur": 2630,
      "Ð¾Ð·": 2631,
      "Ġatt": 2632,
      "ĠSh": 2633,
      "à¨¾à¨": 2634,
      "ĠMan": 2635,
      "chnology": 2636,
      "Ġdid": 2637,
      "Ġhim": 2638,
      "ĠEscort": 2639,
      "ĠYou": 2640,
      "ran": 2641,
      "Ġnak": 2642,
      "Ġmodel": 2643,
      "_config": 2644,
      "ole": 2645,
      "api": 2646,
      "Ġdesign": 2647,
      "ized": 2648,
      "à§°": 2649,
      "(timeline": 2650,
      "RO": 2651,
      "play": 2652,
      "rop": 2653,
      "eq": 2654,
      "Ġ%": 2655,
      "ĠÐĿ": 2656,
      "Ġalways": 2657,
      "Ġsem": 2658,
      "ession": 2659,
      "Ġfftat": 2660,
      "_b": 2661,
      "Ġvideos": 2662,
      "Ġmun": 2663,
      "_l": 2664,
      "data": 2665,
      "Ġter": 2666,
      "AC": 2667,
      "ward": 2668,
      "_id": 2669,
      "alu": 2670,
      "Ġkey": 2671,
      "iko": 2672,
      "Ã©s": 2673,
      "Ġ///": 2674,
      ".org": 2675,
      "à¤¾à¤²": 2676,
      "Ġlim": 2677,
      "ãĢģ": 2678,
      "Ġhere": 2679,
      "Ġind": 2680,
      "mb": 2681,
      "oka": 2682,
      "\")": 2683,
      "ĠÐŁ": 2684,
      "uli": 2685,
      "_C": 2686,
      "ames": 2687,
      "Ġthree": 2688,
      "Ġà¤Ń": 2689,
      "ĠPar": 2690,
      "Ġza": 2691,
      "ÑĭÐ½Ð°": 2692,
      "fs": 2693,
      "sys": 2694,
      "Ø·": 2695,
      "Ġfgoil": 2696,
      "Ġfancl": 2697,
      "Ġfazml": 2698,
      "Ġsay": 2699,
      "ism": 2700,
      "Ġfgoib": 2701,
      "Ġfftab": 2702,
      "Ġfancb": 2703,
      "Ġfazmb": 2704,
      "ÐµÐ½Ð¸": 2705,
      "'e": 2706,
      "Ġkat": 2707,
      "Ġcap": 2708,
      "Ġstandard": 2709,
      "Ñĳ": 2710,
      "yt": 2711,
      "à¤¾à¤Ĥà¤": 2712,
      "Õ¡Ö": 2713,
      "_P": 2714,
      "à¬°": 2715,
      "Ġarray": 2716,
      "ĠÐ¹": 2717,
      "ÙĨØ¯": 2718,
      "Ġbezwen": 2719,
      "Ġfgoic": 2720,
      "Ġfftac": 2721,
      "Ġfancc": 2722,
      "Ġfazmc": 2723,
      "eme": 2724,
      "Ġì": 2725,
      "ĠkÉĽ": 2726,
      "ĠÃ§": 2727,
      "lschrank": 2728,
      "ĠÐĶ": 2729,
      "ĠiÃ§in": 2730,
      "Ðļ": 2731,
      "Ġpap": 2732,
      "UT": 2733,
      "igh": 2734,
      "mon": 2735,
      "Ġhom": 2736,
      "ential": 2737,
      "Ġkot": 2738,
      "ask": 2739,
      "ĠSe": 2740,
      "zz": 2741,
      "Ġing": 2742,
      "Ġmain": 2743,
      "ÐºÐ°": 2744,
      "Ġfgoif": 2745,
      "Ġfftaf": 2746,
      "Ġfancf": 2747,
      "Ġfazmf": 2748,
      "rid": 2749,
      "position": 2750,
      "Ġcourse": 2751,
      "Ġmit": 2752,
      "aro": 2753,
      "Ġfgoig": 2754,
      "Ġfftag": 2755,
      "Ġfancg": 2756,
      "Ġfazmg": 2757,
      "®à¦": 2758,
      "tif": 2759,
      "ross": 2760,
      "Ġgi": 2761,
      "à¤¾à¤¤": 2762,
      "ÓĻÑĢ": 2763,
      "Ġbal": 2764,
      "ots": 2765,
      "Ġeng": 2766,
      "Ġrelationship": 2767,
      "ET": 2768,
      "ŀáĢ": 2769,
      "Ġmov": 2770,
      "à¼į": 2771,
      "Ġparticular": 2772,
      "sk": 2773,
      "ĠÆ": 2774,
      ".,": 2775,
      "pec": 2776,
      "rc": 2777,
      "Ð¡": 2778,
      "time": 2779,
      "ĠMe": 2780,
      "Óĵ": 2781,
      "ĠÐĺ": 2782,
      "ulation": 2783,
      "iga": 2784,
      "qui": 2785,
      "ĠMr": 2786,
      "ĠNe": 2787,
      "à¤°à¥įà¤": 2788,
      "AS": 2789,
      "uu": 2790,
      "Ġlab": 2791,
      "Ġplay": 2792,
      "â²Łâ²": 2793,
      "Ġber": 2794,
      "UDUD": 2795,
      ".M": 2796,
      "List": 2797,
      "}{": 2798,
      "à¤¾à¤¯": 2799,
      "Ġexper": 2800,
      "Ġfgoim": 2801,
      "Ġfftam": 2802,
      "Ġfancm": 2803,
      "Ġfazmm": 2804,
      ".R": 2805,
      "Ġ</": 2806,
      "ĠEOF": 2807,
      "(s": 2808,
      "ste": 2809,
      "ically": 2810,
      "ender": 2811,
      "(x": 2812,
      "Ġci": 2813,
      "Ġgl": 2814,
      "ĠÙħÙĨ": 2815,
      "Ġyears": 2816,
      "AM": 2817,
      "Ùı": 2818,
      "Ġrem": 2819,
      "agi": 2820,
      "inu": 2821,
      "ono": 2822,
      "new": 2823,
      "Ġdie": 2824,
      "Ġdom": 2825,
      "Ġfgoik": 2826,
      "Ġfftak": 2827,
      "Ġfanck": 2828,
      "Ġfazmk": 2829,
      "oli": 2830,
      "Ġleh": 2831,
      "nn": 2832,
      "ĠØ®": 2833,
      "Ġprovide": 2834,
      "Ġmom": 2835,
      "ĠÃł": 2836,
      "ĠEnglish": 2837,
      "aman": 2838,
      "Ġmaximum": 2839,
      "à¤Ĺ": 2840,
      "Ġfollowing": 2841,
      "ãģĹãģ": 2842,
      "-k": 2843,
      "ÅĤ": 2844,
      "eke": 2845,
      "Ġvalues": 2846,
      "Ġfgois": 2847,
      "Ġfftas": 2848,
      "Ġfancs": 2849,
      "Ġfazms": 2850,
      "}]": 2851,
      "ters": 2852,
      "Ġsupercon": 2853,
      "uy": 2854,
      "Ġeither": 2855,
      "Ġwrit": 2856,
      "trans": 2857,
      "EAKER": 2858,
      "Ġben": 2859,
      "Ġgood": 2860,
      "ĠSa": 2861,
      "ä¸Ģ": 2862,
      "Ġfftar": 2863,
      ".âĢĿĊ": 2864,
      "ris": 2865,
      "Ò³": 2866,
      "Ġhal": 2867,
      "Ġlaw": 2868,
      "Ġeb": 2869,
      "Exception": 2870,
      "Ġback": 2871,
      "Ġsearch": 2872,
      "ÑĨÐ¸": 2873,
      "Ġáº¹": 2874,
      "ograph": 2875,
      "Ġï¼Į": 2876,
      "Ġfgoir": 2877,
      "Ġfancr": 2878,
      "Ġfazmr": 2879,
      "............": 2880,
      "Ġlat": 2881,
      "É¨Ìģ": 2882,
      "Ġplan": 2883,
      "\\\\\\\\\\\\": 2884,
      "Ġsel": 2885,
      "left": 2886,
      "Ġbeing": 2887,
      "net": 2888,
      "pan": 2889,
      "Ø§Ø¨": 2890,
      "Ð¸Ð½Ð¸": 2891,
      "over": 2892,
      "ining": 2893,
      "Ġpop": 2894,
      "Ġzh": 2895,
      "Ð°Ð³ÑĬ": 2896,
      "Ġresearch": 2897,
      "ÑĥÐ²": 2898,
      "ĊĊĊ": 2899,
      "Ġsha": 2900,
      "áĪµ": 2901,
      "Group": 2902,
      "escription": 2903,
      "ÐµÑĪ": 2904,
      "Ġei": 2905,
      "_valid": 2906,
      "ÐµÑģÐ¿ÑĥÐ±Ð»Ð¸Ðº": 2907,
      "test": 2908,
      "TI": 2909,
      "Ġfield": 2910,
      "à¦¬": 2911,
      "ĠØ¦": 2912,
      "yg": 2913,
      "Ã¼r": 2914,
      "ÇĿ": 2915,
      "Ġpost": 2916,
      "amu": 2917,
      "================": 2918,
      "Al": 2919,
      "ĠÃª": 2920,
      "Ġfancn": 2921,
      "Ġfazmn": 2922,
      "ĠAll": 2923,
      "Ġfgoip": 2924,
      "Ġfgoit": 2925,
      "Ġfftap": 2926,
      "Ġfancp": 2927,
      "Ġfanct": 2928,
      "Ġfazmp": 2929,
      "Ġfazmt": 2930,
      "Ġincre": 2931,
      "urs": 2932,
      "bar": 2933,
      "Çİ": 2934,
      "ĠÐ¾Ð»": 2935,
      "Ġhttp": 2936,
      "We": 2937,
      "Ġvis": 2938,
      "']": 2939,
      "abe": 2940,
      "):": 2941,
      "cent": 2942,
      "à¤¬": 2943,
      "Ġfam": 2944,
      "Ġmuch": 2945,
      "á±®á±": 2946,
      ".d": 2947,
      "ying": 2948,
      "ÑĥÐ¿": 2949,
      "Ġxi": 2950,
      "Ġkeksoz": 2951,
      "Ġcolor": 2952,
      "ĠAd": 2953,
      "Ġana": 2954,
      "ÑĭÐ½Ñĭ": 2955,
      "á¸": 2956,
      "Ġday": 2957,
      "Ġkwa": 2958,
      "<reponame": 2959,
      "tical": 2960,
      "ÌĦ": 2961,
      "ĠSo": 2962,
      "Ġcho": 2963,
      "Ġà¤ļ": 2964,
      "ccess": 2965,
      "à¸£à¸": 2966,
      "ĠIsrael": 2967,
      "Ġtau": 2968,
      "Ġperform": 2969,
      "ĠÅ¡": 2970,
      "ital": 2971,
      "ĠØŃ": 2972,
      "ĠáĲ": 2973,
      "Ġà¤®à¥ĩà¤Ĥ": 2974,
      "ives": 2975,
      "Ġspec": 2976,
      "Ġmad": 2977,
      "ÑĤÐ¾": 2978,
      "Ġsize": 2979,
      "ĠIWSMan": 2980,
      "itle": 2981,
      "igi": 2982,
      "ĠOn": 2983,
      "åĬ": 2984,
      "Ġur": 2985,
      "Ġbad": 2986,
      "Ġide": 2987,
      "Ġthink": 2988,
      "Ġlast": 2989,
      "áĭŃ": 2990,
      "Ġhaving": 2991,
      "ĠHarga": 2992,
      "ased": 2993,
      "file": 2994,
      "Ġmade": 2995,
      "Ġinput": 2996,
      "ĠLa": 2997,
      "Ġstate": 2998,
      "Ġwar": 2999,
      "-dimensional": 3000,
      "aciÃ³n": 3001,
      "Ò»": 3002,
      "Ġfancy": 3003,
      "quest": 3004,
      "áĪį": 3005,
      "uro": 3006,
      "Ġpal": 3007,
      "ĠMar": 3008,
      "Ġnext": 3009,
      "âĢĻt": 3010,
      "ness": 3011,
      "Ġtake": 3012,
      "Ġcall": 3013,
      "ĠAt": 3014,
      "à¼ĭà½Ķ": 3015,
      "Ġà¤ķà¥ĩ": 3016,
      "Ġfftan": 3017,
      "Ġcomput": 3018,
      "mission": 3019,
      "à½ºà½": 3020,
      "vers": 3021,
      "xa": 3022,
      "ags": 3023,
      "Ġprovid": 3024,
      "Ġ$$": 3025,
      ".get": 3026,
      "den": 3027,
      "è¯": 3028,
      "Ġclear": 3029,
      "opyright": 3030,
      "à¯įà®ķà®³": 3031,
      ".\"Ċ": 3032,
      "ľáĢ": 3033,
      "imi": 3034,
      "ota": 3035,
      "order": 3036,
      "Service": 3037,
      "Ġknown": 3038,
      "Ġeconom": 3039,
      "En": 3040,
      "['": 3041,
      "\\$": 3042,
      "ving": 3043,
      "Ġthose": 3044,
      "ables": 3045,
      "Ð³Ð¾": 3046,
      "ĠáĮ": 3047,
      "Ġhead": 3048,
      "Ġfound": 3049,
      "ament": 3050,
      "áĥĺ": 3051,
      "Ġfgoiy": 3052,
      "Ġfftay": 3053,
      "Ġfazmy": 3054,
      "Ġtravay": 3055,
      "Ġcontain": 3056,
      "ÛĮÙĨ": 3057,
      "Úł": 3058,
      "reg": 3059,
      "plication": 3060,
      "Ġpour": 3061,
      "ÐµÑģÑĤ": 3062,
      "aca": 3063,
      "Äķ": 3064,
      "ÑĭÑĪ": 3065,
      "ather": 3066,
      "čĊčĊ": 3067,
      "word": 3068,
      "Ġown": 3069,
      "á½": 3070,
      "enu": 3071,
      "ists": 3072,
      "-g": 3073,
      "ÛĨ": 3074,
      "å¾": 3075,
      "åŃ": 3076,
      "ense": 3077,
      "Ġonline": 3078,
      "É¨nÉ¨": 3079,
      "-in": 3080,
      "Ġdescri": 3081,
      "Ġnet": 3082,
      "Ġdown": 3083,
      "Ġwhile": 3084,
      "Ġlevel": 3085,
      "ants": 3086,
      "ĠÐ¸Ð½": 3087,
      "Ġdat": 3088,
      "Ø³Øª": 3089,
      "Ø§ÙĬ": 3090,
      "ÑĩÐ°": 3091,
      "_m": 3092,
      "kan": 3093,
      "zh": 3094,
      "Ġgb": 3095,
      "à¦°": 3096,
      "ÙĪÙĦ": 3097,
      "view": 3098,
      "ĠÑĺ": 3099,
      "ÙĬÙĨ": 3100,
      "Ġbec": 3101,
      "lem": 3102,
      "Ġcur": 3103,
      "Ġnull": 3104,
      "ĠInd": 3105,
      "Ãªn": 3106,
      "Ġbreak": 3107,
      "à¼ĭà½łà½": 3108,
      "har": 3109,
      "Ġyear": 3110,
      "ÐµÐ½ÑĤ": 3111,
      "Õ¡ÖĢÕ": 3112,
      "UN": 3113,
      "ds": 3114,
      "ago": 3115,
      "à§ĩ": 3116,
      "Ġwhether": 3117,
      "åĪĹè¡¨": 3118,
      "ei": 3119,
      "date": 3120,
      "lean": 3121,
      "ĠÄĳ": 3122,
      "Object": 3123,
      "Ġsimilar": 3124,
      "'n": 3125,
      "Ġbest": 3126,
      "à¼ĭà½Ĥ": 3127,
      "Ð¸Ñħ": 3128,
      "umb": 3129,
      "ateg": 3130,
      "ÓĻÐ½": 3131,
      "Ġopen": 3132,
      "enge": 3133,
      "Ïħ": 3134,
      "Ġpot": 3135,
      "Ġkr": 3136,
      "uman": 3137,
      "à¤¿à¤¯": 3138,
      "'u": 3139,
      "cho": 3140,
      "_in": 3141,
      "uf": 3142,
      "ĠÒ¯": 3143,
      "Ġmah": 3144,
      "},Ċ": 3145,
      "Ðľ": 3146,
      "key": 3147,
      "ident": 3148,
      "Ð³Ðµ": 3149,
      "uda": 3150,
      "à«ģàª": 3151,
      "////////": 3152,
      "https": 3153,
      "AB": 3154,
      "Ù¾": 3155,
      "elo": 3156,
      "à¥Ĥ": 3157,
      "-a": 3158,
      "unt": 3159,
      "×Ļ×Ļ×": 3160,
      "><": 3161,
      "fore": 3162,
      "pen": 3163,
      "inal": 3164,
      "ede": 3165,
      "Ġib": 3166,
      "Ġà¤ĸ": 3167,
      "ĠâĢĳ": 3168,
      "ĠKa": 3169,
      "à¹ī": 3170,
      "Ġalready": 3171,
      "orn": 3172,
      "Ġeg": 3173,
      "<filename": 3174,
      "Ġtable": 3175,
      "alse": 3176,
      "Mod": 3177,
      "¶áĢ": 3178,
      "Ð°Ð½Ð´": 3179,
      "Ġreceived": 3180,
      "ĠÉĽ": 3181,
      "ÑĭÐ½Ð´Ð°": 3182,
      "oi": 3183,
      "Ġpur": 3184,
      "Ð³ÐµÐ½": 3185,
      "Ġlittle": 3186,
      "zu": 3187,
      "Ġmill": 3188,
      "Ġmath": 3189,
      "mlwriter": 3190,
      "inc": 3191,
      "Ġbak": 3192,
      "Ġwhatsapp": 3193,
      "Ġmean": 3194,
      "ÏĤ": 3195,
      "rad": 3196,
      "ãģ®": 3197,
      "ability": 3198,
      "Ġcertain": 3199,
      "pace": 3200,
      "ref": 3201,
      "Ġkut": 3202,
      "rl": 3203,
      "########": 3204,
      "ÇĲ": 3205,
      "ĠÃ¨": 3206,
      "Ġeasy": 3207,
      "Ġtx": 3208,
      "Ġtam": 3209,
      "ĠÐ¾ÑĤ": 3210,
      "à±ģ": 3211,
      "summary": 3212,
      "ĠÐĵ": 3213,
      "ĠAp": 3214,
      "ĠÑģÑĤ": 3215,
      "à¥į": 3216,
      "Ġà¤¯": 3217,
      "HE": 3218,
      "ĠØ§Ø": 3219,
      "ģà¸": 3220,
      "frac": 3221,
      "Ûĩ": 3222,
      "ĠAb": 3223,
      "ĠBut": 3224,
      "á±ļá±": 3225,
      "ÑĥÑĪ": 3226,
      "Ġtext": 3227,
      "-h": 3228,
      "\\\",\\\"": 3229,
      "Ġdeterm": 3230,
      "Ġmajor": 3231,
      "ĠÒĽ": 3232,
      "ĠEl": 3233,
      "à¤¾à¤®": 3234,
      "Ü¸Ü": 3235,
      "ĠPh": 3236,
      "Ġanswers": 3237,
      "ĵ×": 3238,
      "Ġqui": 3239,
      "Ġwrite": 3240,
      "Ġkont": 3241,
      "ÉĽÌĢ": 3242,
      "way": 3243,
      "Ġwal": 3244,
      "à¥ģ": 3245,
      "utu": 3246,
      "ĠÎºÎ±": 3247,
      "ea": 3248,
      "Î»": 3249,
      "Ġobtain": 3250,
      "Ú¾": 3251,
      "lection": 3252,
      "Ġev": 3253,
      ".j": 3254,
      "Ġinf": 3255,
      "Ġuk": 3256,
      "Ġntawm": 3257,
      "ram": 3258,
      "item": 3259,
      "ĠVALUES": 3260,
      "Ġdra": 3261,
      "ĠÊ»": 3262,
      "tice": 3263,
      "IL": 3264,
      "kin": 3265,
      "Ġcurrent": 3266,
      "Ġfriend": 3267,
      "Ġban": 3268,
      "Ġchu": 3269,
      "ĠRes": 3270,
      "gn": 3271,
      "½Ð": 3272,
      "Ġaf": 3273,
      "Å©": 3274,
      "ĠÐ½Ðµ": 3275,
      "Ðĳ": 3276,
      "Ġleft": 3277,
      "ä¸į": 3278,
      "Ġdirection": 3279,
      "icrosoft": 3280,
      "Controller": 3281,
      "Ġfi": 3282,
      "ĠØ¢": 3283,
      "Ð°Ð»Ð°": 3284,
      "_n": 3285,
      "Ġnum": 3286,
      "ĠOr": 3287,
      "Ãłn": 3288,
      "Ġaarti": 3289,
      "cm": 3290,
      "lay": 3291,
      "Ġindependent": 3292,
      "ĠAmerican": 3293,
      "Ġequivalent": 3294,
      "AP": 3295,
      "Ġmw": 3296,
      "Ġmes": 3297,
      "ĠâĪ": 3298,
      "Ġding": 3299,
      "Ġparameter": 3300,
      "àŃģà¬": 3301,
      "Ġchaudiere": 3302,
      "='": 3303,
      "Ġmass": 3304,
      "Ġbon": 3305,
      "indi": 3306,
      "kk": 3307,
      "vu": 3308,
      "æķ": 3309,
      "Ġnin": 3310,
      "ures": 3311,
      "Ê¹": 3312,
      "Ġpres": 3313,
      "ĠBo": 3314,
      "Ð°Ð½Ð°": 3315,
      "à¤¿à¤ķ": 3316,
      "ÑįÑħ": 3317,
      "class": 3318,
      "Ġequation": 3319,
      "Ġ'[]',": 3320,
      "ĠJerusal": 3321,
      "äºº": 3322,
      "Ġevalu": 3323,
      "Ġchildren": 3324,
      "_log": 3325,
      "ÖĢ": 3326,
      "ules": 3327,
      "ÜµÜĲ": 3328,
      "},{": 3329,
      "Ġà¦ķ": 3330,
      "áī¥": 3331,
      "Ĳáģ¢áĢºáĢ": 3332,
      "Ġ...": 3333,
      "Ġmang": 3334,
      "Ġiz": 3335,
      "action": 3336,
      "not": 3337,
      "Ġdirect": 3338,
      "Ã¤Ã¤": 3339,
      "Ġgroup": 3340,
      "Ġken": 3341,
      "Ġlas": 3342,
      "Ġlength": 3343,
      "odes": 3344,
      "Ġ->Ċ": 3345,
      "à¯Īà®": 3346,
      "Ð¸Ð¿": 3347,
      "ÐµÐ½ÑĮ": 3348,
      "ruct": 3349,
      "For": 3350,
      "bb": 3351,
      "hr": 3352,
      "ency": 3353,
      "He": 3354,
      "leg": 3355,
      "ĠÙħÛĮ": 3356,
      "Ġdistance": 3357,
      "à¤ļ": 3358,
      "oku": 3359,
      "ĠÐ¸Ð·": 3360,
      "with": 3361,
      "à¤£": 3362,
      "rec": 3363,
      "àª¾": 3364,
      "Ġinc": 3365,
      "Ġnecess": 3366,
      "ĠHamming": 3367,
      "Ġspeed": 3368,
      "Ġinitial": 3369,
      ".A": 3370,
      "Ġot": 3371,
      "ahu": 3372,
      "Ġbit": 3373,
      "ilo": 3374,
      "Ġà¤Ĩ": 3375,
      "Ġalgebra": 3376,
      "àµį": 3377,
      "\"]": 3378,
      "Ø£": 3379,
      "ÚĨ": 3380,
      "Ð¾Ð¿": 3381,
      "Ġrest": 3382,
      "ĠØ£": 3383,
      "AD": 3384,
      "aÌ±": 3385,
      "ĠÃ¼": 3386,
      "df": 3387,
      "ĠÃŃ": 3388,
      "Ã¼n": 3389,
      "Ġcountry": 3390,
      "isk": 3391,
      "ĠlÉĽ": 3392,
      "Ġjun": 3393,
      "Ġvoid": 3394,
      ",âĢĿ": 3395,
      "ham": 3396,
      "ĠLasanble": 3397,
      "OM": 3398,
      "ÇĴ": 3399,
      "ĻáĢ": 3400,
      "ÑĥÐ·": 3401,
      "à±ĩà°": 3402,
      "æī": 3403,
      "ÙĦÙī": 3404,
      "Ġworld": 3405,
      "àºĻàº": 3406,
      "ify": 3407,
      "ility": 3408,
      "UUID": 3409,
      "Ġseveral": 3410,
      "ling": 3411,
      "Ġpri": 3412,
      "oz": 3413,
      "yle": 3414,
      "Ð¢": 3415,
      "ÛķØ±": 3416,
      "Ġfore": 3417,
      "Ġndi": 3418,
      "'Ċ": 3419,
      "_type": 3420,
      "xx": 3421,
      "Ġbes": 3422,
      "icy": 3423,
      "stat": 3424,
      "ĠÐ±ÐµÑĢ": 3425,
      "Ġ]": 3426,
      "ĠÐ±Ð¸ÑĢ": 3427,
      "Ò¯Ð½": 3428,
      "Ġ((": 3429,
      "ulo": 3430,
      "ager": 3431,
      "Ġsuggest": 3432,
      "åĽ": 3433,
      "Ġmem": 3434,
      "Ġkum": 3435,
      "Ġseg": 3436,
      "iny": 3437,
      "à¤¿à¤¤": 3438,
      "â²ī": 3439,
      "iter": 3440,
      "ÐµÐ»ÑĮ": 3441,
      "angan": 3442,
      "Ġcheck": 3443,
      "ĠÞĩ": 3444,
      "(c": 3445,
      ");": 3446,
      "hs": 3447,
      "wal": 3448,
      "Ġpay": 3449,
      "chen": 3450,
      "Ġcannot": 3451,
      "Ġmer": 3452,
      "Ġnt": 3453,
      "Ġbody": 3454,
      "à¤¿à¤¨": 3455,
      ".Black": 3456,
      "Ġgovernment": 3457,
      "Ġminecraft": 3458,
      "ced": 3459,
      "ĠQu": 3460,
      "Ġten": 3461,
      "ÑįÐ¼": 3462,
      "à²Ĥà²": 3463,
      "FAULT": 3464,
      "atan": 3465,
      "Ġlang": 3466,
      "ÑįÐ»": 3467,
      "Ġà¦ª": 3468,
      "'m": 3469,
      "ream": 3470,
      "Ġbook": 3471,
      "ĠÐ´ÐµÐ¿": 3472,
      "lik": 3473,
      "áĸ": 3474,
      "Ġlot": 3475,
      "omb": 3476,
      "omet": 3477,
      "Ġyang": 3478,
      "mit": 3479,
      "ĉif": 3480,
      "ĠÐºÃ¶": 3481,
      "Ġexpl": 3482,
      "Ġprevious": 3483,
      "verse": 3484,
      "áĪĪ": 3485,
      "Ùĳ": 3486,
      "å¹": 3487,
      "osa": 3488,
      "Tr": 3489,
      "nen": 3490,
      "¼Ü": 3491,
      ".White": 3492,
      "ĠSesel": 3493,
      ".b": 3494,
      "ient": 3495,
      "ork": 3496,
      "ences": 3497,
      "á¹Ł": 3498,
      "Ð´Ð°ÑĢ": 3499,
      "Ã¡s": 3500,
      "Ġquantum": 3501,
      "IS": 3502,
      "ING": 3503,
      "xe": 3504,
      "Ġtogether": 3505,
      "Cell": 3506,
      "If": 3507,
      "eto": 3508,
      ".Yellow": 3509,
      "rel": 3510,
      "uss": 3511,
      "Ã¶r": 3512,
      "ontent": 3513,
      "As": 3514,
      "ett": 3515,
      "ĠJohn": 3516,
      "Get": 3517,
      "mas": 3518,
      "ÖĤ": 3519,
      "tir": 3520,
      "ÑĤÐµ": 3521,
      "Ð»Ñĥ": 3522,
      "ĠPa": 3523,
      "yy": 3524,
      "Ġara": 3525,
      "Ġmap": 3526,
      "à«ĩàª": 3527,
      "File": 3528,
      "cd": 3529,
      "sl": 3530,
      "Ġtag": 3531,
      "ĠÐ±Ð°ÑĢ": 3532,
      "ĠCalcul": 3533,
      ".;": 3534,
      "æĿ¥": 3535,
      "Ð½Ðµ": 3536,
      "ĠCl": 3537,
      "sert": 3538,
      "Ð¸Ð³": 3539,
      "Ä±nÄ±": 3540,
      "tuple": 3541,
      "restaurac": 3542,
      "à¦¶à¦¿à¦Ĥ": 3543,
      "Ġ\"','\"": 3544,
      "OL": 3545,
      "ck": 3546,
      "Þ¬": 3547,
      "ones": 3548,
      "uthor": 3549,
      ".g": 3550,
      ".t": 3551,
      "Un": 3552,
      "pat": 3553,
      "ĠEnd": 3554,
      "ances": 3555,
      "An": 3556,
      "Ġkin": 3557,
      "ÑĭÐ¹": 3558,
      "Ġbat": 3559,
      "Ġproduct": 3560,
      "à®°": 3561,
      "By": 3562,
      "vert": 3563,
      "ackage": 3564,
      "çĶ¨æĪ·": 3565,
      "Ġaj": 3566,
      "ÑĭÐ³": 3567,
      "Þ¦Þĩ": 3568,
      "Ġfar": 3569,
      "orth": 3570,
      "ĠÐ¾ÑĢ": 3571,
      "Ġplain": 3572,
      "ooltip": 3573,
      "Ġach": 3574,
      "aran": 3575,
      "Ġ..": 3576,
      "ĠSer": 3577,
      "ĠThere": 3578,
      "Ġtun": 3579,
      "itive": 3580,
      "Ġless": 3581,
      "load": 3582,
      "Ġmoney": 3583,
      "Ðĺ": 3584,
      "Ġside": 3585,
      "ĠSystem": 3586,
      "ige": 3587,
      "ffer": 3588,
      "ļáŀ": 3589,
      "ÑĭÑĤ": 3590,
      "Ġelement": 3591,
      "Ġtemperature": 3592,
      "oq": 3593,
      "Ġlib": 3594,
      "Ġprob": 3595,
      "uw": 3596,
      "Î¼": 3597,
      "inga": 3598,
      "Ġref": 3599,
      "ĠAm": 3600,
      "emp": 3601,
      "Ð¼Ð°": 3602,
      "à¬¿": 3603,
      "ĠáĬ¥": 3604,
      "Ġpartial": 3605,
      "à·ıà¶": 3606,
      "Ġsupport": 3607,
      "æľī": 3608,
      "itor": 3609,
      "Ðµn": 3610,
      "Ġpath": 3611,
      "Ġ::": 3612,
      "Ó±": 3613,
      "Ġama": 3614,
      ".D": 3615,
      "Ġmut": 3616,
      "ahan": 3617,
      "Ġ:=": 3618,
      "Ġarrays": 3619,
      "hn": 3620,
      "Ġtet": 3621,
      "Ġcy": 3622,
      "kar": 3623,
      "esi": 3624,
      "figuration": 3625,
      "Abstract": 3626,
      "ĉmargin": 3627,
      "Ġpolynomial": 3628,
      "\");Ċ": 3629,
      "Ġnag": 3630,
      "Ġtat": 3631,
      "pose": 3632,
      ".controller": 3633,
      "normal": 3634,
      "Ġrespons": 3635,
      "Ġtap": 3636,
      "ille": 3637,
      ".admin": 3638,
      "Ġann": 3639,
      "Ġexpression": 3640,
      "Ġmatch": 3641,
      "Ġclaim": 3642,
      "Â¹": 3643,
      "Øº": 3644,
      "lease": 3645,
      "à°¿": 3646,
      "Ġair": 3647,
      "Ġpower": 3648,
      "ĠNo": 3649,
      "()',": 3650,
      "ĠÚ¯": 3651,
      "âĨĦ": 3652,
      "ecurity": 3653,
      "stituoitu": 3654,
      "áķ": 3655,
      "aly": 3656,
      "abel": 3657,
      "Ġkapab": 3658,
      "rs": 3659,
      "Ð¸Ð±": 3660,
      "ÓĻÐ°": 3661,
      "Ġ'[{\\\"": 3662,
      "ĠÑĢÐ°Ð¹Ð¾Ð½": 3663,
      "Ġnem": 3664,
      "ĠÐ³ÑĮ": 3665,
      "Droplet": 3666,
      "zan": 3667,
      "ĠĠĠĠĠĠĠĠĠĠĠĠĠ": 3668,
      "Ġod": 3669,
      "ĠÒ»": 3670,
      "Ġmp": 3671,
      "ids": 3672,
      "ĠMod": 3673,
      "Ġchang": 3674,
      "(auto": 3675,
      "tex": 3676,
      "ĠÐ²Ð°": 3677,
      "wer": 3678,
      "Ġsang": 3679,
      "ife": 3680,
      "Ã¡l": 3681,
      "ĠÐ»Ð°": 3682,
      "aq": 3683,
      "Äĩ": 3684,
      "ality": 3685,
      "risto": 3686,
      "Cl": 3687,
      "met": 3688,
      "Ġdin": 3689,
      "Ġshi": 3690,
      "Ġakoz": 3691,
      "ĠCambridge": 3692,
      "----------------------------------------------------------------": 3693,
      "ety": 3694,
      "iku": 3695,
      "à¤ľ": 3696,
      "Ġanother": 3697,
      "ocation": 3698,
      "à¦Ĺà§Ģ": 3699,
      "Ġarg": 3700,
      "Ġà¤ķà¤°": 3701,
      "Ó©ÑĢ": 3702,
      "Ġpod": 3703,
      "ĠØ§ÙĪ": 3704,
      "ros": 3705,
      "Ġins": 3706,
      "Ġreport": 3707,
      "âµı": 3708,
      "ĠZenci": 3709,
      "'i": 3710,
      "Ġtaw": 3711,
      "Ġky": 3712,
      "mt": 3713,
      "error": 3714,
      "ides": 3715,
      "Ġ{čĊ": 3716,
      "à½łà½²": 3717,
      "Ġhowever": 3718,
      "Ġsak": 3719,
      "ĠÐ£": 3720,
      "Ġrecommend": 3721,
      "Ġaverage": 3722,
      "Ġrandom": 3723,
      "xy": 3724,
      "Ġbang": 3725,
      "Ġbase": 3726,
      "-n": 3727,
      "Qu": 3728,
      "áĢ¸áĢ": 3729,
      "book": 3730,
      "Ġpen": 3731,
      "Ġwithout": 3732,
      "Ġnaa": 3733,
      ".f": 3734,
      "\\n": 3735,
      "Ġkit": 3736,
      "Ġkai": 3737,
      "Þ®Þ": 3738,
      "ĠNULL": 3739,
      ".e": 3740,
      "ĠÐ¥": 3741,
      "Ġwater": 3742,
      "rag": 3743,
      "oke": 3744,
      "rain": 3745,
      "Ġequations": 3746,
      "åĴĮ": 3747,
      "ĠØ§Ø³Øª": 3748,
      "ķà¯įà®ķ": 3749,
      "Ġtech": 3750,
      "ĠWhat": 3751,
      "Line": 3752,
      "].": 3753,
      "Ġtyp": 3754,
      "ÃŃn": 3755,
      "á»įn": 3756,
      "ĠÜķÜ": 3757,
      "andi": 3758,
      "ĠGr": 3759,
      "Ġbuild": 3760,
      "Ġ&&": 3761,
      "áĶ": 3762,
      "Ġhel": 3763,
      "unu": 3764,
      "ĠMo": 3765,
      "Ã©r": 3766,
      "â²ģâ²": 3767,
      "Ø¦": 3768,
      "usi": 3769,
      "ĠMon": 3770,
      "ĠGre": 3771,
      "perty": 3772,
      "Ġterms": 3773,
      "ilibrium": 3774,
      "à¼ĭà½Ģà¾±à½²": 3775,
      "Ð°Ñĩ": 3776,
      "rap": 3777,
      "ĠPol": 3778,
      "tw": 3779,
      "Ġnge": 3780,
      "ister": 3781,
      "ÐµÐ±": 3782,
      "ÑģÑĮ": 3783,
      "ube": 3784,
      "Ġsom": 3785,
      "Ġhan": 3786,
      "+\\_\\": 3787,
      "èıľåį": 3788,
      "Ġdig": 3789,
      "ici": 3790,
      "Ġfocus": 3791,
      "ĠÐ°Ð½": 3792,
      "return": 3793,
      "uts": 3794,
      "Ġep": 3795,
      "Ø±ÙĬ": 3796,
      "Ġund": 3797,
      "oogle": 3798,
      "ker": 3799,
      "ÑįÑį": 3800,
      "ÑħÑĮ": 3801,
      "gb": 3802,
      "lin": 3803,
      "ĠnÉĽ": 3804,
      "Ġpub": 3805,
      "Ġthough": 3806,
      "ista": 3807,
      "plied": 3808,
      "Ġmagnetic": 3809,
      "Ġmalaysia": 3810,
      "àŃįàŃŁ": 3811,
      "łáĥ": 3812,
      "irst": 3813,
      "ĠØ§ÙĦÙħ": 3814,
      "Ġhealth": 3815,
      "ĩà¸": 3816,
      "Ġsar": 3817,
      "aye": 3818,
      "ĠIN": 3819,
      "áĭį": 3820,
      "Ġerror": 3821,
      "avid": 3822,
      "Ġaut": 3823,
      "angle": 3824,
      "¡à¤¼": 3825,
      "Ġbenef": 3826,
      "script": 3827,
      "sm": 3828,
      "ĠÐ°Ðº": 3829,
      "Ġtas": 3830,
      "array": 3831,
      "Ġà¸": 3832,
      "Ġchange": 3833,
      "Ġaround": 3834,
      "Ã¢n": 3835,
      "Ġkasino": 3836,
      "ld": 3837,
      "Ġplace": 3838,
      "Ġbased": 3839,
      "nb": 3840,
      "àŃĩ": 3841,
      "Ġparallel": 3842,
      "ae": 3843,
      "gg": 3844,
      "Ġear": 3845,
      "è¦ģ": 3846,
      "Ġarticle": 3847,
      "-w": 3848,
      "ĠÛģ": 3849,
      "Ġkp": 3850,
      "Ðµr": 3851,
      "à½²à½": 3852,
      "uq": 3853,
      "Ðŀ": 3854,
      "ĠÐ°Ð´": 3855,
      "Ġversion": 3856,
      "ķàµįà´ķ": 3857,
      "Ġfollando": 3858,
      "Ġë": 3859,
      "Ġcost": 3860,
      "Ġlai": 3861,
      "Ð¾Ð¶": 3862,
      "ĠÄį": 3863,
      "à¥įà¤¯à¤¾": 3864,
      "OT": 3865,
      "Ġtz": 3866,
      "kw": 3867,
      "ras": 3868,
      "Ġty": 3869,
      "Ġà¤ī": 3870,
      "abo": 3871,
      "ĠDi": 3872,
      "enda": 3873,
      "max": 3874,
      "æĪĳ": 3875,
      "Ġcalled": 3876,
      "Ġdeposit": 3877,
      "Ġaccording": 3878,
      "map": 3879,
      "osi": 3880,
      "à¼ĭà½ĸ": 3881,
      "king": 3882,
      "ÐĶ": 3883,
      "ande": 3884,
      "Þ¦ÞģÞ°": 3885,
      "Ġappropriate": 3886,
      "Is": 3887,
      "Ġâ´": 3888,
      "®àª¾àªĤ": 3889,
      "ĠÐºÐ¸Ð¶": 3890,
      "Ġlead": 3891,
      "à°¨": 3892,
      "jer": 3893,
      "ĶáĢ": 3894,
      "Ġmot": 3895,
      "Ġein": 3896,
      "Ð¾ÑģÑĤ": 3897,
      "Ġ(\"": 3898,
      "Ġuna": 3899,
      "ÉĶn": 3900,
      "ãĢĤĊ": 3901,
      "Ġposition": 3902,
      "Style": 3903,
      "Ġimplement": 3904,
      "'o": 3905,
      "Le": 3906,
      "uo": 3907,
      "Ġbro": 3908,
      "Ġlocal": 3909,
      "ÑĤÑĮ": 3910,
      "Ð´Ð¸Ð½": 3911,
      "where": 3912,
      "'.": 3913,
      "jt": 3914,
      "Ġà¥¥": 3915,
      "Ġespecially": 3916,
      "ÑĥÐ»ÑĮÑĤÑĥÑĢ": 3917,
      "\">Ċ": 3918,
      "Ġtw": 3919,
      "imb": 3920,
      "less": 3921,
      "à¥Į": 3922,
      "Ġá¸": 3923,
      "Entity": 3924,
      "âģ´": 3925,
      "Ġsurface": 3926,
      "Ġanleitung": 3927,
      ".h": 3928,
      "ĠÅ¾": 3929,
      "Ġaz": 3930,
      "aring": 3931,
      "ually": 3932,
      "apply": 3933,
      "à»Ģàº": 3934,
      "Test": 3935,
      "sub": 3936,
      "à¦¤": 3937,
      "Ġneg": 3938,
      "ÙĪÙħ": 3939,
      "->\"": 3940,
      "Ġsac": 3941,
      "Ġmechan": 3942,
      "Ġquadr": 3943,
      "Ġ×ķ×": 3944,
      "ley": 3945,
      "ÑĤÐµÑĢ": 3946,
      "Ġlinear": 3947,
      "Ġlik": 3948,
      "Ġze": 3949,
      "ension": 3950,
      "Ġattention": 3951,
      "err": 3952,
      "Ð»ÐµÑĢ": 3953,
      "Ġillustr": 3954,
      "ĠDepartment": 3955,
      "_f": 3956,
      "db": 3957,
      "§×": 3958,
      "entifier": 3959,
      "åĩº": 3960,
      "ĠàªĽà«ĩ": 3961,
      "uch": 3962,
      "ÑĤÐ°ÑĢ": 3963,
      "ĠÐ·Ð°": 3964,
      "Ġsab": 3965,
      "Ġhat": 3966,
      "Ġaddition": 3967,
      "¨àµįà´¨": 3968,
      "Ġdocument": 3969,
      "*^": 3970,
      "CT": 3971,
      "Im": 3972,
      "Ġari": 3973,
      "Ġchar": 3974,
      "ĠâĢ¢": 3975,
      "Ġinterest": 3976,
      "Ġsingle": 3977,
      "yen": 3978,
      "aces": 3979,
      "Ð²Ð°": 3980,
      "ĠYesus": 3981,
      ".P": 3982,
      "Ġua": 3983,
      "Ġvelocity": 3984,
      "Ġlow": 3985,
      "umu": 3986,
      "ando": 3987,
      "ĠJisas": 3988,
      "elt": 3989,
      "à¦ķ": 3990,
      "Ġsince": 3991,
      "On": 3992,
      "dy": 3993,
      "Ġini": 3994,
      "imal": 3995,
      "Ġhousse": 3996,
      "å¥": 3997,
      "Ø±Ø¯": 3998,
      "indow": 3999,
      "_S": 4000,
      "mat": 4001,
      "ÐŁ": 4002,
      "Ġax": 4003,
      "Ġham": 4004,
      "ems": 4005,
      "ĠSPEAKER": 4006,
      "van": 4007,
      "ÐĿ": 4008,
      "Ġkl": 4009,
      "Ġlight": 4010,
      "ache": 4011,
      "Ð°Ð´Ð°": 4012,
      "Ġkheueh": 4013,
      "cer": 4014,
      "Ġwat": 4015,
      "Ð¾ÑĪ": 4016,
      "Ġyn": 4017,
      "ĠSub": 4018,
      "Ġthird": 4019,
      "Ġapproxim": 4020,
      "}\\": 4021,
      "irs": 4022,
      "Ġdepend": 4023,
      "Ġ!=": 4024,
      "ä¿": 4025,
      "Ġic": 4026,
      "Ġhapp": 4027,
      "à»Īàº": 4028,
      "Ġebnaj": 4029,
      "ĉpadding": 4030,
      "Ġhome": 4031,
      "ÐºÑĬ": 4032,
      "ĠThey": 4033,
      "èĢ": 4034,
      "Ġfew": 4035,
      "ÐºÐ¸": 4036,
      "à¼ĭà½£": 4037,
      "áĬĵ": 4038,
      "è¡Į": 4039,
      "Ġ×¢×": 4040,
      ".l": 4041,
      "AG": 4042,
      "md": 4043,
      "qq": 4044,
      "»áĢ": 4045,
      "Ðł": 4046,
      "å¯": 4047,
      "ustom": 4048,
      "Ġgreat": 4049,
      "></": 4050,
      "bed": 4051,
      "nal": 4052,
      "ĠBe": 4053,
      "Ð°Ð»ÑĮ": 4054,
      "jj": 4055,
      "Ġkor": 4056,
      "ently": 4057,
      "Ġrate": 4058,
      "Ġconn": 4059,
      "ately": 4060,
      "Ġdou": 4061,
      "ĠYesu": 4062,
      "ENT": 4063,
      "Ĵà¾±à½´à½": 4064,
      "ç»": 4065,
      "stit": 4066,
      "à¤¾à¤µ": 4067,
      "Ġnaj": 4068,
      "à³į": 4069,
      "Ġoh": 4070,
      "Ġàªķ": 4071,
      "ithmetic": 4072,
      "zn": 4073,
      "æŃ": 4074,
      "éĩ": 4075,
      "alar": 4076,
      "otal": 4077,
      "ĠâĢĻ": 4078,
      "ĠâĢŀ": 4079,
      "Ġstudents": 4080,
      "Ġarbitr": 4081,
      "++": 4082,
      "OP": 4083,
      "hy": 4084,
      "zt": 4085,
      "ÅĻ": 4086,
      "Ġcov": 4087,
      "Ġmaa": 4088,
      "à¥ģà¤°": 4089,
      "Ġminutes": 4090,
      "ÒŃ": 4091,
      "Ġ)Ċ": 4092,
      "ĠÐķ": 4093,
      "ethod": 4094,
      "pm": 4095,
      "Ġce": 4096,
      "Ġocc": 4097,
      "owa": 4098,
      "Ġáŀ": 4099,
      "áī°": 4100,
      ".Chauff": 4101,
      ">.": 4102,
      "ÑĥÑħ": 4103,
      "ĠCell": 4104,
      "opy": 4105,
      "Ġoutput": 4106,
      "?ĊĊ": 4107,
      "With": 4108,
      "Ô¥": 4109,
      "å¸": 4110,
      "Ġtang": 4111,
      "Ġà¤¶": 4112,
      "Ġuser": 4113,
      "ª×": 4114,
      "Ġwithin": 4115,
      "Ġconf": 4116,
      "Ġspace": 4117,
      "Info": 4118,
      "ĠÑįÑĢ": 4119,
      "ĠCouncil": 4120,
      "cr": 4121,
      "Äħ": 4122,
      "inen": 4123,
      "Ġmor": 4124,
      ")))Ċ": 4125,
      "#include": 4126,
      ".html": 4127,
      "Ġnatural": 4128,
      "De": 4129,
      "uen": 4130,
      "Ġlag": 4131,
      "Ð»Ñı": 4132,
      "ĠPo": 4133,
      "Ġà¤ªà¥įà¤°": 4134,
      "/s": 4135,
      "ÙĪØ¯": 4136,
      "Ġdetails": 4137,
      "Overscript": 4138,
      "Val": 4139,
      "Ìį": 4140,
      "Ø¶": 4141,
      "ĠĠĠĠĠĠĠĠĠĠĠĠĠĠĠĠĠ": 4142,
      "Ġhun": 4143,
      "Ġà¤ı": 4144,
      "idd": 4145,
      "([": 4146,
      "-Ċ": 4147,
      ".E": 4148,
      "Ġcam": 4149,
      "usa": 4150,
      "emo": 4151,
      "tively": 4152,
      "ave": 4153,
      "bur": 4154,
      "Ġmight": 4155,
      "Ġzi": 4156,
      "ĠÐ±Ð°Ð¹": 4157,
      "Ð¸Ð½Ðµ": 4158,
      "ponent": 4159,
      "Ġsignal": 4160,
      "URLOPT": 4161,
      "zen": 4162,
      "ä¼": 4163,
      "Ġaff": 4164,
      "ÐºÐ°Ð½": 4165,
      "ersi": 4166,
      "ÅĪ": 4167,
      "Ġmam": 4168,
      "Ġreally": 4169,
      "ÙĬØ©": 4170,
      "áģ¼": 4171,
      "define": 4172,
      "Sh": 4173,
      "ql": 4174,
      "ÉĹ": 4175,
      "Ġsm": 4176,
      "ision": 4177,
      "Ġà¤ħ": 4178,
      "iment": 4179,
      "ĠCar": 4180,
      "Ġorgan": 4181,
      "Ø§Ø¦": 4182,
      "function": 4183,
      "Ġfuture": 4184,
      "Ġsocial": 4185,
      "Ġdifficult": 4186,
      "-ch": 4187,
      "Ġfan": 4188,
      "Ġfull": 4189,
      "DI": 4190,
      "Ġmul": 4191,
      "Ġimport": 4192,
      "Ġfinal": 4193,
      "Ġcomponents": 4194,
      "ĠMath": 4195,
      "Ġà·": 4196,
      "Ġáĭ¨": 4197,
      "Õ¥Õ": 4198,
      ";;;;;;;;": 4199,
      "}_{": 4200,
      "opa": 4201,
      "äºĨ": 4202,
      "Ġaccount": 4203,
      "ribute": 4204,
      "ico": 4205,
      "angu": 4206,
      "à¤¾à¤Ĥ": 4207,
      "Ã©k": 4208,
      "Ġerr": 4209,
      "Å¼": 4210,
      "Ħà¸": 4211,
      "à¤ĥ": 4212,
      "ĠIm": 4213,
      "obal": 4214,
      "Ġappe": 4215,
      "ĠÄ©": 4216,
      "Ã£o": 4217,
      "ĠÚĨ": 4218,
      "åľ¨": 4219,
      "VERSION": 4220,
      "istic": 4221,
      "Ġkuk": 4222,
      "Ġhol": 4223,
      "tig": 4224,
      "Ġug": 4225,
      "Time": 4226,
      "eno": 4227,
      "Ġkur": 4228,
      "Ġgive": 4229,
      "emi": 4230,
      "Ġiss": 4231,
      "aps": 4232,
      "Ġproblems": 4233,
      "Ġhttps": 4234,
      "nÃŃ": 4235,
      "Ġsit": 4236,
      "Ð»Ðµ": 4237,
      "Ġdimoun": 4238,
      "ÏĢ": 4239,
      "Ġgam": 4240,
      "Ġuh": 4241,
      "ther": 4242,
      "à¶±": 4243,
      "Ġmatrix": 4244,
      "ĠÒ³": 4245,
      "Yeezy": 4246,
      "Ġothers": 4247,
      "Ġquestions": 4248,
      "bal": 4249,
      "js": 4250,
      "rr": 4251,
      "Ġpak": 4252,
      "Ġlak": 4253,
      "Ñŀ": 4254,
      "éĥ": 4255,
      "Ġwin": 4256,
      "Ð»Ð°Ð½": 4257,
      "Ġyak": 4258,
      "ĠAf": 4259,
      "duction": 4260,
      "Ġnyang": 4261,
      "...Ċ": 4262,
      "¤à¯įà®¤": 4263,
      "Ġmembers": 4264,
      "(l": 4265,
      "ware": 4266,
      "ÙĦÙĩ": 4267,
      "Ġresponse": 4268,
      "void": 4269,
      "Context": 4270,
      "formation": 4271,
      "Ġimage": 4272,
      "span": 4273,
      "áĵĤ": 4274,
      "Ġ×Ĳ×": 4275,
      "Retur": 4276,
      "Ġauto": 4277,
      "Ġpul": 4278,
      "Ġvector": 4279,
      "ĠNg": 4280,
      "Ġarea": 4281,
      "Ġcr": 4282,
      "iso": 4283,
      "Ġà½": 4284,
      "ä¸Ń": 4285,
      "çĽ": 4286,
      "ĵáŀ": 4287,
      "Ġlan": 4288,
      "ĠAng": 4289,
      "Ġincluding": 4290,
      "Ġhist": 4291,
      "omo": 4292,
      "Ġbegin": 4293,
      "Ø±ÛĮ": 4294,
      "Ġallow": 4295,
      "\\begin": 4296,
      "(f": 4297,
      "Se": 4298,
      "bt": 4299,
      "Äĳ": 4300,
      "ativ": 4301,
      "ched": 4302,
      "Ġtoo": 4303,
      "ends": 4304,
      "Ġsolutions": 4305,
      "ĠOctober": 4306,
      "ulti": 4307,
      "Ð´Ð°Ð½": 4308,
      "OS": 4309,
      "math": 4310,
      "ook": 4311,
      "rn": 4312,
      "å¼": 4313,
      "ĠÐŃ": 4314,
      "Ġmeans": 4315,
      "ges": 4316,
      "Ġih": 4317,
      "ĠCol": 4318,
      "Ð°ÑĤÐ°": 4319,
      "box": 4320,
      "linear": 4321,
      "à¥¤Ċ": 4322,
      "Ġfloat": 4323,
      "Ġcryst": 4324,
      "Ġsequence": 4325,
      "Ġdal": 4326,
      "ĠÐ¾Ð±": 4327,
      "www": 4328,
      "à¦¦": 4329,
      "ours": 4330,
      "Ġatu": 4331,
      "à²°": 4332,
      "Ã¿ÑĢ": 4333,
      "Ġgraph": 4334,
      "ATION": 4335,
      "pg": 4336,
      "Ø§Ú": 4337,
      "à°°": 4338,
      "~~~~": 4339,
      ".âĢĻ": 4340,
      "Ġbig": 4341,
      "uba": 4342,
      "ĠÃ¥": 4343,
      "à±ĭ": 4344,
      "à¤¾à¤¸": 4345,
      "Ġdeg": 4346,
      "Ġmea": 4347,
      "Ġtin": 4348,
      "Ġlen": 4349,
      "ayo": 4350,
      "ĠDE": 4351,
      "Ġprof": 4352,
      "Ġtreatment": 4353,
      "orks": 4354,
      "unga": 4355,
      "âĢĺ": 4356,
      "mail": 4357,
      "Ġ<<": 4358,
      "à§įà¦¤": 4359,
      "IM": 4360,
      "Ġwak": 4361,
      "Ġevent": 4362,
      "à¤¾à¤ķ": 4363,
      "ipa": 4364,
      "Ġevidence": 4365,
      "You": 4366,
      "can": 4367,
      "ìĿ": 4368,
      "ĠKe": 4369,
      "ĠFr": 4370,
      "Ġimp": 4371,
      "Ġpare": 4372,
      "Key": 4373,
      "ĠÐ±Ð¸Ð»": 4374,
      "áĳ¦": 4375,
      "SMAN": 4376,
      "Ġmicro": 4377,
      "Ne": 4378,
      "ince": 4379,
      "Ġnap": 4380,
      "Ġdh": 4381,
      "Ġtok": 4382,
      "ÑĥÐ±": 4383,
      "Ġintegr": 4384,
      "mar": 4385,
      "æĢ": 4386,
      "Ġ;": 4387,
      "Ġkab": 4388,
      "Ġland": 4389,
      "à¤¿à¤²": 4390,
      "Ġà¤¹à¥Ī": 4391,
      "Ġmedium": 4392,
      "Ð°n": 4393,
      "Ġprot": 4394,
      "duce": 4395,
      "Ġbetter": 4396,
      "nh": 4397,
      "sing": 4398,
      "ende": 4399,
      "Ġminimum": 4400,
      "dir": 4401,
      "ÛĲ": 4402,
      "tivity": 4403,
      "Ġstep": 4404,
      "Ġmatelasse": 4405,
      "Ġflu": 4406,
      "âµĻ": 4407,
      "Ġchannel": 4408,
      "Ġmis": 4409,
      "ÑĥÐ³": 4410,
      "à¥ĩà¤¼": 4411,
      "ended": 4412,
      "ÑıÐ½": 4413,
      "Ġabs": 4414,
      "Äģn": 4415,
      "Ġsil": 4416,
      "Ð°ÑĤÑĮ": 4417,
      "lient": 4418,
      "Element": 4419,
      "áŁĭáŀ": 4420,
      "Ġbehavior": 4421,
      "\".": 4422,
      "mand": 4423,
      "Ġfour": 4424,
      "astic": 4425,
      "ĠAg": 4426,
      "à¤¿à¤°": 4427,
      "cel": 4428,
      "Ġcommun": 4429,
      "ban": 4430,
      "ted": 4431,
      "ÑĢÐ¸": 4432,
      "ĠUS": 4433,
      "Ġcreate": 4434,
      "{\\": 4435,
      "Ġale": 4436,
      "Ġlibrary": 4437,
      "ries": 4438,
      "iba": 4439,
      "Ð°Ð»Ð°ÑĢ": 4440,
      "Ð´ÑĭÐ¹": 4441,
      "crypt": 4442,
      "Ġtensor": 4443,
      "Ġassociated": 4444,
      "Þ©": 4445,
      "ĦáĢºáĢ": 4446,
      "à¤¾à¤¦": 4447,
      "ĠÑįÐ¼": 4448,
      "Ġsimple": 4449,
      "Ġvir": 4450,
      "à¥įà¤®": 4451,
      "ĠGe": 4452,
      "Ġmax": 4453,
      "Ġ×¤": 4454,
      "Ġestim": 4455,
      "Ġpadding": 4456,
      "ĠÐ±Ð¾Ð»Ð·Ð¾": 4457,
      "RESULT": 4458,
      "ĠTyndale": 4459,
      "peÃ¼stÃ¼": 4460,
      "ĠÂłĠÂł": 4461,
      "Ġsong": 4462,
      "Ġnye": 4463,
      "à¤¾à¤Ĺ": 4464,
      "sole": 4465,
      "Ġgoing": 4466,
      ".list": 4467,
      "iya": 4468,
      "ĠÓ©": 4469,
      "Ġnas": 4470,
      "edia": 4471,
      "Ġgeneral": 4472,
      "ÛķÙĪÛķ": 4473,
      "And": 4474,
      "IG": 4475,
      "Ġvin": 4476,
      "umber": 4477,
      "Ġstatic": 4478,
      "Ġshows": 4479,
      "ĠTrue": 4480,
      "[i": 4481,
      "anti": 4482,
      "ĠwÉĶ": 4483,
      "Ġunit": 4484,
      "Ġprincip": 4485,
      "lam": 4486,
      "ĠÅŁ": 4487,
      "Ġsou": 4488,
      "Ġfgoie": 4489,
      "Ġfftae": 4490,
      "Ġfance": 4491,
      "Ġfazme": 4492,
      "ÐµÐ¿": 4493,
      "Ġinclude": 4494,
      "Ġview": 4495,
      "à¥įà¤Ł": 4496,
      "Ø§Ùĩ": 4497,
      "à¸µ": 4498,
      "ified": 4499,
      "Ø§ÙĨÛĮ": 4500,
      "-e": 4501,
      "Ġfre": 4502,
      "usu": 4503,
      "ugu": 4504,
      "Ò¯ÑĢ": 4505,
      "Ġrecord": 4506,
      "Ġinstead": 4507,
      "Ġdemonstr": 4508,
      "IVESV": 4509,
      "onal": 4510,
      "Ġgar": 4511,
      "à¦®": 4512,
      "ĠYe": 4513,
      "(_": 4514,
      "ED": 4515,
      "US": 4516,
      "Ġcare": 4517,
      "Ð°ÑĢÑĤ": 4518,
      "à¤¿à¤¸": 4519,
      "**Ċ": 4520,
      "çĲĨ": 4521,
      "Ġexperience": 4522,
      "Ñķ": 4523,
      "Ġpun": 4524,
      "ĠÃ³": 4525,
      "Ġradi": 4526,
      "Æ°": 4527,
      "ĤáĢ": 4528,
      "Ġá¼": 4529,
      "ĠHow": 4530,
      "à¬¾": 4531,
      "Ä±r": 4532,
      "èĩª": 4533,
      "cle": 4534,
      "Ġtimes": 4535,
      "lt": 4536,
      "á¿": 4537,
      "ĠÑģÐ¾": 4538,
      "Ġadv": 4539,
      "Ġàªª": 4540,
      "àŃĭà¬": 4541,
      ".L": 4542,
      "No": 4543,
      "OD": 4544,
      "py": 4545,
      "zim": 4546,
      "Ġmana": 4547,
      "Ġdam": 4548,
      "Ġleg": 4549,
      "ungu": 4550,
      "à§įà¦°": 4551,
      "Config": 4552,
      "Îº": 4553,
      "Ġsource": 4554,
      "ably": 4555,
      "ĠBoolean": 4556,
      "àº±àº": 4557,
      "nos": 4558,
      "éĻ": 4559,
      "Ġbol": 4560,
      "inger": 4561,
      "roll": 4562,
      "iving": 4563,
      "áį¡": 4564,
      "'re": 4565,
      "Ġfgoiw": 4566,
      "Ġfftaw": 4567,
      "Ġfancw": 4568,
      "Ġfazmw": 4569,
      "Ġrece": 4570,
      "ĠPr": 4571,
      "Ġheight": 4572,
      "ÑģÑĤÐ²": 4573,
      "Ġwords": 4574,
      "áŀĦáŀ": 4575,
      "lib": 4576,
      "ĠãĢĤ": 4577,
      "ĤÑ": 4578,
      "Ĥàª": 4579,
      "ĺ×": 4580,
      "Ġindex": 4581,
      "ster": 4582,
      "ĠAss": 4583,
      "thing": 4584,
      "self": 4585,
      "Ġdone": 4586,
      "Ġly": 4587,
      "ches": 4588,
      "ĠCons": 4589,
      "Ġá»": 4590,
      "Ġtry": 4591,
      "Ġrot": 4592,
      "áĭ«": 4593,
      "serv": 4594,
      "Ġfrequency": 4595,
      "Ġindust": 4596,
      "Ġentire": 4597,
      "Ġlearning": 4598,
      "ãģĦãģ": 4599,
      "Ġrespect": 4600,
      "bj": 4601,
      "iu": 4602,
      "Ġkol": 4603,
      "ips": 4604,
      "Ġ<-": 4605,
      "Path": 4606,
      "amba": 4607,
      "rab": 4608,
      "Ġyet": 4609,
      "ĠMay": 4610,
      "Ġleast": 4611,
      "Õ¸ÖĤÕ": 4612,
      "á±¤á±": 4613,
      "All": 4614,
      "±áĢ¬áĢ": 4615,
      "ĳ×": 4616,
      "ÐµÑĩ": 4617,
      "Åĭg": 4618,
      "Ġâµı": 4619,
      "Ġadministr": 4620,
      "off": 4621,
      "using": 4622,
      "hk": 4623,
      "Öģ": 4624,
      "empl": 4625,
      "Ġren": 4626,
      "Ġdep": 4627,
      "ĠÃ¾": 4628,
      "Ġatom": 4629,
      "encode": 4630,
      "Ġcou": 4631,
      "Ġputas": 4632,
      "Ġikea": 4633,
      "Ġgrammar": 4634,
      "Å³": 4635,
      "Ġiy": 4636,
      "aws": 4637,
      "zer": 4638,
      "Ì£": 4639,
      "Ġkil": 4640,
      "oso": 4641,
      "ÑįÐ³": 4642,
      "ordin": 4643,
      "à·Ģ": 4644,
      "KJV": 4645,
      "Ġbh": 4646,
      "enter": 4647,
      "oda": 4648,
      "ÉĽn": 4649,
      "ĠWhen": 4650,
      "',Ċ": 4651,
      ">čĊ": 4652,
      "pha": 4653,
      "anta": 4654,
      "pet": 4655,
      "index": 4656,
      "antu": 4657,
      "à¼ĭà½ĺ": 4658,
      "°áĢ": 4659,
      "Ã¯": 4660,
      "à¤Ł": 4661,
      "Ð°ÑģÑĤ": 4662,
      "lex": 4663,
      "Ġmach": 4664,
      "Ġxa": 4665,
      "-size": 4666,
      "Ġschool": 4667,
      "vt": 4668,
      "ÐĴ": 4669,
      "è®": 4670,
      "Ġsen": 4671,
      "Ġnim": 4672,
      "Ġvers": 4673,
      "Ġ×ŀ×": 4674,
      "Ġà¦¸": 4675,
      "à«ĭ": 4676,
      "Ð¸ÑĤÐµ": 4677,
      "duced": 4678,
      "Ġrequest": 4679,
      "\";Ċ": 4680,
      "_h": 4681,
      "gt": 4682,
      "ln": 4683,
      "Ġpin": 4684,
      "Ġdefault": 4685,
      "à°²": 4686,
      "ources": 4687,
      "ĠVal": 4688,
      "ĠÑĥÑĩ": 4689,
      "ĠÏĢ": 4690,
      "throne": 4691,
      "à¸±à¸": 4692,
      "Ġ×ĵ×Ļ": 4693,
      "dis": 4694,
      "Ð£": 4695,
      "ĽáĢ": 4696,
      "Ġbay": 4697,
      "Ð¾Ñħ": 4698,
      "adu": 4699,
      "EL": 4700,
      "ked": 4701,
      "lh": 4702,
      "rol": 4703,
      "Ġant": 4704,
      "oken": 4705,
      "ĠÐºÐµÑĢ": 4706,
      "ÉĻÌĢ": 4707,
      "æ³ķ": 4708,
      "Ġfinancial": 4709,
      "Ġsignificant": 4710,
      "Na": 4711,
      "_def": 4712,
      "vs": 4713,
      "åº": 4714,
      "Ġcat": 4715,
      "Ġbab": 4716,
      "ader": 4717,
      "Ġexist": 4718,
      ")]": 4719,
      "Ġ=Ċ": 4720,
      ".sys": 4721,
      "placement": 4722,
      "à»īàº": 4723,
      "jan": 4724,
      "Ľ×": 4725,
      "Ġpage": 4726,
      "Ġweek": 4727,
      "Ġable": 4728,
      "jn": 4729,
      "éĢ": 4730,
      "inv": 4731,
      "Ð½Ñĥ": 4732,
      "cs": 4733,
      "ĤÞ°": 4734,
      "Ġnang": 4735,
      "Ġcount": 4736,
      "Ġaur": 4737,
      "Ġrema": 4738,
      "ĠBar": 4739,
      "ĠÚ©ÛĮ": 4740,
      "âĤĦ": 4741,
      "Ġtransl": 4742,
      "Ġsymbols": 4743,
      "${": 4744,
      "kor": 4745,
      "oti": 4746,
      "ison": 4747,
      "Ġhab": 4748,
      "eda": 4749,
      "Ġbor": 4750,
      "ĠTa": 4751,
      "uments": 4752,
      "Ġrange": 4753,
      "Ġsatisf": 4754,
      "Ġrhog": 4755,
      ").ĊĊ": 4756,
      "éģ": 4757,
      "ĠØªÙĪ": 4758,
      "ottom": 4759,
      "len": 4760,
      "Ġtum": 4761,
      "ties": 4762,
      "Ð»Ñĭ": 4763,
      "ĠEd": 4764,
      "Ġalong": 4765,
      "ãģ«": 4766,
      "ija": 4767,
      "Ġratio": 4768,
      "));Ċ": 4769,
      "font": 4770,
      "lat": 4771,
      "Ġkul": 4772,
      "ĠØ§ÛĮ": 4773,
      "onga": 4774,
      ".w": 4775,
      "Õ¨": 4776,
      "Ġfgoiu": 4777,
      "Ġfftau": 4778,
      "Ġfancu": 4779,
      "Ġfazmu": 4780,
      "Ð½Ñı": 4781,
      "à¦²": 4782,
      "apan": 4783,
      "User": 4784,
      "run": 4785,
      "Ġthings": 4786,
      "ĠAN": 4787,
      "à¤¾à¤ļ": 4788,
      "Ġring": 4789,
      "tional": 4790,
      "Ø§Ùģ": 4791,
      "Ġalmost": 4792,
      "________": 4793,
      "É£": 4794,
      "æ²": 4795,
      "Ġmix": 4796,
      "Ġbur": 4797,
      "[Ċ": 4798,
      "cy": 4799,
      "ante": 4800,
      "Ġpred": 4801,
      "ÑįÐ´": 4802,
      "iva": 4803,
      "ending": 4804,
      "ÙĬØ±": 4805,
      "Ġ||": 4806,
      "Ġpractice": 4807,
      "ĠEurope": 4808,
      "Þ¨": 4809,
      "Ġcommon": 4810,
      "reuÃ«ng": 4811,
      "Î¯": 4812,
      "ĠnÉ¨": 4813,
      "Ġhard": 4814,
      "irm": 4815,
      "ĠData": 4816,
      "Ã¤t": 4817,
      "Ġprint": 4818,
      "State": 4819,
      "Ġkullan": 4820,
      "à¨¿à¨": 4821,
      "vy": 4822,
      "xo": 4823,
      "Ġsun": 4824,
      "à¤¶": 4825,
      "Ð°Ò¥": 4826,
      "Ġà¤ĩ": 4827,
      "à³Ĩ": 4828,
      "å½": 4829,
      "ĶáĢºáĢ": 4830,
      "Ġmm": 4831,
      "Ġfgoii": 4832,
      "Ġfftai": 4833,
      "asing": 4834,
      "Ġfanci": 4835,
      "Ġfazmi": 4836,
      "Ġgrow": 4837,
      "ĠÃ¤": 4838,
      "áīł": 4839,
      "Ġâī": 4840,
      "Ġsubtract": 4841,
      "ĠÐłÐ¾ÑģÑģ": 4842,
      "à´¤àµįà´¤": 4843,
      "bad": 4844,
      "Ġdri": 4845,
      "ĠÐ±Ð°ÑĪ": 4846,
      "à®©": 4847,
      "áī³": 4848,
      "Ġmac": 4849,
      "Ġmuk": 4850,
      "reen": 4851,
      "ury": 4852,
      "ĠÐºÐ¾Ð¼": 4853,
      "ÉĽÌģ": 4854,
      "Ġ×ľ×": 4855,
      "ÓĻÑĤ": 4856,
      "ãģĻ": 4857,
      "ĠÙģÙĬ": 4858,
      "ĠÇ¹": 4859,
      "Ġcoeffici": 4860,
      "But": 4861,
      "à¤ģ": 4862,
      "osh": 4863,
      "ribu": 4864,
      "Ġstop": 4865,
      "oga": 4866,
      "ÙĦÙĬ": 4867,
      "ĠáĬ£": 4868,
      "ÙĨÙīÚŃ": 4869,
      "but": 4870,
      "Ü¹": 4871,
      "ĠØ§ÙĨ": 4872,
      "Ġsec": 4873,
      "Ð°Ñı": 4874,
      "Ġkay": 4875,
      "ored": 4876,
      "Ã«n": 4877,
      "Å¡a": 4878,
      "áĴĥ": 4879,
      "Ġpressure": 4880,
      "ĠÐ´ÐµÐ³ÐµÐ½": 4881,
      "bre": 4882,
      "Ġport": 4883,
      "ises": 4884,
      "ÑĥÑĥ": 4885,
      "ĠDec": 4886,
      "Ġ$\\": 4887,
      "âĤĥ": 4888,
      "Ġà¤ªà¤°": 4889,
      "ĠÐ°Ð·": 4890,
      "omi": 4891,
      "Ġtele": 4892,
      "Ġrod": 4893,
      "Ġbelow": 4894,
      "Item": 4895,
      "Ġcontinue": 4896,
      "à¯ģà®®à¯į": 4897,
      "Ġà°ªà±įà°°": 4898,
      "Form": 4899,
      "qi": 4900,
      "å·": 4901,
      "ĠÛĮ": 4902,
      "Ð°ÒĽ": 4903,
      "Ġnil": 4904,
      "ices": 4905,
      "Ġret": 4906,
      "ĠBl": 4907,
      "Ġtarget": 4908,
      "bas": 4909,
      "ĠInt": 4910,
      "ĠDim": 4911,
      "ĠHa": 4912,
      "ĠÑģÐµ": 4913,
      "ÉĻr": 4914,
      "ÑĨÐ¸Ñı": 4915,
      "Ġkestyon": 4916,
      "Ø°": 4917,
      "Ü¢": 4918,
      "Ġlit": 4919,
      "ĠSet": 4920,
      "áĪĭ": 4921,
      "**ĊĊ": 4922,
      "epository": 4923,
      "Ġvehicle": 4924,
      "CH": 4925,
      "back": 4926,
      "ĠSi": 4927,
      "ĠÐ¿Ð¾": 4928,
      "ausente": 4929,
      "cariado": 4930,
      "istance": 4931,
      "ĠÃ»": 4932,
      "ĠĠĠĠĠĠĠĠĠĠĠĠĠĠĠĠĠĠĠĠĠĠĠĠĠĠĠĠĠĠĠĠĠĠĠĠ": 4933,
      "ruction": 4934,
      "âĤħ": 4935,
      "Bu": 4936,
      "Of": 4937,
      "TR": 4938,
      "Te": 4939,
      "dz": 4940,
      "cht": 4941,
      "ĠJe": 4942,
      "upa": 4943,
      "Ġpaper": 4944,
      "ĠAmerica": 4945,
      "ĠDirect": 4946,
      "Ġapplications": 4947,
      "Ġplatform": 4948,
      "à¤ķà¥įà¤·": 4949,
      "Ġthemselves": 4950,
      "UE": 4951,
      "jc": 4952,
      "mun": 4953,
      "Ġhor": 4954,
      "Ġyin": 4955,
      "Message": 4956,
      "bh": 4957,
      "esa": 4958,
      "Ġvak": 4959,
      "à³ģ": 4960,
      "à¹Ī": 4961,
      "Ġdefinition": 4962,
      "ĠÏĦÎ": 4963,
      "Ġbok": 4964,
      "Ġenc": 4965,
      "eka": 4966,
      "ĠÐ¸ÑĪ": 4967,
      "ĠThen": 4968,
      "ĠáĬł": 4969,
      "Ġprfabri": 4970,
      "_nonneg": 4971,
      "(*": 4972,
      "ering": 4973,
      "Ġsite": 4974,
      "true": 4975,
      "à±į": 4976,
      "ĠInteger": 4977,
      "ÖĦ": 4978,
      "Ġ~": 4979,
      "Ġsym": 4980,
      "Ġhin": 4981,
      "Ġlok": 4982,
      "Ġprim": 4983,
      "Ġequal": 4984,
      "ĠÐ¨": 4985,
      "Ġbag": 4986,
      "Ġgas": 4987,
      "aho": 4988,
      "åīį": 4989,
      "Ġ×ķ×ķ×": 4990,
      "Ġintegers": 4991,
      "ĠÐ°Ð²": 4992,
      "Ġfont": 4993,
      "onn": 4994,
      "Ġmind": 4995,
      "elle": 4996,
      "Ġforce": 4997,
      "ĠÐºÐ°ÑĢ": 4998,
      "âµĵâµ": 4999,
      "Ġphysical": 5000,
      "æµ": 5001,
      "icon": 5002,
      "Ġred": 5003,
      "ĠØ²": 5004,
      "Ġiti": 5005,
      "ĠØ¨Ø±": 5006,
      ");čĊ": 5007,
      "ĠdÃ©": 5008,
      "esh": 5009,
      "ÑģÑı": 5010,
      "ÑĥÑĮ": 5011,
      "áĥĲ": 5012,
      "ĠBy": 5013,
      "Ð¸Ð½Ð°": 5014,
      "Ø§Ø²": 5015,
      "Ġobj": 5016,
      "Ġboundary": 5017,
      "Ġthiab": 5018,
      "ĠObject": 5019,
      "bc": 5020,
      "cal": 5021,
      "kp": 5022,
      "Ġcell": 5023,
      "Ġkind": 5024,
      "Ġhy": 5025,
      "Ġkeep": 5026,
      "vin": 5027,
      "Ġvt": 5028,
      "Ġzu": 5029,
      "Ä±l": 5030,
      "indows": 5031,
      "ĠØ¨Ùĩ": 5032,
      "Options": 5033,
      "åĦ¿": 5034,
      "Ġunique": 5035,
      "ĠProblem": 5036,
      "Ġrecogn": 5037,
      "ĠJesucristo": 5038,
      "ration": 5039,
      "ÛĶ": 5040,
      "Ġsy": 5041,
      "Ġnj": 5042,
      "Ġlay": 5043,
      "Ġcome": 5044,
      "ÉĻn": 5045,
      "Ġgaz": 5046,
      "Ġconstant": 5047,
      "Ġstudy": 5048,
      "Or": 5049,
      "Ptr": 5050,
      "input": 5051,
      "Ġdar": 5052,
      "ĠTest": 5053,
      "Ġ×©×": 5054,
      "Éĵe": 5055,
      "Ġestablish": 5056,
      "jd": 5057,
      "vh": 5058,
      "Ġcoun": 5059,
      "rah": 5060,
      "à¥įà¤²": 5061,
      "ĠPer": 5062,
      "Ġ*Ċ": 5063,
      "Ġbeautiful": 5064,
      "æµĭè¯ķ": 5065,
      "Ġnat": 5066,
      "ĠSp": 5067,
      "ĠPre": 5068,
      "Ð°ÐºÑĬ": 5069,
      "Ã´n": 5070,
      "Ġaccess": 5071,
      "Ġhpai": 5072,
      "utorial": 5073,
      "Ġquickly": 5074,
      "rang": 5075,
      "ØªØ±": 5076,
      "á±Ł": 5077,
      "Ð¾Ð²Ð°": 5078,
      "Ġáīł": 5079,
      "Ġsn": 5080,
      "Ġgan": 5081,
      "ĠÃ¢": 5082,
      "iven": 5083,
      "plit": 5084,
      "Ġamount": 5085,
      "ternal": 5086,
      "à·Ĭà¶": 5087,
      "ĠGeneral": 5088,
      "Þ¬ÞĪÞ¬": 5089,
      "Ġà¦²à§Ī": 5090,
      "Ġmathematical": 5091,
      "-M": 5092,
      "Node": 5093,
      "ĠÑī": 5094,
      "áĢ®áĢ": 5095,
      "Ġmoment": 5096,
      "ĠDo": 5097,
      "Ġàª¤": 5098,
      "point": 5099,
      "_L": 5100,
      "dr": 5101,
      "iver": 5102,
      "Ù¹": 5103,
      "Ġfak": 5104,
      "Ġnei": 5105,
      "à¦¾à¦¨": 5106,
      "Ġkostenl": 5107,
      "Ġemploye": 5108,
      "ood": 5109,
      "Ġtree": 5110,
      "alan": 5111,
      "Ġjob": 5112,
      "Ġselect": 5113,
      "ĠÐºÐµÐ»": 5114,
      "udd": 5115,
      "ĠêŀĬ": 5116,
      "Ġcolumn": 5117,
      "bf": 5118,
      "kr": 5119,
      "å¿": 5120,
      "ators": 5121,
      "Ġlub": 5122,
      "apter": 5123,
      "à½¼": 5124,
      "Ġuntil": 5125,
      "ÓĻÐ¼": 5126,
      "à¥ģà¤¨": 5127,
      "Ġelements": 5128,
      "Proposition": 5129,
      "Size": 5130,
      "What": 5131,
      "Ġpam": 5132,
      "Ġband": 5133,
      "lec": 5134,
      "Ġrefer": 5135,
      "à¬¨": 5136,
      "iff": 5137,
      "Ġroot": 5138,
      "èĥ½": 5139,
      "Ġsuperconducting": 5140,
      "Ġdue": 5141,
      "aks": 5142,
      "exp": 5143,
      "â´°": 5144,
      "Ġformula": 5145,
      "Ġfactor": 5146,
      "ĠêŀĮ": 5147,
      "Ġsens": 5148,
      "Ġnun": 5149,
      "Ġbah": 5150,
      "Ġwidth": 5151,
      "ĠĠĠĠĠĠĠĠĠĠĠĠ": 5152,
      "ÑĭÐ´": 5153,
      "agh": 5154,
      "Ã©t": 5155,
      "Ø§ÙĤ": 5156,
      "Ġnames": 5157,
      "Ġdensity": 5158,
      ".To": 5159,
      "[\"": 5160,
      "_value": 5161,
      "vl": 5162,
      "Ĳ×": 5163,
      "áĪĺ": 5164,
      "Ġà¦®": 5165,
      "Ġold": 5166,
      "ĠanÅŃn": 5167,
      "fx": 5168,
      "Õ¸": 5169,
      "Ġcrit": 5170,
      "ĠAdd": 5171,
      "aja": 5172,
      "ĠChrist": 5173,
      "Ġwhole": 5174,
      "Ġcircuit": 5175,
      "reate": 5176,
      "Ġnk": 5177,
      "amin": 5178,
      "Ġàª¸": 5179,
      "Ġ\\Ċ": 5180,
      "ÐµÐºÑĤ": 5181,
      "ology": 5182,
      "Ġcenter": 5183,
      "(p": 5184,
      "-st": 5185,
      "from": 5186,
      "Ġess": 5187,
      "ģáĢ": 5188,
      "ĠpÃ¥": 5189,
      "Ġgot": 5190,
      "char": 5191,
      "ĠBa": 5192,
      "Ġsystems": 5193,
      "atabase": 5194,
      "dan": 5195,
      "Ġzero": 5196,
      "Ġdiv": 5197,
      "Ã¤r": 5198,
      "php": 5199,
      "?âĢĿ": 5200,
      "From": 5201,
      "Ġtse": 5202,
      "ication": 5203,
      "akan": 5204,
      "Ġproject": 5205,
      "ĠOne": 5206,
      "áĪ«": 5207,
      "racket": 5208,
      "cell": 5209,
      "qt": 5210,
      "ÌĤ": 5211,
      "Ġtom": 5212,
      "Ġpati": 5213,
      "ĠÐºÐ°Ð½": 5214,
      "Ġimpro": 5215,
      "Ġclos": 5216,
      "DDDDDDDDDDDDDDDD": 5217,
      "ÇĶ": 5218,
      "Î·": 5219,
      "iction": 5220,
      "ĠKar": 5221,
      "ĠGra": 5222,
      "â´·": 5223,
      "-transform": 5224,
      "Ġexactly": 5225,
      "-pro": 5226,
      "Ġpang": 5227,
      "ample": 5228,
      "à¦¾à¦°": 5229,
      "cat": 5230,
      "lang": 5231,
      "Ġfac": 5232,
      "Ġfgoia": 5233,
      "Ġfftaa": 5234,
      "Ġhot": 5235,
      "Ġfanca": 5236,
      "Ġfazma": 5237,
      "Ò¯Ò¯": 5238,
      "áģ£áĢº": 5239,
      "BA": 5240,
      "Ġsure": 5241,
      "uring": 5242,
      "oss": 5243,
      "Ã©m": 5244,
      "ĠJual": 5245,
      "ÃŃa": 5246,
      "àµĨ": 5247,
      "Ġvariable": 5248,
      "pf": 5249,
      "Ġmur": 5250,
      "Ġpra": 5251,
      "Ġkaw": 5252,
      "ĠPe": 5253,
      "Ġrequire": 5254,
      "Ma": 5255,
      "}$": 5256,
      "ĠCont": 5257,
      "Ã¡m": 5258,
      "ĠBalinese": 5259,
      "ĠLapolis": 5260,
      "Ġcondensation": 5261,
      "Ġhepatitid": 5262,
      "tes": 5263,
      "wana": 5264,
      "ÊĮ": 5265,
      "Ġnov": 5266,
      "Ġpet": 5267,
      "eld": 5268,
      "open": 5269,
      "ogo": 5270,
      "ift": 5271,
      "Ġweight": 5272,
      "Ġbox": 5273,
      "Ġmonth": 5274,
      "lambda": 5275,
      "åŀĭ": 5276,
      "Ġlarger": 5277,
      "Ġwebsite": 5278,
      ".+": 5279,
      "jen": 5280,
      "sv": 5281,
      "Ġsent": 5282,
      "Ġcas": 5283,
      "Ġfgoio": 5284,
      "Ġfftao": 5285,
      "lei": 5286,
      "Ġfanco": 5287,
      "Ġfazmo": 5288,
      "eds": 5289,
      "Ġig": 5290,
      "ĠSim": 5291,
      "Ġkuti": 5292,
      "Ġfunctions": 5293,
      "áĥĺáĥ¡": 5294,
      "Ġáĳ": 5295,
      "ĠÐºÐ°Ð»": 5296,
      "ÑıÑĤ": 5297,
      "Ġgratis": 5298,
      "áį¢": 5299,
      "\\+\\_\\+": 5300,
      "Ö¼×": 5301,
      "pc": 5302,
      "zv": 5303,
      "Ġnar": 5304,
      "Ġie": 5305,
      "à¥įà¤ķ": 5306,
      "àªµ": 5307,
      "tics": 5308,
      "Ġabi": 5309,
      "Ġoptim": 5310,
      "Ġosi": 5311,
      "Ġinvol": 5312,
      "ories": 5313,
      "Ġbun": 5314,
      "Ġball": 5315,
      "itas": 5316,
      "ilt": 5317,
      "Ġub": 5318,
      "Ġnever": 5319,
      "Ġteach": 5320,
      "oba": 5321,
      "Frame": 5322,
      "ĠAugust": 5323,
      "Ġstatement": 5324,
      "àº°àº": 5325,
      "._": 5326,
      "[]": 5327,
      "make": 5328,
      "zl": 5329,
      "åĵ": 5330,
      "Ĥà°": 5331,
      "Ġsus": 5332,
      "Ġmwan": 5333,
      "Ġbul": 5334,
      "Ð¸Ð¸": 5335,
      "áĬĲ": 5336,
      "col": 5337,
      "Â«": 5338,
      "ÃŁ": 5339,
      "åĨ": 5340,
      "Ġdy": 5341,
      "Ġker": 5342,
      "Ġgen": 5343,
      "ÙĨÛĮ": 5344,
      "Ġwave": 5345,
      "Ġsuper": 5346,
      "Ġelectron": 5347,
      "Ġdating": 5348,
      "itch": 5349,
      "raw": 5350,
      "âĢĳ": 5351,
      "ĠJE": 5352,
      "Ð¸Ð½Ð´Ðµ": 5353,
      "Inter": 5354,
      "è§": 5355,
      "ĤÞ°Þ": 5356,
      "ĠmÉĻ": 5357,
      "ÐµÐ¶": 5358,
      "Ġist": 5359,
      "Ġà¦¹": 5360,
      "Ãºn": 5361,
      "ãĤĴ": 5362,
      "Request": 5363,
      "Ġvolume": 5364,
      "Ġmobile": 5365,
      "ĠRetur": 5366,
      "-gvfs": 5367,
      "°æį®": 5368,
      "Ġozordi": 5369,
      "ĠFebruary": 5370,
      "Ġtechniques": 5371,
      "-D": 5372,
      "Ġloc": 5373,
      "Ġip": 5374,
      "Ġà¤«": 5375,
      "Ġreason": 5376,
      "ĠMal": 5377,
      "OF": 5378,
      "dt": 5379,
      "ĠSc": 5380,
      "Ġprom": 5381,
      "Ġà¦¬": 5382,
      "print": 5383,
      "ĠProstitutas": 5384,
      "Ġfeatures": 5385,
      "apu": 5386,
      "Ð½ÑĭÐ¹": 5387,
      "(n": 5388,
      "Õ§": 5389,
      "Ġago": 5390,
      "igure": 5391,
      "odi": 5392,
      "awe": 5393,
      "à¥ĩà¤Ĥ": 5394,
      "Ġcorrect": 5395,
      "å¤§": 5396,
      "Ä±nda": 5397,
      "Ġcompared": 5398,
      "Instance": 5399,
      "Õ½": 5400,
      "Ġbus": 5401,
      "ider": 5402,
      "ĠSan": 5403,
      "eko": 5404,
      "uaj": 5405,
      "uck": 5406,
      "Ġhomme": 5407,
      "Î´": 5408,
      "itan": 5409,
      "iza": 5410,
      "Ġà¬¸": 5411,
      "à¾²": 5412,
      "ªà¯įà®ª": 5413,
      "elcome": 5414,
      "Ġperfect": 5415,
      "\\\\\\\\\\\\\\\\\\\\\\\\\\\\\\\"": 5416,
      "FI": 5417,
      "erc": 5418,
      "Ġgal": 5419,
      "iler": 5420,
      "à·Ķ": 5421,
      "Expression": 5422,
      "'an": 5423,
      "(\\": 5424,
      "Count": 5425,
      "jon": 5426,
      "pub": 5427,
      "Ġfund": 5428,
      "Ġava": 5429,
      "àª¤": 5430,
      "ÙĬØ¯": 5431,
      "ĠThese": 5432,
      "Ġbecomes": 5433,
      ".)": 5434,
      "tl": 5435,
      "init": 5436,
      "Ġface": 5437,
      "Ġwu": 5438,
      "Ġey": 5439,
      "ective": 5440,
      "à¥įà¤¹": 5441,
      "ĠOk": 5442,
      "itude": 5443,
      "Ġà¹Ģà¸": 5444,
      ".G": 5445,
      "tn": 5446,
      "ä¾": 5447,
      "ised": 5448,
      "Ġkel": 5449,
      "ette": 5450,
      "ĠKo": 5451,
      "Ġpartic": 5452,
      "Ġstructure": 5453,
      "Ġgroups": 5454,
      "Ġbelieve": 5455,
      "Def": 5456,
      "ÐºÐµ": 5457,
      "Ġmeet": 5458,
      "ipp": 5459,
      "âĢĿ,": 5460,
      "ç§": 5461,
      "íķ": 5462,
      "Ġoften": 5463,
      "imu": 5464,
      "used": 5465,
      "à½º": 5466,
      "Ġ\\$": 5467,
      "elect": 5468,
      "ĠApril": 5469,
      "ĠPresident": 5470,
      "Ġdiscover": 5471,
      "ĠÐ±Ð¾Ð»Ð³Ð¾Ð½": 5472,
      "Æ¡ÌĨ": 5473,
      "tar": 5474,
      "adh": 5475,
      "igo": 5476,
      "Ġapply": 5477,
      "aux": 5478,
      "Ġâµľ": 5479,
      "Ġbilong": 5480,
      "Ġwon": 5481,
      "entity": 5482,
      "à¥įà¤¨": 5483,
      "ĠBu": 5484,
      "Ġá¹": 5485,
      "Ġcandid": 5486,
      "kon": 5487,
      "Åı": 5488,
      "Ġtel": 5489,
      "Ġact": 5490,
      "à¤¾à¤¹": 5491,
      "Ġala": 5492,
      "Ø±ÙĪ": 5493,
      "âĢĻa": 5494,
      "uki": 5495,
      "ĠÑĥÐ»": 5496,
      "ĠÎµ": 5497,
      "Ã±a": 5498,
      "ĠAmazon": 5499,
      "Ġimmediately": 5500,
      "Ġtab": 5501,
      "uns": 5502,
      "Ġà¤Ľ": 5503,
      "aced": 5504,
      "áĪĽ": 5505,
      "Ġ<=": 5506,
      "ÙĩØ§": 5507,
      "------------": 5508,
      "¦×": 5509,
      "Ġich": 5510,
      "Ġnde": 5511,
      "Ġkad": 5512,
      "áĪ¨": 5513,
      "Ġ|Ċ": 5514,
      "ÑĭÐ»Ð°": 5515,
      "times": 5516,
      "Add": 5517,
      "ements": 5518,
      "ĠCan": 5519,
      "ece": 5520,
      "ä¹ĭ": 5521,
      "Ġstraight": 5522,
      "Ġton": 5523,
      "ĠmÉĶ": 5524,
      "Ġkok": 5525,
      "role": 5526,
      "Ġix": 5527,
      "ĠSal": 5528,
      "igen": 5529,
      "ĠKi": 5530,
      "áĥĶáĥĳ": 5531,
      "\"></": 5532,
      "ĠÐ°Ð¼": 5533,
      "Ġteam": 5534,
      "Å¡e": 5535,
      "Ġetc": 5536,
      "Variable": 5537,
      "éĿ¢": 5538,
      "Óķ": 5539,
      "Ġbed": 5540,
      "iche": 5541,
      "ĠÐºÐ¾": 5542,
      "Ġnear": 5543,
      "posed": 5544,
      "ĠSeptember": 5545,
      "\\\":{},\\\"": 5546,
      "kun": 5547,
      "Ġhl": 5548,
      "Ã©e": 5549,
      "Ġali": 5550,
      "yaa": 5551,
      "Ġdefined": 5552,
      "ðĿĳ": 5553,
      "ĠÎºÎ±á½¶": 5554,
      "¼áĢ": 5555,
      "Ø«": 5556,
      "Ġ##": 5557,
      "à¤¡": 5558,
      "Ġket": 5559,
      "Ġvu": 5560,
      "Ġchic": 5561,
      "à¥ĩà¤°": 5562,
      "Ñĸn": 5563,
      "Ġdisplay": 5564,
      "Ġobject": 5565,
      "Ð¸Ð¹Ð½": 5566,
      "Ġtsa": 5567,
      "eder": 5568,
      "ols": 5569,
      "ĠList": 5570,
      "Ġagainst": 5571,
      "Ġspeak": 5572,
      "Ġeasily": 5573,
      "Ġuygulama": 5574,
      "color": 5575,
      "Ïī": 5576,
      "Ġaa": 5577,
      "ising": 5578,
      "Ġlap": 5579,
      "Ġvh": 5580,
      "raction": 5581,
      "place": 5582,
      "Ġorg": 5583,
      "Ġrau": 5584,
      "ãģ§": 5585,
      "ards": 5586,
      "Ġload": 5587,
      "Ġsuccess": 5588,
      "iyo": 5589,
      "Ġoriginal": 5590,
      "reet": 5591,
      "ĠSome": 5592,
      "ivers": 5593,
      "Ġà¦®à¦": 5594,
      "à¤¨à¥Ģ": 5595,
      "ä½ł": 5596,
      "Ser": 5597,
      "dim": 5598,
      "sg": 5599,
      "yar": 5600,
      "éĹ": 5601,
      "Ġtha": 5602,
      "Ġdiag": 5603,
      "Ġ},Ċ": 5604,
      "\",\"": 5605,
      "Ġtransform": 5606,
      "ongrightarrow": 5607,
      "à¥ģà¤¦à¥įà¤§": 5608,
      "zm": 5609,
      "Î¬": 5610,
      "æł": 5611,
      "Ġsor": 5612,
      "Ġsection": 5613,
      "Ġhum": 5614,
      "ills": 5615,
      "Ð°Ð³ÑĮ": 5616,
      "spec": 5617,
      "ological": 5618,
      "à©Ģ": 5619,
      "áģłáĢ": 5620,
      "((": 5621,
      "At": 5622,
      "TM": 5623,
      "_head": 5624,
      "à¤Ń": 5625,
      "Ġmol": 5626,
      "iting": 5627,
      "ÑĤÐ°Ð¹": 5628,
      "à½Ħ": 5629,
      "---": 5630,
      "-re": 5631,
      "nam": 5632,
      "è¾": 5633,
      "Ġpil": 5634,
      "Ġdur": 5635,
      "Ġkak": 5636,
      "Õ¡Õµ": 5637,
      "Ġspecific": 5638,
      "Ġapproach": 5639,
      "ç®¡": 5640,
      "ĠSouth": 5641,
      "_PARENS": 5642,
      "ĠÐ¸Ð·Ð±Ð¸ÑĢÐ°ÑĤ": 5643,
      "_name": 5644,
      "dh": 5645,
      "Ġmann": 5646,
      "Ġnai": 5647,
      "Ġdays": 5648,
      "ĠBib": 5649,
      "().": 5650,
      "Ġnyan": 5651,
      "Ð½ÑĭÒ¥": 5652,
      "Ġsolve": 5653,
      "UM": 5654,
      "ĢáĢºáĢ": 5655,
      "anch": 5656,
      "Ġtj": 5657,
      "Ġkup": 5658,
      "ĠSte": 5659,
      "Ġàª®": 5660,
      "áĥĲáĥľ": 5661,
      "Ġservice": 5662,
      "Ġphot": 5663,
      "Ġprogress": 5664,
      "Ġpossib": 5665,
      "dl": 5666,
      "kg": 5667,
      "Ġvai": 5668,
      "ĠTAIME": 5669,
      "ØªÛĮ": 5670,
      "Ġà¬ķ": 5671,
      "ĠÎ¼": 5672,
      "ĠáĬ¨": 5673,
      "ÑĢÐ¾": 5674,
      "ÑĢÐ°Ð½": 5675,
      "Ġ(*": 5676,
      "ÛķÛĮ": 5677,
      "àª¾àª°": 5678,
      "ÞŃÞ": 5679,
      "Ġdistributed": 5680,
      "ÌĮ": 5681,
      "âī": 5682,
      "Ġtro": 5683,
      "ĠĠĠĠĠĠĠĠĠĠ": 5684,
      "oding": 5685,
      "áģĭ": 5686,
      "áĭ°": 5687,
      "Ġblock": 5688,
      "CC": 5689,
      "Fl": 5690,
      "rh": 5691,
      "vn": 5692,
      "Ġhold": 5693,
      "format": 5694,
      "group": 5695,
      "Ġlarzan": 5696,
      "áŀ·áŀ": 5697,
      "ĠNightlife": 5698,
      "Ġnom": 5699,
      "Ð½Ð¸Ðº": 5700,
      "ĠØµ": 5701,
      "ĠKrist": 5702,
      "ĠGa": 5703,
      "ĠOF": 5704,
      "Index": 5705,
      "ĠÞī": 5706,
      "Ġfeel": 5707,
      "ĠÙĦÛķ": 5708,
      "-S": 5709,
      "KE": 5710,
      "Up": 5711,
      "Ġmel": 5712,
      "Ġgin": 5713,
      "abu": 5714,
      "Ġanal": 5715,
      "ĠEs": 5716,
      "Ã¡t": 5717,
      "ÙĬÙĦ": 5718,
      "Ġparis": 5719,
      "Ġvariables": 5720,
      "Ġà¤°à¤¹": 5721,
      "à¹īà¸": 5722,
      "¨à¯įà®¤": 5723,
      "Ġà®ħà®": 5724,
      "Ġoutside": 5725,
      "];Ċ": 5726,
      "Ġnia": 5727,
      "ural": 5728,
      "É¨Åĭ": 5729,
      "ario": 5730,
      "Ġcontinu": 5731,
      "webkit": 5732,
      "iet": 5733,
      "nk": 5734,
      "vd": 5735,
      "ĠMat": 5736,
      "awan": 5737,
      "×ķ×Ł": 5738,
      "ÑĭÐ»Ð°ÑĢ": 5739,
      "Ġtrad": 5740,
      "Ġaddress": 5741,
      "éĤ£": 5742,
      "Ġmanagement": 5743,
      "¡×": 5744,
      "ĠCor": 5745,
      "Ġbeh": 5746,
      "ÛķÙĥ": 5747,
      "Ġassum": 5748,
      "Ġconditions": 5749,
      "à¦¬à¦¾": 5750,
      "Ġkub": 5751,
      "Ġyan": 5752,
      "imp": 5753,
      "Ġthing": 5754,
      "Ãłng": 5755,
      "move": 5756,
      "á¹ī": 5757,
      "Ġwaves": 5758,
      "ĠJehov": 5759,
      "àµĭà´": 5760,
      "Īëĭ¤": 5761,
      "Ġrepresents": 5762,
      "-de": 5763,
      "awm": 5764,
      "Ġmau": 5765,
      "Ä±t": 5766,
      "Ġparameters": 5767,
      "Ġero": 5768,
      "à¶¸": 5769,
      "Ø§Ø´": 5770,
      "Ġcompany": 5771,
      "sy": 5772,
      "Ġata": 5773,
      "icha": 5774,
      "Ġgame": 5775,
      "otes": 5776,
      "ĠSup": 5777,
      "ÐºÑģ": 5778,
      "à²¨": 5779,
      "Ġ\\<": 5780,
      "cript": 5781,
      "áģ¢áĢ": 5782,
      "rivate": 5783,
      "github": 5784,
      "ĠÑĪÐºÐ¾Ð»": 5785,
      "à¯Ĩà®": 5786,
      "ben": 5787,
      "Ġcity": 5788,
      "ĠTim": 5789,
      "ĠNy": 5790,
      "Ġprop": 5791,
      "ĠÐºÐ¾ÑĢ": 5792,
      "ĠÑĤÐ°": 5793,
      "ĠÐ¸Ð¹": 5794,
      "Ġapp": 5795,
      "Ġà¤¸à¤®": 5796,
      "Ġ/>Ċ": 5797,
      "Ġflow": 5798,
      "';Ċ": 5799,
      "EM": 5800,
      "Source": 5801,
      "Ġmba": 5802,
      "Ġhet": 5803,
      "Ġlower": 5804,
      "Ġà¤¥": 5805,
      "image": 5806,
      "acity": 5807,
      "ĠÑĸ": 5808,
      "à¥ĩà¤¨": 5809,
      "âµľ": 5810,
      "ĠÐ¾Ð´": 5811,
      "ĠÕ´": 5812,
      "password": 5813,
      "ĠJuly": 5814,
      "Ġ×Ļ×": 5815,
      "Ġqhov": 5816,
      "áĤĥáĤ": 5817,
      "ming": 5818,
      "table": 5819,
      "Ú¤": 5820,
      "Ĺ×": 5821,
      "Ġati": 5822,
      "esti": 5823,
      "ĠAc": 5824,
      "endo": 5825,
      "Ġshort": 5826,
      "Ø³ÙĦ": 5827,
      "â²Ľ": 5828,
      "ä¸º": 5829,
      "Ġstrong": 5830,
      "gv": 5831,
      "èµ": 5832,
      "Ġdos": 5833,
      "itz": 5834,
      "ĠPl": 5835,
      "Ġrad": 5836,
      "ounds": 5837,
      "pare": 5838,
      "Ġemploy": 5839,
      "jh": 5840,
      "åİ": 5841,
      "lege": 5842,
      "ples": 5843,
      "à¥ĩà¤ķ": 5844,
      "One": 5845,
      "Sc": 5846,
      "wise": 5847,
      "Ġtub": 5848,
      "Ġbaj": 5849,
      "Ò¯Ð¹": 5850,
      "ÙīÙĨ": 5851,
      "ĠÎ´": 5852,
      "Status": 5853,
      "ä»¥": 5854,
      "Ġcredit": 5855,
      "Cont": 5856,
      "iro": 5857,
      "jk": 5858,
      "Ġtor": 5859,
      "inary": 5860,
      "esis": 5861,
      "Ġoffer": 5862,
      "Ġeh": 5863,
      "illa": 5864,
      "ĠAk": 5865,
      "ango": 5866,
      "ried": 5867,
      "tha": 5868,
      "ÑĩÐ¸": 5869,
      "ĠState": 5870,
      "Ġidentif": 5871,
      "Ġinvest": 5872,
      ".T": 5873,
      ".set": 5874,
      "CL": 5875,
      "çİ": 5876,
      "ĠLet": 5877,
      "ĠJesu": 5878,
      "ongo": 5879,
      "Ġintro": 5880,
      "Ġhauv": 5881,
      "-y": 5882,
      ".N": 5883,
      ">>": 5884,
      "PR": 5885,
      "nes": 5886,
      "Ĥà½¦": 5887,
      "Ġfit": 5888,
      "rew": 5889,
      "Ġwor": 5890,
      "ÑĤÑĤ": 5891,
      "à¥ĥ": 5892,
      "rak": 5893,
      "ception": 5894,
      "Ð³Ð¸": 5895,
      "aia": 5896,
      "ĠFalse": 5897,
      "ĠÑħÑĮ": 5898,
      "áĲħ": 5899,
      "{{": 5900,
      "«áĢ": 5901,
      "Õ¿": 5902,
      "ido": 5903,
      "height": 5904,
      "Ġchild": 5905,
      "ĠDr": 5906,
      "Ã¡r": 5907,
      "âµİ": 5908,
      "áĮĪ": 5909,
      "ï¼ļ": 5910,
      "Ġfilm": 5911,
      "_size": 5912,
      "ĠÉĵ": 5913,
      "_B": 5914,
      "tb": 5915,
      "åĳ": 5916,
      "erg": 5917,
      "Ġdest": 5918,
      "lek": 5919,
      "ingi": 5920,
      "ÐµÑħ": 5921,
      "ĠCal": 5922,
      ".st": 5923,
      "CM": 5924,
      "case": 5925,
      "zk": 5926,
      "Ä¼": 5927,
      "ĠThat": 5928,
      "func": 5929,
      "Ġfraction": 5930,
      "IR": 5931,
      "Å¯": 5932,
      "Ġsir": 5933,
      "Ġmiss": 5934,
      "Ġvivastreet": 5935,
      "So": 5936,
      "inst": 5937,
      "Ġdag": 5938,
      "Ġhuman": 5939,
      "ella": 5940,
      "oki": 5941,
      "Ð°ÑħÑĮ": 5942,
      "=>": 5943,
      "¾Ð": 5944,
      "ĦÙ": 5945,
      "Ġart": 5946,
      "à±Ģ": 5947,
      "export": 5948,
      "Ġinterference": 5949,
      "à©ĩ": 5950,
      "och": 5951,
      "Ø¸": 5952,
      "Ð½Ð´": 5953,
      "Ġeta": 5954,
      "ĠGet": 5955,
      "Ġfixed": 5956,
      "ĠTaiwan": 5957,
      "ĠKrais": 5958,
      "ngkawas": 5959,
      "bil": 5960,
      "dx": 5961,
      "Ġdate": 5962,
      "icial": 5963,
      "ÑĭÑħ": 5964,
      "Ġuz": 5965,
      "ĠáĢ¡áĢ": 5966,
      "ĠÐĲÐ»": 5967,
      "Ġhuan": 5968,
      "qs": 5969,
      "Ðķ": 5970,
      "æ°": 5971,
      "ĴáĢ": 5972,
      "Ġnode": 5973,
      "ĠÐ§": 5974,
      "aire": 5975,
      "ands": 5976,
      "iek": 5977,
      "×Ļ×Ŀ": 5978,
      "ÛķÙĨ": 5979,
      "Ġaway": 5980,
      "ĠÑĥÑĩÐ°ÑģÑĤ": 5981,
      "Ġvoltage": 5982,
      ".B": 5983,
      "fn": 5984,
      "tz": 5985,
      "vv": 5986,
      "æĮ": 5987,
      "Ġsv": 5988,
      "Ġdia": 5989,
      "unn": 5990,
      "à´°": 5991,
      "Ã¶n": 5992,
      "How": 5993,
      "rb": 5994,
      "Ġtheory": 5995,
      "oul": 5996,
      "tia": 5997,
      "Ġvon": 5998,
      "Ġreach": 5999,
      "à½¢": 6000,
      "á¼±": 6001,
      "à¸´à¸": 6002,
      "Ġá±Łá±": 6003,
      "!!": 6004,
      "'ve": 6005,
      "oute": 6006,
      "iman": 6007,
      "àªķ": 6008,
      "ĠHere": 6009,
      "à½ĳ": 6010,
      "uke": 6011,
      "ãĤĭ": 6012,
      "ĠTrans": 6013,
      "Ad": 6014,
      "fix": 6015,
      "qv": 6016,
      "wat": 6017,
      "Ġaction": 6018,
      "Ġnh": 6019,
      "Ġpers": 6020,
      "omat": 6021,
      "à¤¾à¤ľ": 6022,
      "ĠForm": 6023,
      "Ð¾Ð½ÑĮ": 6024,
      "Ġvalid": 6025,
      "ĠáĪĺ": 6026,
      "Õ¥ÖĢÕ": 6027,
      "Ġbelirleyin": 6028,
      "Ġindic": 6029,
      "ģà¸²à¸£": 6030,
      "ķàŃģ": 6031,
      "ership": 6032,
      "áģļáĢº": 6033,
      "Ġmujeres": 6034,
      "@èıľåįķåĪĹè¡¨": 6035,
      "apoxetine": 6036,
      ".type": 6037,
      "Ġsik": 6038,
      "Ġvs": 6039,
      "Ġlove": 6040,
      "Ã¨s": 6041,
      "Ġcomplex": 6042,
      "Ġ);Ċ": 6043,
      "Ġfn": 6044,
      "umo": 6045,
      "econd": 6046,
      "SIG": 6047,
      "Factory": 6048,
      "àºŃàº": 6049,
      "ccording": 6050,
      "à®¿à®²à¯į": 6051,
      "car": 6052,
      "las": 6053,
      "çī": 6054,
      "Ġtit": 6055,
      "ination": 6056,
      "Ġdz": 6057,
      "oud": 6058,
      "Ġweb": 6059,
      "Ġà¤¸à¤Ĥà¤": 6060,
      "-shadow": 6061,
      "#Ċ": 6062,
      "Ka": 6063,
      "nc": 6064,
      "yk": 6065,
      "atin": 6066,
      "ĠmÃ¡": 6067,
      "ilis": 6068,
      "Ġwhy": 6069,
      "ĠÃº": 6070,
      "ival": 6071,
      "ney": 6072,
      "ÑĸÐµ": 6073,
      "âĤģ": 6074,
      "EMAIL": 6075,
      "æĽ´": 6076,
      "Ġopportun": 6077,
      "_declar": 6078,
      "Ġcallconv": 6079,
      "jl": 6080,
      "lab": 6081,
      "mak": 6082,
      "Ĵ×": 6083,
      "à¤ĩ": 6084,
      "ĠØ¥": 6085,
      "Ġanti": 6086,
      "áĭµ": 6087,
      "IST": 6088,
      "MR": 6089,
      "æĺ": 6090,
      "ħáĢ": 6091,
      "Ġhon": 6092,
      "Ġhem": 6093,
      "Ġvec": 6094,
      "àª®": 6095,
      "process": 6096,
      "Ġà¬¬": 6097,
      "Äĥn": 6098,
      "Ġsimp": 6099,
      "ï¼Ł": 6100,
      "ç¬¬": 6101,
      "áŁĨáŀ": 6102,
      "Triangular": 6103,
      "Ġcommercial": 6104,
      "Ġàªħàª¨à«ĩ": 6105,
      "TER": 6106,
      "bit": 6107,
      "local": 6108,
      "ĠĠĠĠĠĠĠĠĠĠĠĠĠĠ": 6109,
      "ÑĭÐ±": 6110,
      "Ġ($": 6111,
      "Ø§Ú©": 6112,
      "ÑįÑĥ": 6113,
      "Ġà®ª": 6114,
      "á¹ĥ": 6115,
      "rg": 6116,
      "Ġswe": 6117,
      "qual": 6118,
      "ÐºÐ¾": 6119,
      "Ġchun": 6120,
      "Ø§Ø¡": 6121,
      "Ġoptions": 6122,
      "ĠNovember": 6123,
      "ĠâĨĦ": 6124,
      "xp": 6125,
      "edd": 6126,
      "ÑĥÐ¹": 6127,
      "Ġena": 6128,
      "Ġasi": 6129,
      "ĠÐ±Ð°": 6130,
      "ĠÐ±Ð¾Ð¹": 6131,
      "à¥ĩà¤²": 6132,
      "áĭ³": 6133,
      "äºĳ": 6134,
      "event": 6135,
      "Ġcuir": 6136,
      "è¿Ļ": 6137,
      "å¹´": 6138,
      "HTTP": 6139,
      "_dientes": 6140,
      "Ġáºįi": 6141,
      "(T": 6142,
      ")(": 6143,
      "View": 6144,
      "ķ×Ļ×": 6145,
      "ĠtÃ¡": 6146,
      "Ġtell": 6147,
      "Ġhindi": 6148,
      "Ġinn": 6149,
      "ÑĥÑĩ": 6150,
      "ĠÐºÐ¾Ð»": 6151,
      "áŀĢ": 6152,
      "ords": 6153,
      "Ġà¬ª": 6154,
      "á¹Ļ": 6155,
      "../": 6156,
      "vision": 6157,
      "Ġfavor": 6158,
      "Ġwrong": 6159,
      "ĠÐ°ÑĤ": 6160,
      "Ġcross": 6161,
      "Ġkm": 6162,
      "awo": 6163,
      "Ġcalculator": 6164,
      "Ð´ÑĭÒ¥": 6165,
      ".is": 6166,
      "Field": 6167,
      "cf": 6168,
      "oad": 6169,
      "Ġcer": 6170,
      "ÑĤÐ°Ð½": 6171,
      "Ġvy": 6172,
      "à¤¾à¤ĩ": 6173,
      "à¤¾à¤Ī": 6174,
      "ikk": 6175,
      "Ġkev": 6176,
      "Ġcover": 6177,
      "ĠÚ¤": 6178,
      "Ġvarious": 6179,
      "Ġcambiador": 6180,
      "Ġfamily": 6181,
      "Point": 6182,
      "ĠSTEP": 6183,
      "Ġ\"');\")Ċ": 6184,
      "matplotlib": 6185,
      "_i": 6186,
      "Ġlal": 6187,
      "Ġ\"/": 6188,
      "see": 6189,
      "Ġstyle": 6190,
      "ĠHar": 6191,
      "inda": 6192,
      "ĠÎ±": 6193,
      "ĠÞĨ": 6194,
      "rict": 6195,
      "ĠseÃ§eneÄŁini": 6196,
      "_M": 6197,
      "pts": 6198,
      "wak": 6199,
      "anan": 6200,
      "Ġtut": 6201,
      "Ġmessage": 6202,
      "Ġdro": 6203,
      "isc": 6204,
      "Ġkis": 6205,
      "Ġlink": 6206,
      "ĠÃ¿": 6207,
      "Ø§Ø¹": 6208,
      "ĠØ¯Ø±": 6209,
      "Ġmultiple": 6210,
      "Ġlogic": 6211,
      "Ġblood": 6212,
      "La": 6213,
      "})": 6214,
      "Ð¸ÑĨ": 6215,
      "omen": 6216,
      "Ġ\"\\": 6217,
      "ÛĮØ¯": 6218,
      "ÑįÐ¹": 6219,
      "áī£": 6220,
      "áĢºáĤĪ": 6221,
      "Ġspecial": 6222,
      "/c": 6223,
      "ged": 6224,
      "kas": 6225,
      "Ġanu": 6226,
      "Ġord": 6227,
      "à¶Ń": 6228,
      "tains": 6229,
      "ĠáĥĽ": 6230,
      "ĠÏĦ": 6231,
      "brother": 6232,
      "Ġficken": 6233,
      "ussian": 6234,
      "\\\":[{\\\"": 6235,
      "\").": 6236,
      "(@": 6237,
      "zd": 6238,
      "Ð¥": 6239,
      "Úµ": 6240,
      "ambo": 6241,
      "sta": 6242,
      "ÑĥÑĥÐ»": 6243,
      "angi": 6244,
      "acc": 6245,
      "acy": 6246,
      "response": 6247,
      "ĠGu": 6248,
      "ief": 6249,
      "à§ģ": 6250,
      "ĠÐ°Ñħ": 6251,
      "Õ«Õ¶": 6252,
      "(m": 6253,
      "TH": 6254,
      "bn": 6255,
      "hm": 6256,
      "width": 6257,
      "yer": 6258,
      "enga": 6259,
      "à¤ĸ": 6260,
      "Ġpnl": 6261,
      "Ġlater": 6262,
      "Ġij": 6263,
      "ĠyÉĽ": 6264,
      "ĠId": 6265,
      "_tails": 6266,
      "çĦ¶": 6267,
      "Ġuntuk": 6268,
      "Ġnothing": 6269,
      "uthentic": 6270,
      "TYPE": 6271,
      "Ðĵ": 6272,
      "aster": 6273,
      "ĠØ·": 6274,
      "à®¤": 6275,
      "à²²": 6276,
      "Ã¤l": 6277,
      "Ãłi": 6278,
      "Array": 6279,
      "':": 6280,
      "..Ċ": 6281,
      "ores": 6282,
      "xs": 6283,
      "æİ": 6284,
      "anya": 6285,
      "à¦ª": 6286,
      "result": 6287,
      "à®Ł": 6288,
      "Ġmei": 6289,
      "ĠÑģÐ°": 6290,
      "ĠÑģÐ°Ð»": 6291,
      "Ġpercent": 6292,
      "ĠÕ¯": 6293,
      "Ġdifference": 6294,
      "áĳİ": 6295,
      "Ð¾Ð³Ð¾": 6296,
      "áģ¢áĢºáĢ": 6297,
      "Ġmillion": 6298,
      "Policy": 6299,
      "à¹ĥà¸": 6300,
      "%;Ċ": 6301,
      "xu": 6302,
      "Ä¡": 6303,
      "ĠÐĽ": 6304,
      "lete": 6305,
      "Ð»ÑĮ": 6306,
      "Ġran": 6307,
      "oph": 6308,
      "ĠFin": 6309,
      "ĠÐ¾Ð½": 6310,
      "Ġ\\\\": 6311,
      "Ġprec": 6312,
      "Äĥng": 6313,
      "çĶ¨": 6314,
      "ĠÑĤÑĥÑĢÐ³Ð°Ð½": 6315,
      "AY": 6316,
      "current": 6317,
      "anna": 6318,
      "Ġkir": 6319,
      "Ġvia": 6320,
      "ĠÃ´": 6321,
      "Ġamo": 6322,
      "ĠĠĠĠĊ": 6323,
      "Ġexpected": 6324,
      "áµ¾": 6325,
      "èº«": 6326,
      "ĠNothing": 6327,
      "debug": 6328,
      "á±©á±": 6329,
      "\"ĊĊ": 6330,
      "-to": 6331,
      "vr": 6332,
      "ÏĮ": 6333,
      "Ü¬": 6334,
      "Ġwlan": 6335,
      "apo": 6336,
      "Ġwhak": 6337,
      "resh": 6338,
      "izi": 6339,
      "hau": 6340,
      "(),": 6341,
      "gram": 6342,
      "Ġauen": 6343,
      "Ġexpect": 6344,
      ".png": 6345,
      "Response": 6346,
      "IV": 6347,
      "Ġsaw": 6348,
      "Ġsort": 6349,
      "Ġbackground": 6350,
      "Ġking": 6351,
      "Ġkong": 6352,
      "Ġler": 6353,
      "Ġgro": 6354,
      "Ġà¤¡": 6355,
      "à¥įà¤¦": 6356,
      "Ġpros": 6357,
      "ĠHer": 6358,
      "ÙĪÚº": 6359,
      "ÙĨÙĬ": 6360,
      "Ġtax": 6361,
      "ĠÏĥ": 6362,
      "ÉĳÌģ": 6363,
      "Ġlimit": 6364,
      "ĠESV": 6365,
      "ĠÆĢing": 6366,
      "ĠCalifornia": 6367,
      "_ex": 6368,
      "cz": 6369,
      "å±": 6370,
      "ĠÐ°Ñģ": 6371,
      "ĠnÉĶ": 6372,
      "Ġlearn": 6373,
      "Ġcontext": 6374,
      "ä¸ª": 6375,
      "Ġlive": 6376,
      "Ġalgorithm": 6377,
      "Event": 6378,
      "Map": 6379,
      "xd": 6380,
      "ÐºÑĤ": 6381,
      "à½ĵ": 6382,
      "ipi": 6383,
      "Ġcomment": 6384,
      "tramp": 6385,
      "ously": 6386,
      "çĿĢ": 6387,
      "Ġpicture": 6388,
      "Ġcourt": 6389,
      "ĠFIU": 6390,
      "Ġdisplays": 6391,
      "qo": 6392,
      "æĿ": 6393,
      "Ġahi": 6394,
      "à¤¥": 6395,
      "aru": 6396,
      "Ġcun": 6397,
      "Ġbona": 6398,
      "idan": 6399,
      "Ġthu": 6400,
      "Ð´Ñĥ": 6401,
      "Ð°Ð½Ð¸": 6402,
      "à½´": 6403,
      "obo": 6404,
      "aries": 6405,
      "Ġàªľ": 6406,
      "ĠStates": 6407,
      "áĵĲ": 6408,
      "Ġblack": 6409,
      "********************************": 6410,
      "kal": 6411,
      "esc": 6412,
      "eler": 6413,
      "Ġens": 6414,
      "Ġmarket": 6415,
      "ĠÐ¿ÑĢÐ¾": 6416,
      "Files": 6417,
      "Offset": 6418,
      "ĠLalwa": 6419,
      "ĤáĢ¾áĢº": 6420,
      "ony": 6421,
      "Ġage": 6422,
      "iste": 6423,
      "Ð½ÑĮ": 6424,
      "oman": 6425,
      "ĠSize": 6426,
      "Ġjin": 6427,
      "ria": 6428,
      "ĠRow": 6429,
      "áī½": 6430,
      "ehova": 6431,
      "ä»ĸ": 6432,
      "ĠUnited": 6433,
      "Manager": 6434,
      "Ġselber": 6435,
      "-C": 6436,
      "kj": 6437,
      "sq": 6438,
      "æĬ": 6439,
      "ÑĤÐº": 6440,
      "ĠSci": 6441,
      "ĠÐºÐ¾Ð½": 6442,
      "ä¸Ĭ": 6443,
      "Ġcontent": 6444,
      "ĠComam": 6445,
      "Ġrelated": 6446,
      "Ġderiv": 6447,
      "mitted": 6448,
      ".WINAP": 6449,
      "Ġinterleaved": 6450,
      "à±ģà°¨à±įà°¨": 6451,
      "wenyezimungu": 6452,
      "(d": 6453,
      "hd": 6454,
      "pes": 6455,
      "enm": 6456,
      "change": 6457,
      "Ġpositive": 6458,
      "ATE": 6459,
      "zg": 6460,
      "Ġaan": 6461,
      "Ġfall": 6462,
      "Ġlin": 6463,
      "ilder": 6464,
      "ĠIS": 6465,
      "à¥įà¤¸": 6466,
      "áĥł": 6467,
      "ĠEm": 6468,
      "Ġcomo": 6469,
      "parent": 6470,
      "æĪĲ": 6471,
      "Ġhalf": 6472,
      "ategory": 6473,
      "-year": 6474,
      "alysis": 6475,
      "Ġdimensions": 6476,
      "Ġabsolute": 6477,
      "Code": 6478,
      "zing": 6479,
      "æĶ": 6480,
      "ĠÓ": 6481,
      "Ġling": 6482,
      "acion": 6483,
      "Ġdev": 6484,
      "though": 6485,
      "ÛĮØ±": 6486,
      "Ġrow": 6487,
      "Ġsample": 6488,
      "Ġeffect": 6489,
      "Ġnumer": 6490,
      "ĠWARRAN": 6491,
      "FF": 6492,
      "inta": 6493,
      "Ġbre": 6494,
      "lyph": 6495,
      "Ġzo": 6496,
      "à¥ĩà¤¤": 6497,
      "Ġshown": 6498,
      "Input": 6499,
      "Ġà¤ķà¥Ģ": 6500,
      "â´»": 6501,
      "Ġprovided": 6502,
      "Ġbecome": 6503,
      "Ġprocedure": 6504,
      "-an": 6505,
      "-Ð±": 6506,
      "gal": 6507,
      "Ġnos": 6508,
      "Ġgh": 6509,
      "Ġzis": 6510,
      "ĠWith": 6511,
      "Ġà¦¤": 6512,
      ",+": 6513,
      "km": 6514,
      "xc": 6515,
      "¡à¸": 6516,
      "ÄĻ": 6517,
      "oms": 6518,
      "Ġvel": 6519,
      "ums": 6520,
      "urt": 6521,
      "ÓĻÑģ": 6522,
      "Ġbool": 6523,
      "Ġangle": 6524,
      "Ġacross": 6525,
      "There": 6526,
      "ification": 6527,
      "ãģ£ãģ": 6528,
      "Ġknowledge": 6529,
      "ĠÃ¶Ð¹Ð´Ã¶": 6530,
      "bd": 6531,
      "lak": 6532,
      "path": 6533,
      "rf": 6534,
      "ude": 6535,
      "çº": 6536,
      "Ġtuk": 6537,
      "Ġcos": 6538,
      "unction": 6539,
      "Ð»Ð¸Ðº": 6540,
      "thread": 6541,
      "ĠRec": 6542,
      "à¦¨à¦¾": 6543,
      "AA": 6544,
      "ÅĨ": 6545,
      "Åĳ": 6546,
      "Ġpad": 6547,
      "ulus": 6548,
      "ĠMos": 6549,
      "iao": 6550,
      "ĠHouse": 6551,
      "Ġdivid": 6552,
      "ÛĮØ§": 6553,
      "ĠÂ¿": 6554,
      "Ġveya": 6555,
      "Ġformat": 6556,
      "Ġperformance": 6557,
      "å¦Ĥ": 6558,
      "ĠIndonesian": 6559,
      "lim": 6560,
      "Ġná»į": 6561,
      "Ð»ÑĬ": 6562,
      "agu": 6563,
      "Ã¤m": 6564,
      "ØªÙĬ": 6565,
      "áģµ": 6566,
      "rule": 6567,
      "Ġworking": 6568,
      "Ġenter": 6569,
      "Ġturn": 6570,
      "ĠÙħÛĮÚº": 6571,
      "!\\\\(\\\\": 6572,
      "Ġcá»§a": 6573,
      "Ġrelevant": 6574,
      "(C": 6575,
      "(S": 6576,
      "vg": 6577,
      "vari": 6578,
      "ĠtÃ«": 6579,
      "Ġpied": 6580,
      "Ġhen": 6581,
      "Ġina": 6582,
      "Ġgy": 6583,
      "Ġstory": 6584,
      "ĠÂ»": 6585,
      "space": 6586,
      "Ó©Ó©": 6587,
      "à°¾à°°": 6588,
      "Ġhydro": 6589,
      "ÉĻdÉĻ": 6590,
      "á±Łá±¹á±": 6591,
      "Ġdatabase": 6592,
      "-se": 6593,
      "]ĊĊ": 6594,
      "gam": 6595,
      "qan": 6596,
      "Ġfur": 6597,
      "Ġfem": 6598,
      "Ġauthor": 6599,
      "Ġcm": 6600,
      "ĠÂ§": 6601,
      "åı¯": 6602,
      "/d": 6603,
      "],Ċ": 6604,
      "zb": 6605,
      "ÒŁ": 6606,
      "isch": 6607,
      "ĠlÃ©": 6608,
      "ÑĤÐ¾ÑĢ": 6609,
      "radi": 6610,
      "Ġtot": 6611,
      "anger": 6612,
      "Ġani": 6613,
      "Ġdeb": 6614,
      "iber": 6615,
      "Trans": 6616,
      "MINISTER": 6617,
      "_tailenc": 6618,
      "¼ĸè¾ĳ": 6619,
      "ľáĢ®áģ¤": 6620,
      "%%%%%%%%%%%%%%%%": 6621,
      "Gen": 6622,
      "Set": 6623,
      "fd": 6624,
      "vm": 6625,
      "ÜĹ": 6626,
      "Ġstim": 6627,
      "Ġning": 6628,
      "Ġpy": 6629,
      "Ġkus": 6630,
      "Ġef": 6631,
      "();ĊĊ": 6632,
      "×¢×¨": 6633,
      "Ġ/*": 6634,
      "Dire": 6635,
      "Ph": 6636,
      "gw": 6637,
      "lm": 6638,
      "Üł": 6639,
      "Ġmid": 6640,
      "Ð¾Ð¸": 6641,
      "ĠShe": 6642,
      "ĠYa": 6643,
      "ĠInter": 6644,
      "EST": 6645,
      "Ã¿Ð½": 6646,
      "Ġregion": 6647,
      "Ġchemical": 6648,
      "Ġà¬ıà¬": 6649,
      "ristian": 6650,
      "./": 6651,
      "Enum": 6652,
      "SS": 6653,
      "cor": 6654,
      "public": 6655,
      "çľ": 6656,
      "ints": 6657,
      "à¤¾à¤ª": 6658,
      "Ġonce": 6659,
      "ĠOff": 6660,
      "clus": 6661,
      "à¤¨à¥ĩ": 6662,
      "Ġese": 6663,
      "Ġmethods": 6664,
      "))ĊĊ": 6665,
      "Ġprem": 6666,
      "Ġcontact": 6667,
      "Ġtaken": 6668,
      "Ġmakes": 6669,
      "ÑĭÐ½ÑĭÒ¥": 6670,
      "Ġsegment": 6671,
      "tructure": 6672,
      ".n": 6673,
      "Log": 6674,
      "PO": 6675,
      "ping": 6676,
      "ģàº": 6677,
      "Ġhref": 6678,
      "eline": 6679,
      "Ġgw": 6680,
      "ÑģÑģÐ°": 6681,
      "à²¿": 6682,
      "Ġngu": 6683,
      "venue": 6684,
      "áĵĩ": 6685,
      "Ġâµī": 6686,
      "ï¼ģ": 6687,
      "-pii": 6688,
      "à±Ĩà°": 6689,
      "-j": 6690,
      "Date": 6691,
      "İÞ¬": 6692,
      "Ġpast": 6693,
      "Ġdit": 6694,
      "Ġdok": 6695,
      "unda": 6696,
      "ades": 6697,
      "Ġona": 6698,
      "ĠEng": 6699,
      "Ġconfig": 6700,
      "ĠÕ¸": 6701,
      "Ġinterface": 6702,
      "build": 6703,
      "ĠÜĲ": 6704,
      "áĮį": 6705,
      "ÜĿÜ¼Ü": 6706,
      ".re": 6707,
      "hal": 6708,
      "qe": 6709,
      "status": 6710,
      "Ġrule": 6711,
      "ĠNational": 6712,
      "anding": 6713,
      "iau": 6714,
      "udio": 6715,
      "ØªÙĪ": 6716,
      "áº¿": 6717,
      "ambi": 6718,
      "anced": 6719,
      "Ġá±ł": 6720,
      "args": 6721,
      "à¤¿à¤¯à¤¾": 6722,
      "Ġmiddle": 6723,
      "Ġuniform": 6724,
      "Ġscience": 6725,
      "ĠWashington": 6726,
      "ail": 6727,
      "hol": 6728,
      "kx": 6729,
      "kap": 6730,
      "ÏĦ": 6731,
      "ĠkÉĶ": 6732,
      "Ġlines": 6733,
      "ibi": 6734,
      "rack": 6735,
      "Ġdevelopment": 6736,
      ">(": 6737,
      "Be": 6738,
      "fc": 6739,
      "np": 6740,
      "yc": 6741,
      "åĶ": 6742,
      "ĠÑĥÑĢ": 6743,
      "ÑĭÑģÑĤ": 6744,
      "ĠType": 6745,
      "awl": 6746,
      "ifi": 6747,
      "ĠÑģÐ²": 6748,
      "Ġseries": 6749,
      "Ġmodern": 6750,
      "Ġregard": 6751,
      "Ġhundred": 6752,
      "ĠCounty": 6753,
      "Ġmaduras": 6754,
      "(--": 6755,
      "-Ðº": 6756,
      "fort": 6757,
      "Ġnen": 6758,
      "Ġnok": 6759,
      "Ġdik": 6760,
      "Ġkah": 6761,
      "olar": 6762,
      "à¦¯à¦¼": 6763,
      "ĠEqu": 6764,
      "erson": 6765,
      "ugh": 6766,
      "âµĶ": 6767,
      "ĠÐ¼ÐµÐ½": 6768,
      "ï¼ī": 6769,
      "Ġà¤µà¤¿à¤": 6770,
      "Ġcomputer": 6771,
      "à´Ļàµįà´Ļ": 6772,
      "ĠespaÃ±ol": 6773,
      "II": 6774,
      "package": 6775,
      "Ġez": 6776,
      "Ġyog": 6777,
      "ĠST": 6778,
      "Ã¡i": 6779,
      "thu": 6780,
      "Ð°Ð»Ð¸": 6781,
      "É¨r": 6782,
      "ÓĻÐ»": 6783,
      "ĠÚ©ÛĴ": 6784,
      "à¶ļ": 6785,
      "ĠÕ¥": 6786,
      "ĠÜ¡": 6787,
      "Ġà®µ": 6788,
      "Ġkhlschrank": 6789,
      "model": 6790,
      "Ġidea": 6791,
      "Ġpotential": 6792,
      "à®®à¯į": 6793,
      "à©ĭà¨": 6794,
      "Ġpublished": 6795,
      "(b": 6796,
      "fb": 6797,
      "sw": 6798,
      "ç½": 6799,
      "Ġsat": 6800,
      "Ġpel": 6801,
      "Ġbai": 6802,
      "itar": 6803,
      "Ġdevice": 6804,
      "à¥ĩà¤µ": 6805,
      "Ġ${": 6806,
      "ĠUser": 6807,
      "uster": 6808,
      "Ġsimpl": 6809,
      "Ġpolit": 6810,
      ">ĊĊ": 6811,
      "Ûĭ": 6812,
      "igu": 6813,
      "Ġproj": 6814,
      "ĠYork": 6815,
      "à¥ĭà¤Ĥ": 6816,
      "Ġà°µ": 6817,
      "à«įàª¯": 6818,
      "ï¼Ī": 6819,
      "ĠSunday": 6820,
      "ĠSociety": 6821,
      "ikipedia": 6822,
      "SWORD": 6823,
      "ĠMITCY": 6824,
      "Ġarchitect": 6825,
      "')Ċ": 6826,
      "iw": 6827,
      "zj": 6828,
      "issa": 6829,
      "ÑĢÑĤ": 6830,
      "roid": 6831,
      "uses": 6832,
      "à°¾": 6833,
      "Ð·Ð°": 6834,
      "Ġshall": 6835,
      "Ġà¦¨": 6836,
      "valid": 6837,
      "Ð°ÑģÑĮ": 6838,
      "Ġfiles": 6839,
      "Ġgives": 6840,
      "ĠTs": 6841,
      "ĠÃ«": 6842,
      "Ġmaking": 6843,
      "write": 6844,
      "áĲĬ": 6845,
      "TION": 6846,
      "ĠBoost": 6847,
      "oreground": 6848,
      "Ġpretty": 6849,
      "_small": 6850,
      "}}]},Ċ": 6851,
      "-r": 6852,
      "mg": 6853,
      "ĠØ§Ø³": 6854,
      "ĲáĢºáĢ": 6855,
      "ĠkÆ¡": 6856,
      "à¦¸": 6857,
      "ĠNorth": 6858,
      "Ġnav": 6859,
      "obe": 6860,
      "params": 6861,
      "á¸»": 6862,
      "@æķ°æį®è¡¨": 6863,
      "Ġfluctuations": 6864,
      "nik": 6865,
      "Ġpai": 6866,
      "Ġjan": 6867,
      "Ð°ÑĢÐ¸": 6868,
      "Ġ**Ċ": 6869,
      "Ġapplied": 6870,
      "×ķ×ª": 6871,
      "ĠÂ£": 6872,
      "Ġporn": 6873,
      "Ġworksheets": 6874,
      "Ġempty": 6875,
      "à¼ĭà½¢à¾Ĵà¾±à½´à½ĳ": 6876,
      "CE": 6877,
      "version": 6878,
      "æ¯": 6879,
      "ĠÔ": 6880,
      "Ġcame": 6881,
      "Ġvha": 6882,
      "ĠDa": 6883,
      "Ġnote": 6884,
      "Ġscale": 6885,
      "Ġgeomet": 6886,
      "larÄ±": 6887,
      "åĪ°": 6888,
      "IÑį": 6889,
      "Table": 6890,
      "qh": 6891,
      "åĢ": 6892,
      "Ġ;;": 6893,
      "Ġsays": 6894,
      "align": 6895,
      "Ġ\"\"": 6896,
      "tee": 6897,
      "Ġstress": 6898,
      "uko": 6899,
      "ĠVer": 6900,
      "Ġnih": 6901,
      "Ð¾Ð»ÑĮ": 6902,
      "áĳķ": 6903,
      "John": 6904,
      "namespace": 6905,
      "à¼ĭ": 6906,
      "Ġtowards": 6907,
      "Ġâ²īâ²": 6908,
      "á¿¶Î½": 6909,
      "AWSConfig": 6910,
      "_LOGIC": 6911,
      "ķáĢ¹áĢįáĢ²áĢ": 6912,
      ",{": 6913,
      "cb": 6914,
      "san": 6915,
      "zw": 6916,
      "ÅĽ": 6917,
      "Ġê": 6918,
      "Ġbw": 6919,
      "itation": 6920,
      "akk": 6921,
      "ĠSam": 6922,
      "ĠMore": 6923,
      "áĪ³": 6924,
      "ĠUp": 6925,
      "email": 6926,
      "Reg": 6927,
      "_F": 6928,
      "cp": 6929,
      "qd": 6930,
      "size": 6931,
      "}(": 6932,
      "ç«": 6933,
      "Ġsie": 6934,
      "Ġsitu": 6935,
      "etu": 6936,
      "ayan": 6937,
      "Ġenough": 6938,
      "very": 6939,
      "ÙĦÙħ": 6940,
      "Õ¡Õ¯": 6941,
      "Ġdisc": 6942,
      "Ð°Ð²Ð°": 6943,
      "Ġ×Ĳ×Ļ×": 6944,
      "(ctx": 6945,
      "ĠWSMan": 6946,
      "ÑĬÑĳÑģ": 6947,
      "Ġrequires": 6948,
      "tx": 6949,
      "ÐĽ": 6950,
      "rea": 6951,
      "aren": 6952,
      "Ġhua": 6953,
      "Ġsek": 6954,
      "Ġwhite": 6955,
      "izing": 6956,
      "ĠÐ´Ð°ÑĢ": 6957,
      "Ġà¦Ĩ": 6958,
      "áģĢ": 6959,
      "Ġworks": 6960,
      "Ġà®ķ": 6961,
      "Î¿Ïħ": 6962,
      "Ġloss": 6963,
      "Ġperpendicular": 6964,
      "ĠArgentina": 6965,
      "body": 6966,
      "fin": 6967,
      "mk": 6968,
      "Éĸ": 6969,
      "Ġbis": 6970,
      "Ð¾Ñĩ": 6971,
      "ÑĥÐ¶": 6972,
      "irt": 6973,
      "à¼ĭà½ĵ": 6974,
      "à¶»": 6975,
      "à¬¾à¬°": 6976,
      "Ġmargin": 6977,
      "Ġinstall": 6978,
      "known": 6979,
      "ĠStyle": 6980,
      "Ġenjoy": 6981,
      "Ġneighb": 6982,
      "àµĩà´": 6983,
      "Ġobserved": 6984,
      "IB": 6985,
      "_IN": 6986,
      "rk": 6987,
      "Ùį": 6988,
      "Üª": 6989,
      "Ġ.Ċ": 6990,
      "eso": 6991,
      "à¤¨à¤¾": 6992,
      "Ø§Ø¬": 6993,
      "jw": 6994,
      "Þª": 6995,
      "request": 6996,
      "ods": 6997,
      "rie": 6998,
      "opo": 6999,
      "ÐµÑĢÐ¸": 7000,
      "Ġapplication": 7001,
      "ĠÐŀÐ»": 7002,
      "Ġcontains": 7003,
      "ìĹĲ": 7004,
      "ðĿĲ": 7005,
      "Ġprostituoituja": 7006,
      "áŀĽáŀ": 7007,
      "ĠDevelopment": 7008,
      "yal": 7009,
      "zs": 7010,
      "¤×": 7011,
      "Ġsz": 7012,
      "Ġkya": 7013,
      "Ġlah": 7014,
      "ĠMul": 7015,
      "Ġàº": 7016,
      "áĥķ": 7017,
      "board": 7018,
      "Ġà¤¸à¥ĩ": 7019,
      "scope": 7020,
      "Ġmenm": 7021,
      "Ġdonn": 7022,
      "çĶŁ": 7023,
      "Ð°Ò»": 7024,
      "Ġwritten": 7025,
      "Ġincrease": 7026,
      "_V": 7027,
      "bm": 7028,
      "ĠnÃ¡": 7029,
      "arr": 7030,
      "Ġrev": 7031,
      "ecu": 7032,
      "Ġ:Ċ": 7033,
      "à§įà¦¨": 7034,
      "Ð½Ð¾Ð¹": 7035,
      "Ġbesace": 7036,
      "Image": 7037,
      "ospital": 7038,
      "'ll": 7039,
      "CO": 7040,
      "IP": 7041,
      "Ķ×": 7042,
      "Ġaku": 7043,
      "ĠkÃ¶": 7044,
      "rot": 7045,
      "ĠâĢ¦": 7046,
      "Ġimag": 7047,
      "áĵ¯": 7048,
      "Ġtypes": 7049,
      "ĠEymundr": 7050,
      "Ġà¦ĵà¦ĩ": 7051,
      "(A": 7052,
      "bon": 7053,
      "ien": 7054,
      "oot": 7055,
      "title": 7056,
      "ites": 7057,
      "Ġee": 7058,
      "Ġgay": 7059,
      "ĠCity": 7060,
      "Ð¸Ð½Ð³": 7061,
      "Ġà¦²": 7062,
      "à·ı": 7063,
      "Ð¸Ð»Ð¸": 7064,
      "à¶º": 7065,
      "ĠáĭĿ": 7066,
      "Ġdoesn": 7067,
      "ĠJanuary": 7068,
      "Ġcombination": 7069,
      "Ġáĥ¡áĥĲáĥ": 7070,
      "Ġbrought": 7071,
      "dn": 7072,
      "çĻ": 7073,
      "anas": 7074,
      "ĠaÃ§": 7075,
      "ĠÐĹ": 7076,
      "state": 7077,
      "Ġvwar": 7078,
      "raph": 7079,
      "oper": 7080,
      "Ð°Ð½ÑĮ": 7081,
      "ÑįÑĤ": 7082,
      "Ġqual": 7083,
      "ĉĉĉĉĉ": 7084,
      "Ġrole": 7085,
      "Ġ+Ċ": 7086,
      "Ð°Ð·Ð°": 7087,
      "rics": 7088,
      "jy": 7089,
      "was": 7090,
      "ÑĭÐ²": 7091,
      "apat": 7092,
      "Ġsepar": 7093,
      "Ġexamples": 7094,
      "ĠÑĤÑĢ": 7095,
      "Ġ|ĊĊ": 7096,
      "Ġà°¸": 7097,
      "ĠÄ°": 7098,
      "àŃįà¬¤": 7099,
      "Network": 7100,
      "è¢«": 7101,
      "Ġfotos": 7102,
      "à¼ĭà½ĸà½¦à¾": 7103,
      "ĠUkraine": 7104,
      "Ġestudyante": 7105,
      "Ġfootstool": 7106,
      "-P": 7107,
      "xl": 7108,
      "Ġwent": 7109,
      "Ġlad": 7110,
      "ouble": 7111,
      "Ð½Ð°Ð¹": 7112,
      "ĠCha": 7113,
      "erek": 7114,
      "Ä±ÅŁ": 7115,
      "Ġquant": 7116,
      "ĠÐ¿Ð¾Ð»": 7117,
      "Ġmultiply": 7118,
      "mal": 7119,
      "Ð°r": 7120,
      "Ġns": 7121,
      "Ġoo": 7122,
      "query": 7123,
      "Ġane": 7124,
      "Ġstar": 7125,
      "Ġstatus": 7126,
      "ĠLi": 7127,
      "Ġmein": 7128,
      "main": 7129,
      "ä¸ĭ": 7130,
      "áĢŃáĢ¯": 7131,
      "Handler": 7132,
      "Ġadjust": 7133,
      "partial": 7134,
      "Ġsuperconductivity": 7135,
      "ĠÉ¨": 7136,
      "enk": 7137,
      "ĠmÉĽ": 7138,
      "Ġnah": 7139,
      "aria": 7140,
      "áĥ¡": 7141,
      "ĠÑģÐ¿": 7142,
      "áĬ«": 7143,
      "å®¶": 7144,
      "Ġhorizontal": 7145,
      "bat": 7146,
      "gj": 7147,
      "util": 7148,
      "Ġsul": 7149,
      "Ġell": 7150,
      "edu": 7151,
      "ÑĭÐ³ÑĬ": 7152,
      "adem": 7153,
      "hare": 7154,
      "clud": 7155,
      "à¥ĭà¤°": 7156,
      "\"\"\"Ċ": 7157,
      "English": 7158,
      "Statement": 7159,
      "UG": 7160,
      "_D": 7161,
      "fy": 7162,
      "nj": 7163,
      "nr": 7164,
      "Î³": 7165,
      "Ġtul": 7166,
      "Ġsig": 7167,
      "Ġsand": 7168,
      "else": 7169,
      "ÑĥÑģÑĤ": 7170,
      "ĠDavid": 7171,
      "ĠEr": 7172,
      "ĠFl": 7173,
      "ĠJÐµ": 7174,
      "udu": 7175,
      "à§Į": 7176,
      "Äģs": 7177,
      "ĠàªĨ": 7178,
      "áī²": 7179,
      "Ġclic": 7180,
      "Ø§ØŃ": 7181,
      "å¾Ĺ": 7182,
      ".pro": 7183,
      "Tree": 7184,
      "uwa": 7185,
      "Ö·": 7186,
      "atory": 7187,
      "Ð°Ð°ÑĢ": 7188,
      "oria": 7189,
      "Ġwindow": 7190,
      "ÑĭÒ¥": 7191,
      "ĠRep": 7192,
      "ÑıÑĢ": 7193,
      "áŀĺ": 7194,
      "Ġadded": 7195,
      "Read": 7196,
      "Ġcomplete": 7197,
      "Ġdetermine": 7198,
      "Ä±nÄ±z": 7199,
      "nbsp": 7200,
      "Empty": 7201,
      "é«ĺ": 7202,
      "Ġmoderne": 7203,
      "!\\(\\*": 7204,
      "Ġtjuá¹¯": 7205,
      "Ġunfolding": 7206,
      "):Ċ": 7207,
      "Int": 7208,
      "vc": 7209,
      "æĥ": 7210,
      "ĩáĢ": 7211,
      "Ġpah": 7212,
      "Ġbind": 7213,
      "ÐµÐ´Ð¸": 7214,
      "Ð»ÐµÐ½": 7215,
      "akt": 7216,
      "ĠMy": 7217,
      "Ġdiam": 7218,
      "ÛĮÙĦ": 7219,
      "ĠIntern": 7220,
      "Ġmove": 7221,
      "àŃįà¬°": 7222,
      "Ġmusic": 7223,
      "-R": 7224,
      "aff": 7225,
      "null": 7226,
      "zc": 7227,
      "Ç«": 7228,
      "Î¸": 7229,
      "ÎŃ": 7230,
      "ÐŃ": 7231,
      "inas": 7232,
      "Ġsend": 7233,
      "atal": 7234,
      "alt": 7235,
      "Ġcodes": 7236,
      "ĠÐ¤": 7237,
      "Ġeva": 7238,
      "iru": 7239,
      "Ø§Ùĥ": 7240,
      "à®²": 7241,
      "Ì±n": 7242,
      "Ġclose": 7243,
      "ĠĠĊ": 7244,
      "Ġsubst": 7245,
      "Ġfilter": 7246,
      "åģļ": 7247,
      "ç¾İ": 7248,
      "İÞ¦ÞĩÞ¨": 7249,
      "ĠFriday": 7250,
      "à©±à¨": 7251,
      "à¼ĭà½Ĥà¾±à½²": 7252,
      "Not": 7253,
      "xf": 7254,
      "alle": 7255,
      "alth": 7256,
      "Ġcum": 7257,
      "Ġkem": 7258,
      "aso": 7259,
      "Ġhit": 7260,
      "awi": 7261,
      "à²¦": 7262,
      "Ġplane": 7263,
      "Ġtherefore": 7264,
      "Ġchauffage": 7265,
      "(_\\)]\\": 7266,
      "(_\\\\)]\\\\": 7267,
      "'l": 7268,
      "-com": 7269,
      "hh": 7270,
      "Ġtitle": 7271,
      "Ġawa": 7272,
      "Ġsyn": 7273,
      "Ġmum": 7274,
      "Ġdil": 7275,
      "Ġdum": 7276,
      "Ġhn": 7277,
      "Ġea": 7278,
      "Ġven": 7279,
      "iden": 7280,
      "ĠTerm": 7281,
      "Ġáį": 7282,
      "Ġamong": 7283,
      "Ġdouble": 7284,
      "float": 7285,
      "ç³»": 7286,
      "Ġnackt": 7287,
      "ķáĢºáĢ": 7288,
      "ĠtÉ©": 7289,
      "Ġwie": 7290,
      "Ð½ÐµÐ½ÑĮ": 7291,
      "ĠMin": 7292,
      "Ġchat": 7293,
      "Ġong": 7294,
      "Ġstatis": 7295,
      "Ġasa": 7296,
      "ĠÕ°": 7297,
      "Ġà°ķ": 7298,
      "\":\"": 7299,
      "Ġcorresponding": 7300,
      "ÑĭÐ½Ð°Ò¥": 7301,
      "Ġachie": 7302,
      ".Get": 7303,
      "arak": 7304,
      "awn": 7305,
      "illi": 7306,
      "ÉĻÌģ": 7307,
      "Ġhigher": 7308,
      "Ġneeds": 7309,
      "áķĲ": 7310,
      "After": 7311,
      "Ġbuddha": 7312,
      "Ġinvention": 7313,
      "ĠLondon": 7314,
      "Ġrespond": 7315,
      "ãĥ¼ãĥ": 7316,
      "xuechao": 7317,
      "åł´åĲ": 7318,
      "à¦ĸà§ĭà¦¯à¦¼": 7319,
      "/Ċ": 7320,
      "={": 7321,
      "Act": 7322,
      "Me": 7323,
      "length": 7324,
      "Ġsqu": 7325,
      "Ġsai": 7326,
      "alam": 7327,
      "olu": 7328,
      "ĠID": 7329,
      "Ġrather": 7330,
      "ĠDet": 7331,
      "Ġenvironment": 7332,
      "ÙĨÚ¯": 7333,
      "obi": 7334,
      "ressed": 7335,
      "à¨°": 7336,
      "Ġmodels": 7337,
      "à³Ĩà²°": 7338,
      "(self": 7339,
      "hang": 7340,
      "jm": 7341,
      "win": 7342,
      "Ġ^": 7343,
      "Ġmik": 7344,
      "Ġnya": 7345,
      "Ġinform": 7346,
      "Ġile": 7347,
      "idh": 7348,
      "urch": 7349,
      "ĠApp": 7350,
      "ĠMu": 7351,
      "ĠDes": 7352,
      "ione": 7353,
      "ĠÐ±ÑĥÐ»": 7354,
      "à´¯": 7355,
      "Ġamb": 7356,
      "hui": 7357,
      "ĠAny": 7358,
      "ĠResearch": 7359,
      "à³ĩà²": 7360,
      "\\end": 7361,
      "link": 7362,
      "¬áĢºáĢ": 7363,
      "æĭ": 7364,
      "ĸáĢ": 7365,
      "Ġfol": 7366,
      "eria": 7367,
      "Ġnda": 7368,
      "ĠpÅĻ": 7369,
      "Ġbra": 7370,
      "ĠĠĠĠĠĠĠĠĠĠĠĠĠĠĠĠ": 7371,
      "Ġhana": 7372,
      "Ġkeys": 7373,
      "ãģª": 7374,
      "Ġdoing": 7375,
      "Ġcontract": 7376,
      "à§ĩà¦¨": 7377,
      "Ġcreated": 7378,
      "number": 7379,
      "æĹ¥": 7380,
      "}]',": 7381,
      "ĠGouvern": 7382,
      "'_": 7383,
      "EX": 7384,
      "fm": 7385,
      "gd": 7386,
      "json": 7387,
      "²áĢ": 7388,
      "Ġec": 7389,
      "Ð»Ð°Ñģ": 7390,
      "Ġtook": 7391,
      "Ġà¤§": 7392,
      "Ġkaj": 7393,
      "ports": 7394,
      "())": 7395,
      "Ġclick": 7396,
      "ĠÜł": 7397,
      "à«įàª°": 7398,
      "ESS": 7399,
      "ÜĺÜ¼Ü": 7400,
      "Ġcylind": 7401,
      "ĠCyok": 7402,
      "ĠPedro": 7403,
      "ĠAbraham": 7404,
      "æ²¡t": 7405,
      ".F": 7406,
      "fon": 7407,
      "Ġsuk": 7408,
      "Ġkana": 7409,
      "ĠOR": 7410,
      "eks": 7411,
      "Ġkei": 7412,
      "Ø¨ÙĬ": 7413,
      "ĠÑįÑĤ": 7414,
      "å¥½": 7415,
      "Ġà¤ıà¤ķ": 7416,
      ")+": 7417,
      "top": 7418,
      "Ìĩ": 7419,
      "Ġate": 7420,
      "asta": 7421,
      "elp": 7422,
      "ided": 7423,
      "ceed": 7424,
      "Ð¼Ð°Ð½": 7425,
      "izer": 7426,
      "try": 7427,
      "ĠØ¨Ûķ": 7428,
      "Ä«n": 7429,
      "ÄĹs": 7430,
      "ĠRead": 7431,
      "Ġtlen": 7432,
      "Ġâ´°": 7433,
      "Ġchalleng": 7434,
      "container": 7435,
      "ĠAjuaÌ±": 7436,
      "Ġá½ĳÎ¼": 7437,
      "PL": 7438,
      "Ġae": 7439,
      "ĠÃĹ": 7440,
      "Ä±m": 7441,
      "Ġuses": 7442,
      "É¨n": 7443,
      "Ġàªµ": 7444,
      "à·Ĵ": 7445,
      "(new": 7446,
      "qb": 7447,
      "©â²": 7448,
      "Ġsug": 7449,
      "isyon": 7450,
      "ĠbÉĽ": 7451,
      "Ġkou": 7452,
      "asti": 7453,
      "ĠFile": 7454,
      "abled": 7455,
      "ÑĸÐ½": 7456,
      "ĠÑħÑĬ": 7457,
      "ixel": 7458,
      "ĠÙĪØ§ÙĦ": 7459,
      "Ġà°ļ": 7460,
      "Ó©Ð»": 7461,
      "â´³": 7462,
      "Ġà¥¤Ċ": 7463,
      "Ġprovides": 7464,
      "éĥ½": 7465,
      "Bytes": 7466,
      "¤à³įà²¤": 7467,
      "ëĬĶ": 7468,
      "Ġspatial": 7469,
      "fh": 7470,
      "kv": 7471,
      "iling": 7472,
      "static": 7473,
      "Ġyah": 7474,
      "ÑģÐ¿": 7475,
      "ĠSol": 7476,
      "à¥įà¤¥": 7477,
      "istry": 7478,
      "ipo": 7479,
      "ÉĶÌĢ": 7480,
      "Ã¼k": 7481,
      "erman": 7482,
      "ĠSchool": 7483,
      "Ġkrwar": 7484,
      "_TIME": 7485,
      "ĠMATLAB": 7486,
      "Ġ\"<?=": 7487,
      "ĠTeotihuac": 7488,
      "Ġà¤Ĺà¥Įà¤¤à¤®": 7489,
      "Rec": 7490,
      "pol": 7491,
      "post": 7492,
      "qg": 7493,
      "æĦ": 7494,
      "Ġao": 7495,
      "Ġsrc": 7496,
      "ĠBro": 7497,
      "aih": 7498,
      "êŀĮaÌ±": 7499,
      "Ð°Ð»ÑĤ": 7500,
      "ãģ¯": 7501,
      "Ġsubject": 7502,
      "Ġuma": 7503,
      "Ġbasic": 7504,
      "Ġexperiment": 7505,
      "ĠÐºÃ¶ÑĢ": 7506,
      "Users": 7507,
      "åĺħ": 7508,
      "Ġbillion": 7509,
      "Ġwrote": 7510,
      "Ġreleased": 7511,
      "agnetic": 7512,
      "à§įà§°": 7513,
      "à¼ĭà½¢à½²à½": 7514,
      "Ġintensity": 7515,
      "bg": 7516,
      "qy": 7517,
      "rv": 7518,
      "zin": 7519,
      "}],": 7520,
      "âĪ": 7521,
      "Ġnanga": 7522,
      "Ġdak": 7523,
      "Ġdah": 7524,
      "root": 7525,
      "Ġgun": 7526,
      "ĠyÃ©": 7527,
      "ĠLo": 7528,
      "Ġita": 7529,
      "ÙĨØ§": 7530,
      "ĠØ§ÙĦØ¹": 7531,
      "ĠÐ½Ð¾": 7532,
      "Ã¢ng": 7533,
      "ESV": 7534,
      "Ġagre": 7535,
      "ĠAllah": 7536,
      "!âĢĿ": 7537,
      ".x": 7538,
      "Min": 7539,
      "_to": 7540,
      "wing": 7541,
      "Ü¡": 7542,
      "ĠmÃ©": 7543,
      "Ġkim": 7544,
      "ĠBible": 7545,
      "Ġproperty": 7546,
      "iews": 7547,
      "áĪ°": 7548,
      "ÑıÑģ": 7549,
      "áĬ¨": 7550,
      "Ø§Ø±ÛĮ": 7551,
      "ĠáĪĽ": 7552,
      "Õ«Õ": 7553,
      "Ġâ²Ľ": 7554,
      "When": 7555,
      "çŃī": 7556,
      "Ĺà¸µà¹Īà¸": 7557,
      "pository": 7558,
      "Ġekranda": 7559,
      "Ġmbecy": 7560,
      "WFChat": 7561,
      "ITIONS": 7562,
      "---|---|": 7563,
      "])": 7564,
      "tak": 7565,
      "ĠáĥĲáĥ": 7566,
      "Ġner": 7567,
      "Ġdas": 7568,
      "Ġeu": 7569,
      "à¦¹": 7570,
      "Ġ(!": 7571,
      "uler": 7572,
      "ults": 7573,
      "ĠCo": 7574,
      "ÉĽl": 7575,
      "Ġxin": 7576,
      "Åĭa": 7577,
      "Ġrak": 7578,
      "Ø¨Ø±": 7579,
      "itional": 7580,
      "config": 7581,
      "element": 7582,
      "Ġà´ª": 7583,
      "Ġpersonal": 7584,
      "áĴ¥": 7585,
      "áĸħ": 7586,
      ")\"": 7587,
      "hib": 7588,
      "mw": 7589,
      "arm": 7590,
      "Ġkang": 7591,
      "Ġete": 7592,
      "Ġtoday": 7593,
      "ĠMor": 7594,
      "ĠNO": 7595,
      "Ġproduc": 7596,
      "à°ķ": 7597,
      "ÑįÑįÑĢ": 7598,
      "Ã¶ÑĢ": 7599,
      "ĠUK": 7600,
      "Ġaccept": 7601,
      "Ġblong": 7602,
      "Ð½Ð¾ÑģÑĤ": 7603,
      "Ġáī°": 7604,
      "Ġactually": 7605,
      "Í¡u": 7606,
      "Ġà¤Ķà¤°": 7607,
      "Ġbeyond": 7608,
      "ĠGovern": 7609,
      "jp": 7610,
      "ride": 7611,
      "zp": 7612,
      "ĠnÃŃ": 7613,
      "Ġutil": 7614,
      "ÑįÐ¶": 7615,
      "ĠĠĠĠĠĠĠĠĠĠĠĠĠĠĠĠĠĠĠĠĠĠĠĠĠ": 7616,
      "ÙħÙĦ": 7617,
      "à¥ģà¤²": 7618,
      "Äģng": 7619,
      "ĠÐ°ÑĪ": 7620,
      "Ġhistory": 7621,
      "Ġscientific": 7622,
      "HO": 7623,
      "lk": 7624,
      "nÃ©": 7625,
      "sen": 7626,
      "Ġtug": 7627,
      "Ġnor": 7628,
      "Ġnone": 7629,
      "Ġcut": 7630,
      "Ġcustom": 7631,
      "tid": 7632,
      "ĠSu": 7633,
      "ĠStr": 7634,
      "ĠAna": 7635,
      "ĠÑĳ": 7636,
      "ĠNot": 7637,
      "Ġitem": 7638,
      "à²¡": 7639,
      "ysics": 7640,
      "Ġconstruct": 7641,
      "Ġgrade": 7642,
      "âŁ¨": 7643,
      "Ġfully": 7644,
      "Ġà®īà®": 7645,
      "DS": 7646,
      "TO": 7647,
      "ech": 7648,
      "lick": 7649,
      "Ġtsh": 7650,
      "Ġsos": 7651,
      "Ġsound": 7652,
      "à¤§": 7653,
      "Ġborder": 7654,
      "urr": 7655,
      "Ġjual": 7656,
      "ĠÐºÐ¸": 7657,
      "à¤¿à¤Ĥà¤": 7658,
      "Ġparams": 7659,
      "','": 7660,
      "ĠÐ¿Ð°ÑĢ": 7661,
      "Ã³ng": 7662,
      "à¦¾à¦ķ": 7663,
      "yoe": 7664,
      "ĠÙĪÙİ": 7665,
      "ĠÜĴ": 7666,
      "html": 7667,
      "_string": 7668,
      "à¼ĭà½ĳà½Ħ": 7669,
      "Search": 7670,
      "-th": 7671,
      "EC": 7672,
      "dc": 7673,
      "hw": 7674,
      "lÄ±": 7675,
      "ÑĹ": 7676,
      "Ġtai": 7677,
      "env": 7678,
      "reat": 7679,
      "usr": 7680,
      "Ġseen": 7681,
      "ĠHo": 7682,
      "ÛĮÚº": 7683,
      "ĠÑģÑĥ": 7684,
      "ĠÑģÐ°Ð¼": 7685,
      "ectors": 7686,
      "ĠÐ¸Ð»": 7687,
      "ĠÚ©Ø±": 7688,
      "omega": 7689,
      "Ġáĥĵ": 7690,
      "Ġitself": 7691,
      "STR": 7692,
      "_bound": 7693,
      "Ġchanges": 7694,
      "Ġhappen": 7695,
      "Settings": 7696,
      "Times": 7697,
      "mediate": 7698,
      "ÝģÜ": 7699,
      "Ġvibr": 7700,
      "Ġà´ħà´": 7701,
      "ĠÈĻi": 7702,
      "ĠJoseph": 7703,
      "(i": 7704,
      "-i": 7705,
      ".in": 7706,
      "rup": 7707,
      "tur": 7708,
      "wit": 7709,
      "Ġtie": 7710,
      "Ġdab": 7711,
      "isu": 7712,
      "uno": 7713,
      "Ġgir": 7714,
      "ilar": 7715,
      "ĠCON": 7716,
      "ĠOpen": 7717,
      "ĠØ§ÙĦØŃ": 7718,
      "ÙħÙİ": 7719,
      "áĬ¥": 7720,
      "ĠÂ·": 7721,
      "Ġoption": 7722,
      "Ð¸ÑĤÑĮ": 7723,
      "Ð°Ð·Ñĭ": 7724,
      "áŁĴáŀļáŀ": 7725,
      "à¤ķà¥ĭ": 7726,
      "ÞªÞĥ": 7727,
      "create": 7728,
      "Class": 7729,
      "Ġthought": 7730,
      "UP": 7731,
      "bw": 7732,
      "xn": 7733,
      "·áĢ": 7734,
      "Ġtid": 7735,
      "ename": 7736,
      "Ġnut": 7737,
      "Ġpon": 7738,
      "Ġcult": 7739,
      "omin": 7740,
      "raf": 7741,
      "adas": 7742,
      "ados": 7743,
      "idence": 7744,
      "Ġdeal": 7745,
      "Ã¶Ð½": 7746,
      "Ġyoung": 7747,
      "Ġmodule": 7748,
      "Ġdescribed": 7749,
      "Ġparey": 7750,
      "çĤº": 7751,
      "Ġregression": 7752,
      "ĠÒ»ÑĥÐ½Ð³": 7753,
      "Op": 7754,
      "gar": 7755,
      "¢à¸": 7756,
      "ĠsÉĶ": 7757,
      "Ġhay": 7758,
      "ÑĤÓĻ": 7759,
      "ĠPRO": 7760,
      "Ã¡ng": 7761,
      "à´¿": 7762,
      "Ä±z": 7763,
      "å®ļ": 7764,
      "©Õ«ÖĤÕ¶": 7765,
      "Ġabbreviation": 7766,
      "lig": 7767,
      "qp": 7768,
      "tk": 7769,
      "zr": 7770,
      "Ø¥": 7771,
      "åĮ": 7772,
      "Ġaga": 7773,
      "Ð°Ð°": 7774,
      "Ġdog": 7775,
      "Ġeen": 7776,
      "enta": 7777,
      "ĠTu": 7778,
      "ĠCristo": 7779,
      "ĠBi": 7780,
      "ĠÑĤÐ°ÑĢ": 7781,
      "ĠĠĠĠĠĠĠĠĠĠĠĠĠĠĠĠĠĠĠĠĠ": 7782,
      "Ð°ÑĤÐ¸": 7783,
      "ĠThus": 7784,
      "à¦¿à¦¬": 7785,
      "Ã´ng": 7786,
      "Ġà²¬": 7787,
      "Debug": 7788,
      "¸à±įà°¤": 7789,
      "Þ¯Þ": 7790,
      "ĠFacebook": 7791,
      "ĠYeezy": 7792,
      "Ġpieces": 7793,
      "Ġbarcelona": 7794,
      "àº²àºĻàº": 7795,
      "\"),Ċ": 7796,
      ")/": 7797,
      "CR": 7798,
      "bel": 7799,
      "dk": 7800,
      "fp": 7801,
      "nan": 7802,
      "qm": 7803,
      "total": 7804,
      "Ġwol": 7805,
      "Ġhang": 7806,
      "amat": 7807,
      "unc": 7808,
      "ĠTime": 7809,
      "tek": 7810,
      "andle": 7811,
      "à³Ĭ": 7812,
      "igned": 7813,
      "Ð°Ð³Ð°Ð½": 7814,
      "flow": 7815,
      "Ġ>=": 7816,
      "_stars": 7817,
      "Ġfractions": 7818,
      "Ġengine": 7819,
      "<gh": 7820,
      "Dir": 7821,
      "pela": 7822,
      "sum": 7823,
      "Ġtá»": 7824,
      "Ġaka": 7825,
      "chu": 7826,
      "ĠMi": 7827,
      "aper": 7828,
      "default": 7829,
      "Ġshape": 7830,
      "ponents": 7831,
      "Ġeffects": 7832,
      "Ġà·Ģ": 7833,
      "Ġquarter": 7834,
      "Ġcoffee": 7835,
      "Ġactivities": 7836,
      "Ġlistesini": 7837,
      "_anglify": 7838,
      "Ġaccuracy": 7839,
      "jx": 7840,
      "qc": 7841,
      "inti": 7842,
      "Ġprix": 7843,
      "ales": 7844,
      "Ġhouse": 7845,
      "Ġgel": 7846,
      "ĠIr": 7847,
      "ĠKh": 7848,
      "Ġsave": 7849,
      "anto": 7850,
      "Ã¤h": 7851,
      "Ġpli": 7852,
      "Þ¦Þī": 7853,
      "Ãło": 7854,
      "Ò¯Ð»": 7855,
      "Ã¸r": 7856,
      "Ð³ÑĬÐ°Ð½": 7857,
      "Ð°Ò³": 7858,
      "%Ċ": 7859,
      "ging": 7860,
      "lia": 7861,
      "qr": 7862,
      "ªà¸": 7863,
      "Ïį": 7864,
      "ĠÉĻ": 7865,
      "Ġtah": 7866,
      "Ġmaw": 7867,
      "Ġmeng": 7868,
      "Ġkn": 7869,
      "asin": 7870,
      "Ġhost": 7871,
      "ÑĤÑĭÑĢ": 7872,
      "Ġà¤ĵ": 7873,
      "ques": 7874,
      "Ġáĵ": 7875,
      "term": 7876,
      "Ġupon": 7877,
      "ĠGl": 7878,
      "plies": 7879,
      "á»ĩ": 7880,
      "Ø¯Ø§": 7881,
      "Ġsalon": 7882,
      "Ð°Ð»ÑĬÑĥÐ»": 7883,
      "'al": 7884,
      ".'": 7885,
      ".add": 7886,
      "Mat": 7887,
      "vw": 7888,
      "Ġkes": 7889,
      "ÑĢÐ°Ð²": 7890,
      "Ġthus": 7891,
      "Ġjing": 7892,
      "ĠÃ®": 7893,
      "indu": 7894,
      "elling": 7895,
      "ished": 7896,
      "áº£": 7897,
      "Ġprefer": 7898,
      "Ġtransition": 7899,
      "Ġ),Ċ": 7900,
      "Ġinstance": 7901,
      "ĠÆĨ": 7902,
      "Ġaxis": 7903,
      "_SIZE": 7904,
      "ĪÞ¬ÞĲÞ°": 7905,
      "Ġà¦ħà¦®à¦¸à§ģà¦": 7906,
      "igenproblem": 7907,
      "_VECTOR": 7908,
      "rite": 7909,
      "vk": 7910,
      "Ġaap": 7911,
      "Ġmember": 7912,
      "Ġdeng": 7913,
      "ĠbÉĻ": 7914,
      "edo": 7915,
      "unch": 7916,
      "Ġvit": 7917,
      "Ġyen": 7918,
      "à¤¾à¤ĥ": 7919,
      "quire": 7920,
      "rip": 7921,
      "ights": 7922,
      "ĠJes": 7923,
      "êŀĮi": 7924,
      "ãģ¨": 7925,
      "à¤°à¥Ģ": 7926,
      "ideo": 7927,
      "Ġsix": 7928,
      "Ġcalculate": 7929,
      "ĠÑĢÐ°Ð·": 7930,
      "ĠÜķ": 7931,
      "ÏĦÎ±": 7932,
      "ission": 7933,
      "ounts": 7934,
      "Ġmedia": 7935,
      "fully": 7936,
      "[{\"": 7937,
      "Ġstarted": 7938,
      "\"],Ċ": 7939,
      "Ġprobability": 7940,
      "Ġnegative": 7941,
      "Ġissue": 7942,
      "â±ª": 7943,
      "ĠPablo": 7944,
      "Ġchallenge": 7945,
      "áŀ»áŀ": 7946,
      "-B": 7947,
      "fg": 7948,
      "è´": 7949,
      "é¡": 7950,
      "ĠÐ°Ð¿": 7951,
      "izes": 7952,
      "nder": 7953,
      "ĠÑĤÐµ": 7954,
      "Ġà¤ķà¤¾": 7955,
      "à¤²à¥ĩ": 7956,
      "Ġreturns": 7957,
      "à½¼à½ĳ": 7958,
      "(t": 7959,
      ")\"Ċ": 7960,
      "UB": 7961,
      "jb": 7962,
      "jr": 7963,
      "pw": 7964,
      "qn": 7965,
      "qw": 7966,
      "ĠÐ°Ð±": 7967,
      "ĦáĢ": 7968,
      "Ġmand": 7969,
      "Ġmant": 7970,
      "Ġever": 7971,
      "ÑĭÑĩ": 7972,
      "ĠRel": 7973,
      "ibility": 7974,
      "pli": 7975,
      "Ġkaa": 7976,
      "ured": 7977,
      "áº¡": 7978,
      "ÐµÐ»Ðµ": 7979,
      "Ġmatter": 7980,
      "à¹Ħà¸": 7981,
      "ĠChar": 7982,
      "Ġincludes": 7983,
      "Ġinteger": 7984,
      "Parser": 7985,
      "Ġlevels": 7986,
      "Ġreveal": 7987,
      "Ġconcerning": 7988,
      "Ä±Ì¨": 7989,
      "Ġà®İà®©": 7990,
      "\\\":{\\\"": 7991,
      "Ġattempt": 7992,
      "irsiniz": 7993,
      "ĠConsulta": 7994,
      "\\Documents": 7995,
      ".*": 7996,
      "Ñļ": 7997,
      "Ġnta": 7998,
      "ĠTHE": 7999,
      "ĠjÐ¾Ðº": 8000,
      "Ġrat": 8001,
      "Ġexc": 8002,
      "Ġcompar": 8003,
      "à¥ĭà¤¨": 8004,
      "Ã¢o": 8005,
      "valu": 8006,
      "Ġinterval": 8007,
      "Ġfeature": 8008,
      "ĠÚª": 8009,
      "menu": 8010,
      "åĽ½": 8011,
      "Ġbuilding": 8012,
      "AK": 8013,
      "lb": 8014,
      "sn": 8015,
      "sim": 8016,
      "xh": 8017,
      "Þ§": 8018,
      "Ġcases": 8019,
      "à¦®à¦": 8020,
      "ĠDis": 8021,
      "next": 8022,
      "Ġà¦¶": 8023,
      "ĠÐ¼Ð°ÑĢ": 8024,
      "Ġqi": 8025,
      "âĢ¦Ċ": 8026,
      ":system": 8027,
      "Ġsleep": 8028,
      "ĠURL": 8029,
      "Ġliquid": 8030,
      "Ġgravity": 8031,
      "ĠTechn": 8032,
      "App": 8033,
      "ez": 8034,
      "inde": 8035,
      "enh": 8036,
      "Ġnature": 8037,
      "Ġwer": 8038,
      "Ġoc": 8039,
      "Ð´Ð°Ð»": 8040,
      "ĠNi": 8041,
      "sequ": 8042,
      "Ġdiff": 8043,
      "ĠReg": 8044,
      "ocument": 8045,
      "Ð¸Ð»Ðµ": 8046,
      "Ġà°®": 8047,
      "Ġsolid": 8048,
      "Ġmaterials": 8049,
      "URL": 8050,
      "Ġdidn": 8051,
      "empty": 8052,
      "ĠGreek": 8053,
      "roxevasin": 8054,
      "à´¿à´ļàµįà´ļ": 8055,
      "Ġdomicilio": 8056,
      ".log": 8057,
      "hai": 8058,
      "Â°": 8059,
      "ĠÐ°Ð¶": 8060,
      "ĠØ§ÙĬ": 8061,
      "Ġfir": 8062,
      "aci": 8063,
      "Ġjava": 8064,
      "áĪļ": 8065,
      "Ġ*/": 8066,
      "Ġrap": 8067,
      "ĠInc": 8068,
      "Ġà¬®": 8069,
      "ĠÑĢÐµÑģÐ¿ÑĥÐ±Ð»Ð¸Ðº": 8070,
      "à¯Ī": 8071,
      "Estado": 8072,
      "¬Ü¼": 8073,
      "Ġlargest": 8074,
      "ĠAygÄ±t": 8075,
      "àµĢà´": 8076,
      "SELECT": 8077,
      "Ġcompletely": 8078,
      "Ġtechnique": 8079,
      "'d": 8080,
      "(a": 8081,
      "Am": 8082,
      "has": 8083,
      "jar": 8084,
      "åķ": 8085,
      "Ġfive": 8086,
      "rest": 8087,
      "Ġclean": 8088,
      "Ġways": 8089,
      "Ġà¤Ł": 8090,
      "imin": 8091,
      "ĠSee": 8092,
      "Ð´Ð¸ÑĢ": 8093,
      "acu": 8094,
      "ĠEN": 8095,
      "Ġled": 8096,
      "Ġmek": 8097,
      "upu": 8098,
      "ÙĬØª": 8099,
      "Ġareas": 8100,
      "Ġplate": 8101,
      "ÛķØª": 8102,
      "Ġàª¹": 8103,
      "ije": 8104,
      "àª¾àª¨": 8105,
      "Þ¬Þĩ": 8106,
      "Ġconsidered": 8107,
      "ĠÃ©r": 8108,
      "(:": 8109,
      "New": 8110,
      "gm": 8111,
      "vx": 8112,
      "Ġavoid": 8113,
      "Ġkua": 8114,
      "agan": 8115,
      "apt": 8116,
      "Ġencode": 8117,
      "à¤¿à¤®": 8118,
      "Ġà¦ļ": 8119,
      "ĠÐ¿Ð¾Ð´": 8120,
      "Ã«r": 8121,
      "Ð¾ÑĢÑĤ": 8122,
      "conn": 8123,
      "Ġfeet": 8124,
      "åıĳ": 8125,
      "ÙĲÙĬ": 8126,
      "áĴª": 8127,
      "ĠConsole": 8128,
      "ķà´³": 8129,
      "omorph": 8130,
      "Ġconcern": 8131,
      "Ġmanufact": 8132,
      "Integer": 8133,
      "áĵªáĵ": 8134,
      "ĠaygÄ±t": 8135,
      "Ġcompanies": 8136,
      "Compiler": 8137,
      "ĠTOTECO": 8138,
      "ĠAlgorith": 8139,
      "_W": 8140,
      "lap": 8141,
      "vat": 8142,
      "Å¥": 8143,
      "Ġtol": 8144,
      "Ġmab": 8145,
      "Ġmata": 8146,
      "Ð»ÑĭÐº": 8147,
      "Ð´Ð°Ð³": 8148,
      "ĠNumber": 8149,
      "ĠâĢµ": 8150,
      "ĠÑĤÐ¾": 8151,
      "Ġquite": 8152,
      "anni": 8153,
      "Ð°ÑĤÓĻ": 8154,
      "Ã§Ã£o": 8155,
      "Ġà®¤": 8156,
      "Ġ/**Ċ": 8157,
      "Ġà²¸": 8158,
      "itting": 8159,
      "å¤ļ": 8160,
      "-color": 8161,
      "DO": 8162,
      "bes": 8163,
      "cn": 8164,
      "hen": 8165,
      "section": 8166,
      "éĽ": 8167,
      "Ġpes": 8168,
      "ĠdÉĽ": 8169,
      "Ġlic": 8170,
      "ÑĢÐµ": 8171,
      "edit": 8172,
      "unk": 8173,
      "ĠrÃ¡": 8174,
      "andu": 8175,
      "Ġalt": 8176,
      "ĠHis": 8177,
      "à¤¿à¤µ": 8178,
      "ĠÐ±Ð¸": 8179,
      "Ġquery": 8180,
      "Ġyaa": 8181,
      "Ġâµĵ": 8182,
      "module": 8183,
      "Æ°á»": 8184,
      "Active": 8185,
      "Layout": 8186,
      "æĻĤ": 8187,
      "Ġwonder": 8188,
      "Ġeducation": 8189,
      "Ġserviette": 8190,
      "Ġcoordinates": 8191,
      ".id": 8192,
      "_list": 8193,
      "xb": 8194,
      "æı": 8195,
      "ĠaÃ°": 8196,
      "Ġnik": 8197,
      "Ġcub": 8198,
      "Ġgold": 8199,
      "adan": 8200,
      "Ġram": 8201,
      "áĥļ": 8202,
      "Ġseem": 8203,
      "É¨m": 8204,
      "Ġkeu": 8205,
      "tices": 8206,
      "Ġpair": 8207,
      "Ġ+=": 8208,
      "Ã¢i": 8209,
      "ä¹Ł": 8210,
      "Ġbinary": 8211,
      "æĸ¹": 8212,
      "Ġargument": 8213,
      "Removing": 8214,
      "Ġhieronta": 8215,
      "Ġconflicts": 8216,
      "ĠWHERE": 8217,
      "ĠWednesday": 8218,
      "ĠCyokaminkoku": 8219,
      "±áĢ": 8220,
      "Òµ": 8221,
      "ĸ×": 8222,
      "Ġteng": 8223,
      "Ġsis": 8224,
      "Ġbug": 8225,
      "unan": 8226,
      "Ġidi": 8227,
      "umm": 8228,
      "à¥ģà¤ķ": 8229,
      "ĠÙħÙĪ": 8230,
      "ync": 8231,
      "Ġemb": 8232,
      "Ġsets": 8233,
      "Ġbonus": 8234,
      "éĥ¨": 8235,
      "_DIR": 8236,
      "ĠnÃ¡nÉ¨": 8237,
      "ĠTODO": 8238,
      "à¬ĻàŃįà¬": 8239,
      "Ġ×¦×ķ": 8240,
      "à¤¾à¥½": 8241,
      "Ġrespectively": 8242,
      "Ġinternational": 8243,
      "mh": 8244,
      "uti": 8245,
      "Ġgod": 8246,
      "olve": 8247,
      "Ġreview": 8248,
      "igin": 8249,
      "ĠJo": 8250,
      "update": 8251,
      "ÑıÐ²": 8252,
      "Ġparts": 8253,
      "output": 8254,
      "à¦¿à¦¨": 8255,
      "à·ļ": 8256,
      "Ġà°ħ": 8257,
      "ownload": 8258,
      "Ġupdate": 8259,
      "dj": 8260,
      "mr": 8261,
      "qx": 8262,
      "ĠtÃ©": 8263,
      "Ġses": 8264,
      "unit": 8265,
      "idad": 8266,
      "ĠAP": 8267,
      "ÐºÐ¸Ð½": 8268,
      "Ġforces": 8269,
      "Ġstd": 8270,
      "Ġstates": 8271,
      "ĠKal": 8272,
      "Ġmaf": 8273,
      "à´Ĥ": 8274,
      "à¥ģà¤®": 8275,
      "Ġboy": 8276,
      "à¤¸à¥įà¤¤": 8277,
      "ĠáĥĴ": 8278,
      "Ġfrauen": 8279,
      "å°±": 8280,
      "Ġpopulation": 8281,
      "Ġnecessary": 8282,
      "Ġolsem": 8283,
      "ĠÑĢÐµÐ³Ð¸Ð¾Ð½": 8284,
      "Ġswingerclub": 8285,
      ")\\": 8286,
      "Math": 8287,
      "gp": 8288,
      "mn": 8289,
      "tf": 8290,
      "ļáĢ": 8291,
      "Ġnal": 8292,
      "ĠkÄģ": 8293,
      "Ġrules": 8294,
      "ĠÑķ": 8295,
      "ocol": 8296,
      "too": 8297,
      "ĠUse": 8298,
      "ensive": 8299,
      "á±®": 8300,
      "Ġsoon": 8301,
      "Ġà®¨": 8302,
      "-file": 8303,
      "Ġcommunity": 8304,
      "gk": 8305,
      "het": 8306,
      "jv": 8307,
      "mÉĶ": 8308,
      "qk": 8309,
      "rat": 8310,
      "rical": 8311,
      "uid": 8312,
      "rek": 8313,
      "Ġkant": 8314,
      "level": 8315,
      "asm": 8316,
      "ĠgÃ¶": 8317,
      "utt": 8318,
      "ĠPal": 8319,
      "ĠPet": 8320,
      "ĠBer": 8321,
      "oca": 8322,
      "Ġxu": 8323,
      "object": 8324,
      "Ġprime": 8325,
      "Ġtaki": 8326,
      "Ġ?*": 8327,
      "Ġpodest": 8328,
      "ĠAfter": 8329,
      "Þ©Þ": 8330,
      "áĤĨáĤ": 8331,
      "ãģĹãģ¾ãģĻ": 8332,
      "Controls": 8333,
      ".V": 8334,
      "ao": 8335,
      "hin": 8336,
      "sch": 8337,
      "ç´": 8338,
      "orage": 8339,
      "ulate": 8340,
      "ĠCent": 8341,
      "áĥĽ": 8342,
      "Ġzv": 8343,
      "ĠRob": 8344,
      "ĠFrom": 8345,
      "Ġanything": 8346,
      "à¤¢à¤¼": 8347,
      "asparian": 8348,
      "Ġzofisye": 8349,
      "ä»»åĬ¡": 8350,
      "Ġawaknyan": 8351,
      ")čĊ": 8352,
      "ball": 8353,
      "dp": 8354,
      "nw": 8355,
      "nz": 8356,
      "vb": 8357,
      "vp": 8358,
      "ÊĬ": 8359,
      "iten": 8360,
      "Ġlamp": 8361,
      "à¥§": 8362,
      "Ġyal": 8363,
      "ĠSince": 8364,
      "emu": 8365,
      "ird": 8366,
      "Ġjud": 8367,
      "à¥ĩà¤¶": 8368,
      "Ġusually": 8369,
      "oved": 8370,
      "Ġresource": 8371,
      "####": 8372,
      "ĠZe": 8373,
      "ÐµÐ¼Ðµ": 8374,
      "Ġphase": 8375,
      "Ġfecha": 8376,
      "fficient": 8377,
      "±à¸ļ": 8378,
      "çŁ¥": 8379,
      "ĠInstitute": 8380,
      "Ġdisease": 8381,
      "Ġcolumns": 8382,
      "áŁģáŀ": 8383,
      "Ġconsultar": 8384,
      "Ġspectrum": 8385,
      "Ref": 8386,
      "tc": 8387,
      "Ò©": 8388,
      "Ġsib": 8389,
      "Ġpip": 8390,
      "Ġbud": 8391,
      "Ð»ÓĻÑĢ": 8392,
      "Ġasset": 8393,
      "ĠWeb": 8394,
      "à¥ĩà¤¸": 8395,
      "Ġlau": 8396,
      "Ġmotion": 8397,
      "Ġfood": 8398,
      ".Red": 8399,
      "Use": 8400,
      "sd": 8401,
      "}čĊ": 8402,
      "ÛĪ": 8403,
      "è¨": 8404,
      "Ġuri": 8405,
      "Ħàº": 8406,
      "Ġfill": 8407,
      "ĠtÉĻ": 8408,
      "Ġsans": 8409,
      "Ġsymbol": 8410,
      "Ġnight": 8411,
      "isha": 8412,
      "amily": 8413,
      "ÑĢÐµÐ´": 8414,
      "irit": 8415,
      "à¥įà¤Ľ": 8416,
      "Ã©h": 8417,
      "ops": 8418,
      "ĠÐºÐ°Ð¹": 8419,
      "ubu": 8420,
      "ĠFil": 8421,
      "Ġune": 8422,
      "ĠOp": 8423,
      "icht": 8424,
      "aji": 8425,
      "Ġroom": 8426,
      "());Ċ": 8427,
      "à·Ļ": 8428,
      "á¹£": 8429,
      "Ġfactors": 8430,
      "Ġlooking": 8431,
      "Ġwriting": 8432,
      "transition": 8433,
      "Ġnetwork": 8434,
      "ĠHandles": 8435,
      "Ð¸Ð½Ð¸ÑģÑĤÑĢ": 8436,
      "Ġboolean": 8437,
      "Ġinfluence": 8438,
      "łĠÂłĠÂ": 8439,
      "Ġpictures": 8440,
      "ĠSecretary": 8441,
      "core": 8442,
      "call": 8443,
      "lg": 8444,
      "vz": 8445,
      "yÉĽ": 8446,
      "Ï¥": 8447,
      "ĉĠĠĠ": 8448,
      "Ġsense": 8449,
      "alled": 8450,
      "ester": 8451,
      "Ġkod": 8452,
      "ÑĢÐ¸Ð½": 8453,
      "eles": 8454,
      "Ð´Ð¾": 8455,
      "Ġconcept": 8456,
      "ĠÃ¦": 8457,
      "Ġtek": 8458,
      "ichi": 8459,
      "à¦¾à¦ĩ": 8460,
      "Ġclac": 8461,
      "Ġground": 8462,
      "ĠÞĢ": 8463,
      ".Con": 8464,
      "ĠText": 8465,
      "_dynamic": 8466,
      "/m": 8467,
      "AQ": 8468,
      "Ġnts": 8469,
      "Ġnopa": 8470,
      "Ġbik": 8471,
      "rade": 8472,
      "ÑģÐ¸": 8473,
      "Ġà¤ĺ": 8474,
      "Ð¼Ð°ÑĤ": 8475,
      "ailed": 8476,
      "Ġproof": 8477,
      "Ð°ÑĢÑĭ": 8478,
      "ĠÃ£": 8479,
      "êŀĮa": 8480,
      "à²ķ": 8481,
      "Ð±Ð°": 8482,
      "ãģĮ": 8483,
      "Ġplus": 8484,
      "Ġpain": 8485,
      "Ġroll": 8486,
      "áĭİ": 8487,
      "())Ċ": 8488,
      "Ġera": 8489,
      "Ġsimply": 8490,
      "logical": 8491,
      "Ġsolving": 8492,
      "Ġfinite": 8493,
      "Ġà¶ļ": 8494,
      "åŃĲ": 8495,
      "Ġexplain": 8496,
      "missions": 8497,
      "éŁ³": 8498,
      "Ġfailed": 8499,
      "uncios": 8500,
      "Ġalbum": 8501,
      "ĠWorkspace": 8502,
      "#,": 8503,
      "CA": 8504,
      "`,": 8505,
      "yh": 8506,
      "zx": 8507,
      "ĉfont": 8508,
      "Ġfat": 8509,
      "Ġflo": 8510,
      "erd": 8511,
      "Ġpis": 8512,
      "Ġoon": 8513,
      "Ġmaj": 8514,
      "ĠWorld": 8515,
      "ä¸İ": 8516,
      "Ġà¤®à¤¨": 8517,
      "ĠÐ¿ÑĢÐµÐ´": 8518,
      "ä½ľ": 8519,
      "à¤¾à¤Ĥà¤¤": 8520,
      "·»åĬł": 8521,
      "ç¶ļãģ": 8522,
      "ģà¸¥à¸°": 8523,
      ".I": 8524,
      "bay": 8525,
      "qar": 8526,
      "session": 8527,
      "Â·": 8528,
      "ĩàº": 8529,
      "Ġmere": 8530,
      "Ġpik": 8531,
      "Ġbring": 8532,
      "Ġhop": 8533,
      "Ġris": 8534,
      "taa": 8535,
      "ĠÐºÑĮ": 8536,
      "ĠÃ²": 8537,
      "ĠWal": 8538,
      "ĠÐ´Ð¾": 8539,
      "Å¡i": 8540,
      "begin": 8541,
      "Ð°Ð³Ð°": 8542,
      "à¤¤à¤¾": 8543,
      "Ġà²ķ": 8544,
      "Ġmeaning": 8545,
      "Helper": 8546,
      "àº´àº": 8547,
      "à¬¾à¬ĩà¬": 8548,
      "Ġscript": 8549,
      "Ġinstrument": 8550,
      "ĠÑİeir": 8551,
      ".r": 8552,
      "fw": 8553,
      "nx": 8554,
      "uff": 8555,
      "}^{": 8556,
      "anel": 8557,
      "à¤ı": 8558,
      "Ġmate": 8559,
      "Ġkj": 8560,
      "Ġbek": 8561,
      "Ã©g": 8562,
      "àªĤàª": 8563,
      "ĠFe": 8564,
      "Ġshiv": 8565,
      "áŀĶ": 8566,
      "ÙĦÛĮ": 8567,
      "anning": 8568,
      "Ġimages": 8569,
      "Ġnyi": 8570,
      "Ġmark": 8571,
      "Ġà´ķ": 8572,
      "Ġneeded": 8573,
      "Change": 8574,
      "/p": 8575,
      "jg": 8576,
      "lock": 8577,
      "enes": 8578,
      "Ġnit": 8579,
      "std": 8580,
      "ĠMak": 8581,
      "Ġseks": 8582,
      "Ġconduct": 8583,
      "awk": 8584,
      "ÙĨØª": 8585,
      "Õ¡Õ´": 8586,
      "berg": 8587,
      "ĠâĦ": 8588,
      "Ġà®ļ": 8589,
      "Ġà²ª": 8590,
      "Ġrelative": 8591,
      "files": 8592,
      "à¬°àŃĩ": 8593,
      "ĠÑĺÐµ": 8594,
      "Ġobtained": 8595,
      "Ġlikely": 8596,
      ",nro": 8597,
      "Ġnucle": 8598,
      "ĠFROM": 8599,
      "iesbaden": 8600,
      "ÙİÙĦÙİ": 8601,
      "Ġinfinite": 8602,
      "Ġearlier": 8603,
      "Metadata": 8604,
      "Col": 8605,
      "vq": 8606,
      "ÄŃ": 8607,
      "æŀ": 8608,
      "Ġurl": 8609,
      "Ġtung": 8610,
      "inte": 8611,
      "Ð»Ð°Ð´": 8612,
      "Ġthin": 8613,
      "ĠAD": 8614,
      "ĠØº": 8615,
      "Ġwhose": 8616,
      "ÑĪÐº": 8617,
      "ĠÑĤÐ°Ðº": 8618,
      "Ġtao": 8619,
      "Ã³l": 8620,
      "Õ¡Õ¿": 8621,
      "ãĢĤ(": 8622,
      "à§įà¦¯": 8623,
      "Ġpran": 8624,
      "ÙĥØ³": 8625,
      "à¯ĩ": 8626,
      "Ġfront": 8627,
      "JS": 8628,
      "Pre": 8629,
      "Tag": 8630,
      "UI": 8631,
      "bp": 8632,
      "hp": 8633,
      "ÈĽ": 8634,
      "ĠpÆ¡": 8635,
      "org": 8636,
      "Ġdj": 8637,
      "Ġhours": 8638,
      "ÐµÐ¸ÑĤ": 8639,
      "ĠSun": 8640,
      "Ð´ÐµÑĢ": 8641,
      "Ø§Ù¾": 8642,
      "Ġnee": 8643,
      "à°Ĥ": 8644,
      "ÑıÐ¼": 8645,
      "ÃŃs": 8646,
      "ialize": 8647,
      "Ã¢r": 8648,
      "Ġà®®": 8649,
      "Ġsett": 8650,
      "Ð½Ð¾Ð³Ð¾": 8651,
      "à¼ĭà½Ĥà½": 8652,
      "restauracion": 8653,
      ",free": 8654,
      ",zona": 8655,
      ",estado": 8656,
      "_diente": 8657,
      "åŁº": 8658,
      "æ¬¡": 8659,
      "onymous": 8660,
      "Ġeasier": 8661,
      "ĠCourt": 8662,
      "(Triangle": 8663,
      "El": 8664,
      "dw": 8665,
      "kf": 8666,
      "xm": 8667,
      "Â¬": 8668,
      "atas": 8669,
      "ĠmÊī": 8670,
      "Ġbits": 8671,
      "Ġkia": 8672,
      "aged": 8673,
      "active": 8674,
      "ĠNou": 8675,
      "Ġasked": 8676,
      "à¥ĭà¤²": 8677,
      "ÊīÌĥ": 8678,
      "áĴĭ": 8679,
      "ÑĤÑĭÒ¥": 8680,
      "Result": 8681,
      "Query": 8682,
      "Ġappear": 8683,
      "Rightarrow": 8684,
      "elineskip": 8685,
      "Ġrectangular": 8686,
      "Ġà¦Ńà¦¾à¦°à¦¤": 8687,
      "Ġimpossible": 8688,
      ")*": 8689,
      "Content": 8690,
      "dam": 8691,
      "hua": 8692,
      "yz": 8693,
      "ŁáĢ": 8694,
      "Ġaus": 8695,
      "Ġmode": 8696,
      "Ġpit": 8697,
      "Ġdun": 8698,
      "ische": 8699,
      "Ġkg": 8700,
      "Ġkop": 8701,
      "Ġgag": 8702,
      "Ġtool": 8703,
      "ayi": 8704,
      "ĠâĢĿ": 8705,
      "ĠKid": 8706,
      "áĪī": 8707,
      "lav": 8708,
      "ĠØ§ÙĦØ£": 8709,
      "ÛķÚ©": 8710,
      "Ġearly": 8711,
      "Ġignore": 8712,
      "Ġà¬Ĩà¬": 8713,
      ",'": 8714,
      "-left": 8715,
      ".ex": 8716,
      "Ap": 8717,
      "Url": 8718,
      "Web": 8719,
      "Ġako": 8720,
      "Ġpump": 8721,
      "ĠÐ¦": 8722,
      "leh": 8723,
      "asu": 8724,
      "ĠTooltip": 8725,
      "Ð´ÑĭÑĢ": 8726,
      "ibu": 8727,
      "Ġ×ŀ": 8728,
      "Þ¦Þĥ": 8729,
      "Ġcook": 8730,
      "Ġextends": 8731,
      "(k": 8732,
      "mes": 8733,
      "xk": 8734,
      "Ġsane": 8735,
      "Ġdynamic": 8736,
      "Ġkos": 8737,
      "icate": 8738,
      "Ġgames": 8739,
      "rav": 8740,
      "ento": 8741,
      "ĠAS": 8742,
      "odo": 8743,
      "Ġene": 8744,
      "ĠFind": 8745,
      "ÐµÐ½Ð¸Ñı": 8746,
      "Ġtaa": 8747,
      "plex": 8748,
      "Ã¼l": 8749,
      "Ġàª°": 8750,
      "Ġfollows": 8751,
      "Ġletan": 8752,
      "æĹ¶": 8753,
      "-weight": 8754,
      "à¤Ļà¥įà¤": 8755,
      "Ġreasons": 8756,
      "Ġjavax": 8757,
      "Ġalternative": 8758,
      "ĠFPAC": 8759,
      "Ġheavy": 8760,
      "â²ĵâ²": 8761,
      "Ġsurabaya": 8762,
      ">æīĭç¶ļãģ": 8763,
      "haudieres": 8764,
      "ĠÑĤÓ¹Ð´Ó¹": 8765,
      "ãģĹãģŁåł´åĲĪ": 8766,
      ">,": 8767,
      "Ab": 8768,
      "[{Ċ": 8769,
      "Ġnes": 8770,
      "Ġkha": 8771,
      "Ġgene": 8772,
      "eman": 8773,
      "Ġbeg": 8774,
      "Ġseems": 8775,
      "ĠKat": 8776,
      "awng": 8777,
      "ĠJa": 8778,
      "à´¨": 8779,
      "orem": 8780,
      "âĢĿ.": 8781,
      "Ð¾Ð»Ð¾Ð³": 8782,
      "Ã¢t": 8783,
      "bert": 8784,
      "ĠÑįÐ»": 8785,
      "à¤¤à¥ĩ": 8786,
      "Ġadding": 8787,
      "ãĢĢ": 8788,
      "Åįng": 8789,
      "Ġ$$\\": 8790,
      "hot": 8791,
      "match": 8792,
      "source": 8793,
      "wed": 8794,
      "ĠÄģ": 8795,
      "ĠfÃ¼r": 8796,
      "Ð°Ð°Ð½": 8797,
      "Ġnur": 8798,
      "Ġbhi": 8799,
      "Ġlocation": 8800,
      "umin": 8801,
      "ĠMulti": 8802,
      "Ġras": 8803,
      "Ġneu": 8804,
      "Ġora": 8805,
      "Ġcomes": 8806,
      "Ġà¦¦": 8807,
      "à¼ĭà½¡": 8808,
      "ĠÐ³ÑĢ": 8809,
      "ĠStud": 8810,
      "Â»,": 8811,
      "Ġassume": 8812,
      "ĠÙĬÚł": 8813,
      "ĠÉĹ": 8814,
      "Model": 8815,
      "Ġdirectly": 8816,
      "Ġlanger": 8817,
      "(context": 8818,
      "ĉbackground": 8819,
      "Ġsparse": 8820,
      "Ġopposite": 8821,
      "ĠAnnotation": 8822,
      "(&": 8823,
      "field": 8824,
      "tag": 8825,
      "yb": 8826,
      "Üĺ": 8827,
      "é£": 8828,
      "Ġtla": 8829,
      "Ġnib": 8830,
      "ÑģÐ°Ð½": 8831,
      "ague": 8832,
      "Ġud": 8833,
      "ÑĪÑĤ": 8834,
      "ÓĻÐº": 8835,
      "Ġà¦ı": 8836,
      "ĠÙħØ¹": 8837,
      "ĠÐ»Ðµ": 8838,
      "Ġà¤¹à¤®": 8839,
      "block": 8840,
      "æĸ°": 8841,
      "Ġshare": 8842,
      "Ġproducts": 8843,
      "ĠÐºÐµÑĢÐµÐº": 8844,
      "Ġbadezimmer": 8845,
      "ĠMexican": 8846,
      "ĠPlaintiff": 8847,
      "ÙĪØ±Ø¯Ø³ØªØ§ÙĨ": 8848,
      "%.": 8849,
      ".sh": 8850,
      "kat": 8851,
      "qf": 8852,
      "qj": 8853,
      "zf": 8854,
      "Ł©": 8855,
      "ÑĢÐ°Ð»": 8856,
      "Ġira": 8857,
      "raz": 8858,
      "Ġyun": 8859,
      "Ġrep": 8860,
      "à¤¾à¤£": 8861,
      "à¤¾à¤¬": 8862,
      "opt": 8863,
      "áŀĵ": 8864,
      "áģĬ": 8865,
      "Ġada": 8866,
      "áĭļ": 8867,
      "áī¶": 8868,
      "Ġgetting": 8869,
      "áįį": 8870,
      "Ġáī¥": 8871,
      "ĠØ¹ÙĦÙī": 8872,
      "Ġdomain": 8873,
      "Ġradius": 8874,
      "è¥¿": 8875,
      "Ġlezot": 8876,
      "áī¸áĭį": 8877,
      "â²ıâ²": 8878,
      "Provider": 8879,
      "Ġsurround": 8880,
      "Client": 8881,
      "End": 8882,
      "equ": 8883,
      "ëĭ": 8884,
      "ĠsÉĽ": 8885,
      "ÑĭÐ¶": 8886,
      "à¦Ĺ": 8887,
      "umer": 8888,
      "Ġoy": 8889,
      "Ð´Ð¶": 8890,
      "ĠjÃ¡": 8891,
      "ĠMus": 8892,
      "ĠMag": 8893,
      "ÙĨÙİ": 8894,
      "á»Ļ": 8895,
      "ÙħÛĮ": 8896,
      "âµī": 8897,
      "áĭĭ": 8898,
      "encia": 8899,
      "encies": 8900,
      "Ġidentifier": 8901,
      "hv": 8902,
      "ÒĻ": 8903,
      "inan": 8904,
      "Ġast": 8905,
      "Ð½Ð°Ð»": 8906,
      "ĠBrit": 8907,
      "Ġconvert": 8908,
      "êŀĮe": 8909,
      "ĠÑģÐ°Ð¹": 8910,
      "ÃŃt": 8911,
      "ĠÐ¿ÐµÑĢ": 8912,
      "Ġami": 8913,
      "ĠÐ²Ð¾": 8914,
      "ondition": 8915,
      "iji": 8916,
      "cons": 8917,
      "service": 8918,
      "Ġgave": 8919,
      "à°¾à°²": 8920,
      "aterial": 8921,
      "Ġcorrel": 8922,
      "-top": 8923,
      "ĠConfig": 8924,
      "ĠCOMM": 8925,
      "ĠMichael": 8926,
      "ĠFrench": 8927,
      "Ġpoisson": 8928,
      "Connection": 8929,
      "ĠMalaysia": 8930,
      "Ġwavelength": 8931,
      "ĠWITHOUT": 8932,
      "Ġqnlhangan": 8933,
      "Ġembedded": 8934,
      "Ġgefickt": 8935,
      "Ġà¤¨à¤¹à¥Ģà¤Ĥ": 8936,
      "Ġlesbianas": 8937,
      "æŃ£æĹ¦": 8938,
      ")),": 8939,
      "-na": 8940,
      "][": 8941,
      "_Droplet": 8942,
      "pn": 8943,
      "rx": 8944,
      "Ġsung": 8945,
      "Ġmir": 8946,
      "Ġmua": 8947,
      "ĠnÃº": 8948,
      "Ġwen": 8949,
      "Ġlou": 8950,
      "Ð¸Ð¶": 8951,
      "quin": 8952,
      "ĠKom": 8953,
      "à°®": 8954,
      "awh": 8955,
      "ÙĪÙĪ": 8956,
      "Ð·Ðµ": 8957,
      "ĠÐ¸Ð¼": 8958,
      "à§įà¦¬": 8959,
      "Ġkuv": 8960,
      "ÑĥÐ½Ð°": 8961,
      "ĠÜĺ": 8962,
      "Ġà®ĩ": 8963,
      "Ġtravel": 8964,
      "à¯įà®±": 8965,
      "à¥įà¤°à¥Ģ": 8966,
      "Ġcollection": 8967,
      "Ġgreater": 8968,
      "Ġunderstanding": 8969,
      "ÒĵÐ°Ð½": 8970,
      "æĸĩ": 8971,
      "(def": 8972,
      "-H": 8973,
      "])Ċ": 8974,
      "cont": 8975,
      "tm": 8976,
      "vest": 8977,
      "ĨáĢ": 8978,
      "Ġsides": 8979,
      "Ġmme": 8980,
      "Ġkpa": 8981,
      "Ġges": 8982,
      "ĠTi": 8983,
      "Ġoku": 8984,
      "ĠNow": 8985,
      "ĠNone": 8986,
      "ĠVol": 8987,
      "áĬ£": 8988,
      "Ã¢m": 8989,
      "ÏĦÎ¿": 8990,
      "Ġà²®": 8991,
      "Ú©ÙĨ": 8992,
      "Ġsexo": 8993,
      "crete": 8994,
      "}},Ċ": 8995,
      "Çİo": 8996,
      "èĢĮ": 8997,
      "emplate": 8998,
      "çłĶ": 8999,
      "Ġtenei": 9000,
      "Ġexercise": 9001,
      "ĠÐ¿ÐµÑģÐ½Ð¸": 9002,
      "ĠChinese": 9003,
      "Ġmagnitude": 9004,
      "Ð¸ÑĩÐµÑģÐº": 9005,
      "DF": 9006,
      "ared": 9007,
      "cg": 9008,
      "fj": 9009,
      "ior": 9010,
      "kb": 9011,
      "rz": 9012,
      "µáĢ¯áĢ": 9013,
      "èª": 9014,
      "éĸ": 9015,
      "Ġsas": 9016,
      "rees": 9017,
      "Ġbuk": 9018,
      "amen": 9019,
      "Ġgol": 9020,
      "aco": 9021,
      "Ġisang": 9022,
      "Ġanaly": 9023,
      "Ġconven": 9024,
      "âĢĻm": 9025,
      "Ġkiya": 9026,
      "ĠUs": 9027,
      "Ġngo": 9028,
      "ÛķÙĪ": 9029,
      "Ġservices": 9030,
      "ĠØªØ±": 9031,
      "Ġuseful": 9032,
      "Ġtakes": 9033,
      "Ġà¦ħà¦¸": 9034,
      "åľ°": 9035,
      "ĠMinister": 9036,
      "Ġprior": 9037,
      "Ġgrowth": 9038,
      "įáĢ¯áģļáĢºáĢ": 9039,
      "ĠÜĹÌĦÜĺ": 9040,
      "_initializer": 9041,
      "Access": 9042,
      "Per": 9043,
      "bÉĽ": 9044,
      "hj": 9045,
      "nak": 9046,
      "};ĊĊ": 9047,
      "}$$": 9048,
      "Î®": 9049,
      "æ³": 9050,
      "Ġill": 9051,
      "Ġtes": 9052,
      "ĠtÉĶ": 9053,
      "Ġmwa": 9054,
      "Ġwall": 9055,
      "Ġhm": 9056,
      "Ġeks": 9057,
      "ÑĥÐ°": 9058,
      "img": 9059,
      "ĠPat": 9060,
      "Ġstore": 9061,
      "à·Ĳ": 9062,
      "Ġinternal": 9063,
      "ĠÑįÐ´Ð¸": 9064,
      "ĠáĬŃ": 9065,
      "Ġgirls": 9066,
      "æľ¬": 9067,
      "ÑĺÐ°": 9068,
      "å°ı": 9069,
      "Ġworksheet": 9070,
      "Styling": 9071,
      "Ġ\"\\\"(": 9072,
      "ĠDogri": 9073,
      "ĠLARUE": 9074,
      "×Ļ×ķ×": 9075,
      "ustralia": 9076,
      "Ġperhaps": 9077,
      "Ġinterpret": 9078,
      "(M": 9079,
      "-right": 9080,
      "nv": 9081,
      "tan": 9082,
      "Äĭ": 9083,
      "Ļà¸": 9084,
      "Ġcatch": 9085,
      "Ġbri": 9086,
      "Ð»ÐµÐº": 9087,
      "Ġiyo": 9088,
      "Ġveg": 9089,
      "ĠTH": 9090,
      "Ð´ÓĻ": 9091,
      "actions": 9092,
      "à¥įà¤ļ": 9093,
      "Ã©ng": 9094,
      "ĠÐºÐ°ÑĤ": 9095,
      "Ġiter": 9096,
      "Ġsaa": 9097,
      "ÙĬÙħ": 9098,
      "ĠÐ¼Ð°Ð»": 9099,
      "direct": 9100,
      "comp": 9101,
      "Ġprice": 9102,
      "Ã±u": 9103,
      "Ġscreen": 9104,
      "ANG": 9105,
      "Ġrecent": 9106,
      "Ġstudent": 9107,
      "Ġoperation": 9108,
      "Ġoccur": 9109,
      "CS": 9110,
      "NA": 9111,
      "fk": 9112,
      "git": 9113,
      "lj": 9114,
      "lad": 9115,
      "qz": 9116,
      "vÄģ": 9117,
      "Â´": 9118,
      "Ġsah": 9119,
      "Ġfast": 9120,
      "itiv": 9121,
      "Ġkik": 9122,
      "Ġhav": 9123,
      "Ġliv": 9124,
      "akh": 9125,
      "ĠMas": 9126,
      "Ġdeep": 9127,
      "ĠBit": 9128,
      "Ġáº": 9129,
      "ĠLine": 9130,
      "à¤¿à¤ı": 9131,
      "ĠGal": 9132,
      "àµįà´Ł": 9133,
      "Ġ[]": 9134,
      "Ã¨ng": 9135,
      "Ġà°ª": 9136,
      "äºĭ": 9137,
      "-section": 9138,
      "Äįi": 9139,
      "ĠGroup": 9140,
      "Ġadditional": 9141,
      "anguage": 9142,
      "ĠMonday": 9143,
      "ÐºÐ¾Ð½Ð¾Ð¼": 9144,
      "Ġchosen": 9145,
      "á»Ľi": 9146,
      "ĠAssociation": 9147,
      "à²²à³įà²²": 9148,
      "WHNU": 9149,
      "Ç©Ç©": 9150,
      "Ġhypothesis": 9151,
      "ĠCOVID": 9152,
      "ãĤ³ãĥ¼ãĥ«": 9153,
      "-v": 9154,
      "Do": 9155,
      "HON": 9156,
      "Rule": 9157,
      "_w": 9158,
      "aut": 9159,
      "iÃ³n": 9160,
      "ĠbÃ¡": 9161,
      "rod": 9162,
      "ÑĤÑĥ": 9163,
      "ĠIl": 9164,
      "ĠPas": 9165,
      "ĠNOT": 9166,
      "Ġnaan": 9167,
      "à§İ": 9168,
      "Ġcomb": 9169,
      "Ġà°¤": 9170,
      "ĠØ¯Ø§ÙĨ": 9171,
      "É©É©": 9172,
      "à¤¾à¤°à¥Ģ": 9173,
      "Ġà¶´": 9174,
      "ĠØ§Ø²": 9175,
      "NE": 9176,
      "false": 9177,
      "job": 9178,
      "Íĺ": 9179,
      "Ð¨": 9180,
      "Ġase": 9181,
      "asan": 9182,
      "usal": 9183,
      "Ġ\"(": 9184,
      "ctor": 9185,
      "Ġshu": 9186,
      "Ġkuche": 9187,
      "ÙīÙĦ": 9188,
      "Ã¦Ð¹": 9189,
      "Ġdecre": 9190,
      "à¼ĭà½Ķà½łà½²": 9191,
      "ĠÏĦÎ¿": 9192,
      "Ġsymmet": 9193,
      "Looking": 9194,
      "ê©»áĢ": 9195,
      "Ġproduk": 9196,
      "ĠÃ¯a": 9197,
      "\\\\!\\\\(\\\\*": 9198,
      "Ġaccurate": 9199,
      "Ġkonungr": 9200,
      "Ġoubyen": 9201,
      "GET": 9202,
      "Mersi": 9203,
      "OK": 9204,
      "sz": 9205,
      "wam": 9206,
      "Ó¡": 9207,
      "ĿáĢºáĢ": 9208,
      "Ġfgo": 9209,
      "Ġnab": 9210,
      "Ġfaka": 9211,
      "Ġdx": 9212,
      "Ġcopy": 9213,
      "Ġwel": 9214,
      "Ġvid": 9215,
      "ĠCap": 9216,
      "à¥įà¤ª": 9217,
      "Ġanim": 9218,
      "ĠDate": 9219,
      "Ġuye": 9220,
      "oks": 9221,
      "àª¹": 9222,
      "tax": 9223,
      "à¬®": 9224,
      "ĠJu": 9225,
      "ĠJud": 9226,
      "ĠÐ±Ð°Ð»": 9227,
      "ocks": 9228,
      "Ġxxx": 9229,
      "ÑĥÑĢÑĤ": 9230,
      "ĠÐ³ÑĬ": 9231,
      "à±įà°²": 9232,
      "Ġà¤¹à¥ģà¤": 9233,
      "Ġtaking": 9234,
      "Ġrights": 9235,
      "Param": 9236,
      "ĠáĬ¥áĬķ": 9237,
      "Ġàªķàª°": 9238,
      "NIVESVlandhe": 9239,
      "NIVESVKJVGen": 9240,
      "_TEXT": 9241,
      "licenses": 9242,
      "Õ¸ÖĤÕ©Õ¥Õ¡Õ¶": 9243,
      "(-": 9244,
      "nf": 9245,
      "rw": 9246,
      "upe": 9247,
      "yv": 9248,
      "Ë¬": 9249,
      "Ġtus": 9250,
      "Ġtong": 9251,
      "à¤³": 9252,
      "ĠnÄģ": 9253,
      "Ġpriv": 9254,
      "Ġbottom": 9255,
      "check": 9256,
      "ĠMer": 9257,
      "ĠMark": 9258,
      "heet": 9259,
      "search": 9260,
      "Ġseason": 9261,
      "âĢĻr": 9262,
      "plot": 9263,
      "Ð·Ð¸": 9264,
      "ĠOut": 9265,
      "ĠÐ´Ð¶": 9266,
      "assa": 9267,
      "ĠÙħØŃ": 9268,
      "Ġ{ĊĊ": 9269,
      "Ã¨n": 9270,
      "ÒĽÓĻÐ°": 9271,
      "Ã®n": 9272,
      "actor": 9273,
      "_path": 9274,
      "Ġeffort": 9275,
      "Ìįh": 9276,
      "Ġcouple": 9277,
      "Ġfabric": 9278,
      "à¼ĭà¼į": 9279,
      "del": 9280,
      "gc": 9281,
      "æ±": 9282,
      "Ġsed": 9283,
      "isen": 9284,
      "Ġ(Ċ": 9285,
      "abul": 9286,
      "à®µ": 9287,
      "ournal": 9288,
      "ĠÑĤÐµÑĢ": 9289,
      "ÑıÐ»": 9290,
      "Ġusers": 9291,
      "Þ¦ÞĨ": 9292,
      "Ġboard": 9293,
      "ĠÎ¿": 9294,
      "Ġharumi": 9295,
      "Ġinside": 9296,
      "Ġcharge": 9297,
      "ĠChristmas": 9298,
      "Sub": 9299,
      "_get": 9300,
      "echo": 9301,
      "gz": 9302,
      "lf": 9303,
      "ÑĻ": 9304,
      "èĪ": 9305,
      "ĳáĢ": 9306,
      "Ġcast": 9307,
      "Ġhag": 9308,
      "ads": 9309,
      "Ġ()": 9310,
      "Ġround": 9311,
      "Ġdek": 9312,
      "ĠKon": 9313,
      "à½ĺ": 9314,
      "Ġuni": 9315,
      "àºµ": 9316,
      "Ġapre": 9317,
      "Ø³ÛĮ": 9318,
      "aje": 9319,
      "Ġkoe": 9320,
      "iyan": 9321,
      "ÑĨÐ°": 9322,
      "parse": 9323,
      "Ø§Øµ": 9324,
      "à±įà°°": 9325,
      "END": 9326,
      "ĠAlgebra": 9327,
      "axis": 9328,
      "ĠáĲĬ": 9329,
      "±àµįà´±": 9330,
      "éķ¿": 9331,
      "ĠTRUE": 9332,
      "Ġissued": 9333,
      "Ġdeutsch": 9334,
      "istribution": 9335,
      "ĠThursday": 9336,
      "ĠâĤ¬": 9337,
      "Ġslightly": 9338,
      "zzjoni": 9339,
      "_isdynamic": 9340,
      "{:/}ĊĊ": 9341,
      "ĠÐ¿ÑĢÐ¾Ð³ÑĢÐ°Ð¼": 9342,
      "More": 9343,
      "pk": 9344,
      "vj": 9345,
      "ĠtÄģ": 9346,
      "onom": 9347,
      "Ġsap": 9348,
      "ĠmÃ¡s": 9349,
      "Ġcup": 9350,
      "ĠbÉĶ": 9351,
      "lee": 9352,
      "Ġiri": 9353,
      "Ġoil": 9354,
      "ĠNode": 9355,
      "ander": 9356,
      "Ġenn": 9357,
      "ĠÐºÐ¸ÑĢ": 9358,
      "Ġassert": 9359,
      "ĠÃĳ": 9360,
      "ĠOf": 9361,
      "Ġ×Ķ": 9362,
      "osta": 9363,
      "ĠÚ©ÙĪ": 9364,
      "ÑĥÑĢÐ°": 9365,
      "Ġkoz": 9366,
      "à¦¿à¦¯à¦¼": 9367,
      "áĢºáĤī": 9368,
      "plicit": 9369,
      "ÑģÐºÐ¸Ð¹": 9370,
      "åħ¶": 9371,
      "Ġentry": 9372,
      "à«Ģàª": 9373,
      "lemma": 9374,
      "ĠPoint": 9375,
      "Ġerrors": 9376,
      "$(": 9377,
      "(z": 9378,
      "cj": 9379,
      "¾áĢ": 9380,
      "Ø¢": 9381,
      "ĦáĢ¹áĢ": 9382,
      "oration": 9383,
      "arning": 9384,
      "Ġkho": 9385,
      "asion": 9386,
      "ĠCenter": 9387,
      "ĠBang": 9388,
      "ogn": 9389,
      "Ġexcept": 9390,
      "eki": 9391,
      "à¼ĭà½¦": 9392,
      "athu": 9393,
      "ĠÐ½Ð°ÑĢ": 9394,
      "Ġpei": 9395,
      "ondo": 9396,
      "ship": 9397,
      "áĢ¬áĢ¸áĢ": 9398,
      "ÏĦÎµ": 9399,
      "Ġà´µ": 9400,
      "address": 9401,
      "Ġdemann": 9402,
      "Ġpassage": 9403,
      "Ġglobal": 9404,
      "Çİn": 9405,
      "áģŀáĢ¬áĢ": 9406,
      "Ġcancellation": 9407,
      "Ġmatrices": 9408,
      "Ġmentioned": 9409,
      "ĠÐĳÑĥÑĢÑħ": 9410,
      "ĠEncrypted": 9411,
      "Ġá¸ĵo": 9412,
      "Ġvirtual": 9413,
      "Ed": 9414,
      "cast": 9415,
      "lah": 9416,
      "yf": 9417,
      "Éĵ": 9418,
      "æ´": 9419,
      "éĺ": 9420,
      "atives": 9421,
      "Ġmug": 9422,
      "arily": 9423,
      "Ġiya": 9424,
      "Ġima": 9425,
      "ulas": 9426,
      "à¤¾à¤ģ": 9427,
      "rier": 9428,
      "Ġstat": 9429,
      "Ġmeas": 9430,
      "áŀŁ": 9431,
      "Ġrai": 9432,
      "à¤¨à¤¿": 9433,
      "ignment": 9434,
      "ĠáĢķáĢ": 9435,
      "áĢ½áĢ¶áĢ": 9436,
      "header": 9437,
      "Ġoperations": 9438,
      "ĠÉĸ": 9439,
      "Ġmassage": 9440,
      "returns": 9441,
      "ä¿Ĥ": 9442,
      "Ġhusband": 9443,
      "ĠÐ±Ð¸ÑģÑĤÐ¸Ò¥": 9444,
      "_PLUGIN": 9445,
      "').": 9446,
      "(this": 9447,
      "Number": 9448,
      "rp": 9449,
      "Ó£": 9450,
      "Ġpack": 9451,
      "rog": 9452,
      "ĠMersi": 9453,
      "ĠÃ½": 9454,
      "à¼ĭà½Ĩ": 9455,
      "Ġnii": 9456,
      "Ġtramp": 9457,
      "à·ĥ": 9458,
      "))))Ċ": 9459,
      "Ġupper": 9460,
      "scri": 9461,
      "typeparam": 9462,
      "Ġpolicy": 9463,
      "ributes": 9464,
      "filter": 9465,
      "èĢħ": 9466,
      "Ġconnection": 9467,
      "Ġá¼Ĳ": 9468,
      "Ġprimary": 9469,
      "_parameter": 9470,
      "qatigi": 9471,
      "Ġsmooth": 9472,
      "otropic": 9473,
      "ĠDistrict": 9474,
      "ĠEarth": 9475,
      "Ġshayari": 9476,
      "à¹Ĥà¸": 9477,
      "Ġà¤²à¥ĭà¤ķ": 9478,
      "Ġelectrique": 9479,
      "à¼ĭà½¢à¾Ĵà¾±à½": 9480,
      "Ġfundamental": 9481,
      "Obj": 9482,
      "bx": 9483,
      "§à¸": 9484,
      "ÐĹ": 9485,
      "Ġmou": 9486,
      "Ġii": 9487,
      "à¤¾à¤¥": 9488,
      "ikan": 9489,
      "andard": 9490,
      "ĠOb": 9491,
      "áĪª": 9492,
      "ĠVt": 9493,
      "ĠÐ¼Ð°Ð³": 9494,
      "Ġgoal": 9495,
      "ÑİÑĤ": 9496,
      "à´¿à´²": 9497,
      "Ġkonnen": 9498,
      "â²īâ²": 9499,
      "-T": 9500,
      "dm": 9501,
      "hx": 9502,
      "hia": 9503,
      "tor": 9504,
      "wah": 9505,
      "zq": 9506,
      "ĢáĢ¹áĢ": 9507,
      "inition": 9508,
      "Ġnad": 9509,
      "Ġple": 9510,
      "Ġdhe": 9511,
      "ĠÐ¯": 9512,
      "Ġgap": 9513,
      "Ġgata": 9514,
      "ĠvÉĻ": 9515,
      "akat": 9516,
      "Ġjak": 9517,
      "Ġisi": 9518,
      "Ġrua": 9519,
      "ĠFre": 9520,
      "ĠJune": 9521,
      "ello": 9522,
      "Ø³ÙĬ": 9523,
      "ĠÚ©Ùĩ": 9524,
      "à¦¿à¦ķ": 9525,
      "ihu": 9526,
      "Ð°Ð¼Ð°": 9527,
      "ĠÞĪ": 9528,
      "Ø§ÙĦÙħ": 9529,
      "ÐµÐ³ÐµÐ½": 9530,
      "ÎµÎ¹": 9531,
      "offset": 9532,
      "Ġcritical": 9533,
      "ĠCLOSE": 9534,
      "Ġproblenm": 9535,
      "Ġenportan": 9536,
      "ĠseÃ§in": 9537,
      "oggle": 9538,
      "varphi": 9539,
      "ĠÐŀÐ½Ð¾Ò¥": 9540,
      "Ġfamilies": 9541,
      "Ġ×¤Ö¿": 9542,
      "Ð°sÑĸnÐ¾": 9543,
      "áŁģáŁĩ": 9544,
      "ĢáĢµáĢ¯": 9545,
      "\"],": 9546,
      "Ass": 9547,
      "_RE": 9548,
      "bul": 9549,
      "jin": 9550,
      "kc": 9551,
      "kom": 9552,
      "vit": 9553,
      "çķ": 9554,
      "Ġaws": 9555,
      "ald": 9556,
      "Ġlate": 9557,
      "Ġreference": 9558,
      "quet": 9559,
      "owe": 9560,
      "ĠPeter": 9561,
      "tica": 9562,
      "Ġà¤ķà¥ĭ": 9563,
      "Ð¸Ð»ÑĮ": 9564,
      "ferral": 9565,
      "ĠÎ½": 9566,
      "Ġgain": 9567,
      "áĵķ": 9568,
      "Ġmultiplication": 9569,
      "Ġedge": 9570,
      "Ġentre": 9571,
      "Ġextended": 9572,
      "Ġdescription": 9573,
      "Ġprobably": 9574,
      "burg": 9575,
      "'in": 9576,
      ")-": 9577,
      ".to": 9578,
      "Pos": 9579,
      "hon": 9580,
      "lw": 9581,
      "sr": 9582,
      "{code": 9583,
      "ÅĦ": 9584,
      "erv": 9585,
      "Ġsti": 9586,
      "Ġpeng": 9587,
      "Ġdai": 9588,
      "arc": 9589,
      "Ġhak": 9590,
      "ĠTag": 9591,
      "Ġask": 9592,
      "ĠRev": 9593,
      "à´¤": 9594,
      "Ø¯ÛĮ": 9595,
      "Ġàª¬": 9596,
      "à·ĵ": 9597,
      "Ġgrand": 9598,
      "Ġà¤¹à¥ĭà¤": 9599,
      "àµģà´Ĥ": 9600,
      "SQL": 9601,
      "Ġmessages": 9602,
      "Ġmosaic": 9603,
      "Ġdeviation": 9604,
      "Ġapplicable": 9605,
      "google": 9606,
      "Ġsubtraction": 9607,
      "à°¿à°Ĥà°ļ": 9608,
      "Ġsampeyan": 9609,
      "ÐµÐ·Ð¸Ð´ÐµÐ½ÑĤ": 9610,
      "ĠManagement": 9611,
      ".Generator": 9612,
      "Hash": 9613,
      "_r": 9614,
      "kd": 9615,
      "kam": 9616,
      "vf": 9617,
      "yw": 9618,
      "Ġfire": 9619,
      "atter": 9620,
      "Ġpick": 9621,
      "Ġdob": 9622,
      "Ġcore": 9623,
      "Ġkala": 9624,
      "Ð½Ñį": 9625,
      "rows": 9626,
      "Ġgall": 9627,
      "idden": 9628,
      "ĠPublic": 9629,
      "ĠGo": 9630,
      "ÙĨÙĩ": 9631,
      "ĠshÃ¬": 9632,
      "ÙħØ§ÙĨ": 9633,
      "uare": 9634,
      "Ø¨ÙĪ": 9635,
      "Ġqil": 9636,
      "Ġelastic": 9637,
      "äºĮ": 9638,
      "Ġregular": 9639,
      "Ġdrug": 9640,
      "Ġstarting": 9641,
      "Ġincreasing": 9642,
      "Ġâ´·": 9643,
      ".indicator": 9644,
      "ĠjÃ¿ÑĢÃ¿Ð¼": 9645,
      "Ð¾ÑģÑĥÐ´Ð°ÑĢÑģÑĤÐ²": 9646,
      "cx": 9647,
      "pd": 9648,
      "page": 9649,
      "sf": 9650,
      "tin": 9651,
      "å£": 9652,
      "åĩ": 9653,
      "Ġsip": 9654,
      "Ġmund": 9655,
      "Ġnie": 9656,
      "Ġcard": 9657,
      "Ġhong": 9658,
      "rau": 9659,
      "ĠPost": 9660,
      "Ġuch": 9661,
      "Ð°Ð½Ð¸Ñı": 9662,
      "Ġzan": 9663,
      "à´®": 9664,
      "ÑĸÑģ": 9665,
      "ĠÞĦ": 9666,
      "ĠØ¯ÛĮ": 9667,
      "itution": 9668,
      "Ġframe": 9669,
      "Ġtrees": 9670,
      "ĠÃ¨n": 9671,
      "Ġevents": 9672,
      "Ġexpressions": 9673,
      "å¯¹": 9674,
      "=global": 9675,
      "Http": 9676,
      "Ġcelebr": 9677,
      "ĠSaturday": 9678,
      "Ġ\",\",": 9679,
      "ĠEgip": 9680,
      "ĠChallenge": 9681,
      "Ġdesired": 9682,
      "ĠCommittee": 9683,
      "ä½¿çĶ¨": 9684,
      "Ġelectrons": 9685,
      "Directory": 9686,
      "-G": 9687,
      "David": 9688,
      "Ke": 9689,
      "Match": 9690,
      "Page": 9691,
      "_re": 9692,
      "jq": 9693,
      "lot": 9694,
      "Üķ": 9695,
      "Ġpom": 9696,
      "orf": 9697,
      "Ġdl": 9698,
      "Ġkek": 9699,
      "Ġhur": 9700,
      "Ġemail": 9701,
      "etch": 9702,
      "ulations": 9703,
      "ĠNet": 9704,
      "Ġdire": 9705,
      "ĠÐºÃ¿": 9706,
      "resent": 9707,
      "udo": 9708,
      "Ġquality": 9709,
      "ovo": 9710,
      "ÑĭÐ½ÑĬ": 9711,
      "Ð¸ÑĢÐ¸": 9712,
      "à¨¾": 9713,
      "Ġyuav": 9714,
      "Ġlabor": 9715,
      "-F": 9716,
      ":#": 9717,
      "Now": 9718,
      "PM": 9719,
      "QU": 9720,
      "dom": 9721,
      "rou": 9722,
      "tra": 9723,
      "æ¸": 9724,
      "èĤ": 9725,
      "ĠÓĻ": 9726,
      "iness": 9727,
      "Ġthei": 9728,
      "ĠsÄ«": 9729,
      "ĠkÃ¡": 9730,
      "Ġkult": 9731,
      "âĢµ": 9732,
      "ĠAB": 9733,
      "irc": 9734,
      "Ġà¹": 9735,
      "áĥ¢": 9736,
      "Ġconver": 9737,
      "à°¤": 9738,
      "Ġparent": 9739,
      "Ġ*)Ċ": 9740,
      "Ġà¤ķà¤¿": 9741,
      "server": 9742,
      "ĠáĬĲ": 9743,
      "Ê¼d": 9744,
      "ĠÙĦÙĦ": 9745,
      "Ġconsist": 9746,
      ".apache": 9747,
      "[\\\\(": 9748,
      "é¦Ļ": 9749,
      "ë¡ľ": 9750,
      "Ġconcentration": 9751,
      "Ġáĥ¨áĥĶáĥ": 9752,
      "Ġconstraints": 9753,
      "Ġpatterns": 9754,
      "Ġerfahr": 9755,
      "×¢×ł×¢×Ł": 9756,
      "ĠÐĲÔ¥ÑģÐ½Ñĭ": 9757,
      "ĠÄĳÆ°á»£c": 9758,
      "_BRACE": 9759,
      ".net": 9760,
      "Pa": 9761,
      "Sim": 9762,
      "Sku": 9763,
      "Var": 9764,
      "_pro": 9765,
      "dec": 9766,
      "kel": 9767,
      "ĠĊĊ": 9768,
      "Ġtour": 9769,
      "Ġsad": 9770,
      "Ġdw": 9771,
      "Ġbie": 9772,
      "Ð»Ñİ": 9773,
      "Ð»ÐµÐ´": 9774,
      "raft": 9775,
      "ulated": 9776,
      "Ġdei": 9777,
      "ogi": 9778,
      "ĠRE": 9779,
      "Ð²ÑĢ": 9780,
      "Ġheat": 9781,
      "ĠáĪĿ": 9782,
      "Ġà·ĥ": 9783,
      "Ġparticip": 9784,
      "AV": 9785,
      "Over": 9786,
      "SP": 9787,
      "find": 9788,
      "mv": 9789,
      "message": 9790,
      "Ġere": 9791,
      "Ġfig": 9792,
      "Ġtold": 9793,
      "ishi": 9794,
      "Ġgor": 9795,
      "Ġ(+": 9796,
      "ĠPor": 9797,
      "Ġdeformation": 9798,
      "ĠBas": 9799,
      "ĠKam": 9800,
      "ĠFirst": 9801,
      "âĢĻre": 9802,
      "âµĵ": 9803,
      "Ġnews": 9804,
      "à¬¿à¬¬": 9805,
      "à²¾à²°": 9806,
      "åĪĨ": 9807,
      ".Menu": 9808,
      "ĠIndia": 9809,
      "\"/>Ċ": 9810,
      "Screen": 9811,
      "sigma": 9812,
      "ĠJSON": 9813,
      "\\\"}],\\\"": 9814,
      "Ġsphere": 9815,
      "Ġdislocation": 9816,
      "ĠQuestions": 9817,
      "ãĥ¼ãĤ": 9818,
      "jas": 9819,
      "ĿáĢº": 9820,
      "Ġfail": 9821,
      "Ġcop": 9822,
      "Ġinj": 9823,
      "Ġgore": 9824,
      "ĠgÄ§": 9825,
      "Ġvor": 9826,
      "umba": 9827,
      "ecut": 9828,
      "oder": 9829,
      "Ġrang": 9830,
      "Ġanak": 9831,
      "Ġdeath": 9832,
      "Ġnaw": 9833,
[...]
